{
  "version": "1.0",
  "truncation": null,
  "padding": null,
  "added_tokens": [
    {
      "id": 0,
      "content": "[PAD]",
      "single_word": false,
      "lstrip": false,
      "rstrip": false,
      "normalized": false,
      "special": true
    },
    {
      "id": 1,
      "content": "[UNK]",
      "single_word": false,
      "lstrip": false,
      "rstrip": false,
      "normalized": false,
      "special": true
    },
    {
      "id": 2,
      "content": "[BOS]",
      "single_word": false,
      "lstrip": false,
      "rstrip": false,
      "normalized": false,
      "special": true
    },
    {
      "id": 3,
      "content": "[EOS]",
      "single_word": false,
      "lstrip": false,
      "rstrip": false,
      "normalized": false,
      "special": true
    }
  ],
  "normalizer": null,
  "pre_tokenizer": {
    "type": "ByteLevel",
    "add_prefix_space": true,
    "trim_offsets": true,
    "use_regex": true
  },
  "post_processor": {
    "type": "ByteLevel",
    "add_prefix_space": true,
    "trim_offsets": true,
    "use_regex": true
  },
  "decoder": {
    "type": "ByteLevel",
    "add_prefix_space": true,
    "trim_offsets": true,
    "use_regex": true
  },
  "model": {
    "type": "BPE",
    "dropout": null,
    "unk_token": null,
    "continuing_subword_prefix": null,
    "end_of_word_suffix": null,
    "fuse_unk": false,
    "byte_fallback": false,
    "ignore_merges": false,
    "vocab": {
      "[PAD]": 0,
      "[UNK]": 1,
      "[BOS]": 2,
      "[EOS]": 3,
      "!": 4,
      "\"": 5,
      "#": 6,
      "$": 7,
      "%": 8,
      "&": 9,
      "'": 10,
      "(": 11,
      ")": 12,
      "*": 13,
      "+": 14,
      ",": 15,
      "-": 16,
      ".": 17,
      "/": 18,
      "0": 19,
      "1": 20,
      "2": 21,
      "3": 22,
      "4": 23,
      "5": 24,
      "6": 25,
      "7": 26,
      "8": 27,
      "9": 28,
      ":": 29,
      ";": 30,
      "=": 31,
      "?": 32,
      "@": 33,
      "A": 34,
      "B": 35,
      "C": 36,
      "D": 37,
      "E": 38,
      "F": 39,
      "G": 40,
      "H": 41,
      "I": 42,
      "J": 43,
      "K": 44,
      "L": 45,
      "M": 46,
      "N": 47,
      "O": 48,
      "P": 49,
      "Q": 50,
      "R": 51,
      "S": 52,
      "T": 53,
      "U": 54,
      "V": 55,
      "W": 56,
      "X": 57,
      "Y": 58,
      "Z": 59,
      "[": 60,
      "]": 61,
      "^": 62,
      "_": 63,
      "a": 64,
      "b": 65,
      "c": 66,
      "d": 67,
      "e": 68,
      "f": 69,
      "g": 70,
      "h": 71,
      "i": 72,
      "j": 73,
      "k": 74,
      "l": 75,
      "m": 76,
      "n": 77,
      "o": 78,
      "p": 79,
      "q": 80,
      "r": 81,
      "s": 82,
      "t": 83,
      "u": 84,
      "v": 85,
      "w": 86,
      "x": 87,
      "y": 88,
      "z": 89,
      "¡": 90,
      "¢": 91,
      "£": 92,
      "¤": 93,
      "¦": 94,
      "§": 95,
      "¨": 96,
      "©": 97,
      "ª": 98,
      "«": 99,
      "¬": 100,
      "¯": 101,
      "±": 102,
      "²": 103,
      "³": 104,
      "´": 105,
      "¶": 106,
      "¸": 107,
      "¹": 108,
      "º": 109,
      "¼": 110,
      "½": 111,
      "Â": 112,
      "Ã": 113,
      "Ä": 114,
      "Å": 115,
      "Ë": 116,
      "à": 117,
      "â": 118,
      "ä": 119,
      "è": 120,
      "é": 121,
      "Ġ": 122,
      "Ģ": 123,
      "ģ": 124,
      "Ĥ": 125,
      "ħ": 126,
      "ĩ": 127,
      "Ī": 128,
      "ī": 129,
      "Į": 130,
      "ĳ": 131,
      "ĵ": 132,
      "Ķ": 133,
      "ĺ": 134,
      "Ļ": 135,
      "ļ": 136,
      "Ľ": 137,
      "ľ": 138,
      "Ŀ": 139,
      "ł": 140,
      "Ń": 141,
      "Ġt": 142,
      "Ġth": 143,
      "Ġa": 144,
      "in": 145,
      "Ġw": 146,
      "Ġthe": 147,
      "re": 148,
      "Ġo": 149,
      "Ġs": 150,
      "at": 151,
      "er": 152,
      "nd": 153,
      "ou": 154,
      "Ġc": 155,
      "is": 156,
      "it": 157,
      "Ġb": 158,
      "ing": 159,
      "Ġm": 160,
      "en": 161,
      "Ġh": 162,
      "Ġto": 163,
      "on": 164,
      "Ġp": 165,
      "Ġf": 166,
      "es": 167,
      "an": 168,
      "Ġd": 169,
      "Ġof": 170,
      "or": 171,
      "ll": 172,
      "Ġin": 173,
      "ĠI": 174,
      "Ġand": 175,
      "ed": 176,
      "Ġl": 177,
      "ar": 178,
      "Ġthat": 179,
      "Ġy": 180,
      "om": 181,
      "Ġg": 182,
      "as": 183,
      "ic": 184,
      "le": 185,
      "Ġyou": 186,
      "ve": 187,
      "al": 188,
      "Ġwe": 189,
      "Ġn": 190,
      "Ġwh": 191,
      "ow": 192,
      "Ġe": 193,
      "Ġis": 194,
      "us": 195,
      "Ġbe": 196,
      "ut": 197,
      "ĠA": 198,
      "Ġit": 199,
      "ion": 200,
      "ot": 201,
      "'s": 202,
      "et": 203,
      "ĠT": 204,
      "Ġre": 205,
      "ent": 206,
      "Ġha": 207,
      "ct": 208,
      "Ġon": 209,
      "ld": 210,
      "ver": 211,
      "ay": 212,
      "id": 213,
      "ĠTh": 214,
      "ĠAnd": 215,
      "se": 216,
      "all": 217,
      "im": 218,
      "Ġthis": 219,
      "st": 220,
      "ro": 221,
      "ig": 222,
      "ĠS": 223,
      "ur": 224,
      "Ġst": 225,
      "ly": 226,
      "ere": 227,
      "ch": 228,
      "ke": 229,
      "ce": 230,
      "Ġfor": 231,
      "if": 232,
      "Ġwas": 233,
      "ra": 234,
      "ĠW": 235,
      "ir": 236,
      "Ġan": 237,
      "Ġdo": 238,
      "Ġare": 239,
      "op": 240,
      "ith": 241,
      "oo": 242,
      "ally": 243,
      "th": 244,
      "am": 245,
      "Ġhave": 246,
      "Ġwith": 247,
      "Ġab": 248,
      "Ġu": 249,
      "Ġthey": 250,
      "Ġse": 251,
      "Ġk": 252,
      "Ġcan": 253,
      "Ġ-": 254,
      "Ġmo": 255,
      "Ġ--": 256,
      "ĠB": 257,
      "ation": 258,
      "Ġas": 259,
      "out": 260,
      "ht": 261,
      "Ġli": 262,
      "Ġso": 263,
      "Ġgo": 264,
      "Ġwhat": 265,
      "Ġwor": 266,
      "ĠSo": 267,
      "Ġcom": 268,
      "ad": 269,
      "'t": 270,
      "Ġhe": 271,
      "very": 272,
      "ould": 273,
      "ill": 274,
      "Ġme": 275,
      "Ġat": 276,
      "Ġsh": 277,
      "Ġabout": 278,
      "Ġne": 279,
      "ant": 280,
      "Ġnot": 281,
      "ter": 282,
      "ge": 283,
      "il": 284,
      "ol": 285,
      "ust": 286,
      "ul": 287,
      "Ġall": 288,
      "Ġj": 289,
      "ers": 290,
      "Ġfr": 291,
      "Ġex": 292,
      "ĠThe": 293,
      "use": 294,
      "Ġpro": 295,
      "ight": 296,
      "Ġch": 297,
      "Ġsom": 298,
      "Ġr": 299,
      "Ġor": 300,
      "Ġde": 301,
      "Ġmy": 302,
      "Ġthere": 303,
      "Ġpe": 304,
      "Ġ\"": 305,
      "art": 306,
      "ear": 307,
      "'re": 308,
      "ople": 309,
      "um": 310,
      "pp": 311,
      "ck": 312,
      "ĠWe": 313,
      "Ġcon": 314,
      "Ġlike": 315,
      "ate": 316,
      "ess": 317,
      "ies": 318,
      "ĠIt": 319,
      "ure": 320,
      "Ġpeople": 321,
      "Ġone": 322,
      "ity": 323,
      "ive": 324,
      "ca": 325,
      "nt": 326,
      "ĠN": 327,
      "est": 328,
      "Ġma": 329,
      "Ġfrom": 330,
      "ect": 331,
      "Ġkn": 332,
      "ist": 333,
      "ble": 334,
      "Ġbut": 335,
      "qu": 336,
      "Ġour": 337,
      "ind": 338,
      "Ġal": 339,
      "Ġus": 340,
      "Ġout": 341,
      "ink": 342,
      "Ġte": 343,
      "Ġjust": 344,
      "Ġint": 345,
      "rou": 346,
      "Ġknow": 347,
      "Ġv": 348,
      "un": 349,
      "ook": 350,
      "ĠC": 351,
      "ĠH": 352,
      "ĠM": 353,
      "Ġthing": 354,
      "cause": 355,
      "Ġthem": 356,
      "ide": 357,
      "Ġsp": 358,
      "and": 359,
      "ĠBut": 360,
      "Ġsee": 361,
      "os": 362,
      "ie": 363,
      "her": 364,
      "ort": 365,
      "Ġthese": 366,
      "Ġtr": 367,
      "Ġif": 368,
      "Ġup": 369,
      "Ġvery": 370,
      "Ġwho": 371,
      "Ġthink": 372,
      "Ġget": 373,
      "Ġpl": 374,
      "ci": 375,
      "ich": 376,
      "Ġby": 377,
      "el": 378,
      "Ġgoing": 379,
      "ĠY": 380,
      "ain": 381,
      "Ġsome": 382,
      "Ġ1": 383,
      "iv": 384,
      "Ġwhen": 385,
      "one": 386,
      "Ġact": 387,
      "Ġhad": 388,
      "Ġmore": 389,
      "Ġbecause": 390,
      "Ġyour": 391,
      "Ġyear": 392,
      "em": 393,
      "Ġwere": 394,
      "Ġsa": 395,
      "og": 396,
      "Ġim": 397,
      "Ġwould": 398,
      "our": 399,
      "Ġtim": 400,
      "ine": 401,
      "00": 402,
      "Ġtheir": 403,
      "od": 404,
      "Ġwhich": 405,
      "Ġlook": 406,
      "ment": 407,
      "ame": 408,
      "Ġwant": 409,
      "Ġwork": 410,
      "Ġhow": 411,
      "ast": 412,
      "Ġta": 413,
      "Ġreally": 414,
      "Ġcomp": 415,
      "Ġsu": 416,
      "iz": 417,
      "ually": 418,
      "ĠWh": 419,
      "ous": 420,
      "ĠO": 421,
      ".\"": 422,
      "ard": 423,
      "ood": 424,
      "act": 425,
      "'ve": 426,
      "ack": 427,
      "gh": 428,
      "Ġen": 429,
      "reat": 430,
      "ap": 431,
      "Ġway": 432,
      "hing": 433,
      "ose": 434,
      "ĠE": 435,
      "'m": 436,
      "Ġle": 437,
      "ore": 438,
      "Ġworld": 439,
      "are": 440,
      "Ġhere": 441,
      "Ġhas": 442,
      "ans": 443,
      "Ġtime": 444,
      "ab": 445,
      "ther": 446,
      "Ġthen": 447,
      "ag": 448,
      "Ġper": 449,
      "ĠThis": 450,
      "Ġevery": 451,
      "ĠYou": 452,
      "Ġqu": 453,
      "ĠP": 454,
      "ong": 455,
      "Ġdon": 456,
      "Ġexp": 457,
      "Ġinto": 458,
      "Ġcould": 459,
      "Ġman": 460,
      "Ġev": 461,
      "Ġco": 462,
      "ace": 463,
      "ions": 464,
      "Ġactually": 465,
      "res": 466,
      "Ġwill": 467,
      "Ġfe": 468,
      "Ġsay": 469,
      "ud": 470,
      "ild": 471,
      "ence": 472,
      "ĠD": 473,
      "Ġwhere": 474,
      "ĠG": 475,
      "itt": 476,
      "Ġnow": 477,
      "Ġyears": 478,
      "age": 479,
      "ĠL": 480,
      "Ġthings": 481,
      "Ġdid": 482,
      "Ġag": 483,
      "Ġother": 484,
      "alk": 485,
      "ĠNow": 486,
      "Ġsomet": 487,
      "ff": 488,
      "ach": 489,
      "nder": 490,
      "iff": 491,
      "ĠF": 492,
      "ĠIn": 493,
      "ĠThey": 494,
      "Ġbeen": 495,
      "ical": 496,
      "Ġany": 497,
      "Ġmake": 498,
      "Ġno": 499,
      "Ġcl": 500,
      "ice": 501,
      "Ġdiff": 502,
      "Ġhapp": 503,
      "Ġthan": 504,
      "ip": 505,
      "Ġneed": 506,
      "so": 507,
      "Ġtw": 508,
      "Ġun": 509,
      "Ġstart": 510,
      "Ġpr": 511,
      "red": 512,
      "Ġright": 513,
      "Ġ2": 514,
      "irst": 515,
      "Ġpart": 516,
      "Ġsaid": 517,
      "ome": 518,
      "Ġover": 519,
      "ree": 520,
      "Ġimp": 521,
      "Ġbu": 522,
      "ry": 523,
      "own": 524,
      "Ġdis": 525,
      "ign": 526,
      "Ġsomething": 527,
      "ia": 528,
      "ĠR": 529,
      "ite": 530,
      "Ġpo": 531,
      "ount": 532,
      "Ġback": 533,
      "ory": 534,
      "uch": 535,
      "pt": 536,
      "round": 537,
      "orm": 538,
      "Ġthose": 539,
      "ens": 540,
      "Ġmuch": 541,
      "Ġâ": 542,
      "Ġtwo": 543,
      "Ġgot": 544,
      "olog": 545,
      "Ġchan": 546,
      "Ġar": 547,
      "Ġcall": 548,
      "Ġfirst": 549,
      "ife": 550,
      "ib": 551,
      "Ġdiffere": 552,
      "ater": 553,
      "ass": 554,
      "ell": 555,
      "Ġalso": 556,
      "ound": 557,
      "Ġro": 558,
      "sel": 559,
      "Ġkind": 560,
      "cent": 561,
      "ep": 562,
      "ittle": 563,
      "Ġlo": 564,
      "Ġnew": 565,
      "Ġlot": 566,
      "ue": 567,
      "Ġlittle": 568,
      "ac": 569,
      "Ġcont": 570,
      "ght": 571,
      "Ġspe": 572,
      "way": 573,
      "Ġac": 574,
      "ult": 575,
      "ple": 576,
      "Ġmost": 577,
      "Ġtalk": 578,
      "ĠThat": 579,
      "Ġbet": 580,
      "ves": 581,
      "king": 582,
      "Ġshe": 583,
      "ber": 584,
      "vel": 585,
      "Ġph": 586,
      "Ġres": 587,
      "ru": 588,
      "Ġonly": 589,
      "ody": 590,
      "Ġunder": 591,
      "ving": 592,
      "ated": 593,
      "Ġdes": 594,
      "ĠâĻ": 595,
      "Ġeven": 596,
      "rain": 597,
      "able": 598,
      "Ġhis": 599,
      "ĠJ": 600,
      "Ġlife": 601,
      "ations": 602,
      "co": 603,
      "Ġday": 604,
      "Ġsy": 605,
      "Ġad": 606,
      "Ġam": 607,
      "Ġhum": 608,
      "Ġmany": 609,
      "Ġtake": 610,
      "ick": 611,
      "lo": 612,
      "Ġdifferent": 613,
      "ial": 614,
      "ict": 615,
      "Ġher": 616,
      "ms": 617,
      "other": 618,
      "rough": 619,
      "ish": 620,
      "Ġgood": 621,
      "du": 622,
      "int": 623,
      "ase": 624,
      "Ġreal": 625,
      "Ġcomm": 626,
      "ire": 627,
      "Ġaround": 628,
      "Ġdoes": 629,
      "ank": 630,
      "Ġthrough": 631,
      "Ġide": 632,
      "ĠThere": 633,
      "Ġdown": 634,
      "pe": 635,
      "ents": 636,
      "ĠWhat": 637,
      "ĠâĻ«": 638,
      "ph": 639,
      "ĠU": 640,
      "Ġput": 641,
      "urn": 642,
      "cess": 643,
      "'ll": 644,
      "Ġuse": 645,
      "Ġpre": 646,
      "Ġshow": 647,
      "ark": 648,
      "Ġbeing": 649,
      "ĠHe": 650,
      "Ġoff": 651,
      "Ġtell": 652,
      "form": 653,
      "ress": 654,
      "ors": 655,
      "ade": 656,
      "ible": 657,
      "Ġbl": 658,
      "ak": 659,
      "ether": 660,
      "Ġtoo": 661,
      "Ġhappen": 662,
      "ary": 663,
      "Ġsame": 664,
      "Ġthou": 665,
      "les": 666,
      "Ġem": 667,
      "Ġproble": 668,
      "ject": 669,
      "ance": 670,
      "Ġtry": 671,
      "Ġinc": 672,
      "ath": 673,
      "ne": 674,
      "Ġsm": 675,
      "xt": 676,
      "Ġcount": 677,
      "chn": 678,
      "Ġfact": 679,
      "wn": 680,
      "he": 681,
      "stem": 682,
      "ars": 683,
      "ys": 684,
      "Ġcome": 685,
      "ang": 686,
      "row": 687,
      "iver": 688,
      "ful": 689,
      "day": 690,
      "ord": 691,
      "ual": 692,
      "Ġra": 693,
      "tern": 694,
      "Ġdoing": 695,
      "Ġgen": 696,
      "Ġmay": 697,
      "Ġfind": 698,
      "ning": 699,
      "ile": 700,
      "Ġbig": 701,
      "ool": 702,
      "ric": 703,
      "Ġbr": 704,
      "ces": 705,
      "Ġgreat": 706,
      "Ġtechn": 707,
      "per": 708,
      "ting": 709,
      "Ġthree": 710,
      "Ġhuman": 711,
      "Ġwr": 712,
      "ved": 713,
      "Ġbec": 714,
      "Ġpers": 715,
      "ower": 716,
      "ĠIf": 717,
      "ically": 718,
      "Ġsur": 719,
      "Ġpercent": 720,
      "Ġtra": 721,
      "ons": 722,
      "Ġsystem": 723,
      "ied": 724,
      "Ġdec": 725,
      "Ġwell": 726,
      "ĠCh": 727,
      "fter": 728,
      "illion": 729,
      "Ġbuild": 730,
      "ology": 731,
      "body": 732,
      "Ġapp": 733,
      "nds": 734,
      "igh": 735,
      "thing": 736,
      "be": 737,
      "fore": 738,
      "Ġcalled": 739,
      "'d": 740,
      "Ġlet": 741,
      "te": 742,
      "Ġstud": 743,
      "self": 744,
      "Ġgu": 745,
      "Ġinv": 746,
      "Ġagain": 747,
      "cial": 748,
      "Ġsim": 749,
      "Ġchild": 750,
      "Ġquest": 751,
      "ition": 752,
      "we": 753,
      "ious": 754,
      "Ġmade": 755,
      "Ġexper": 756,
      "ities": 757,
      "ĠWell": 758,
      "Ġind": 759,
      "ics": 760,
      "mer": 761,
      "Ġlong": 762,
      "Ġrem": 763,
      "ating": 764,
      "Ġown": 765,
      "Ġfl": 766,
      "Ġlear": 767,
      "Ġwom": 768,
      "Ġimport": 769,
      "Ġbel": 770,
      "oss": 771,
      "Ġshould": 772,
      "ize": 773,
      "Ġwhy": 774,
      "ren": 775,
      "ates": 776,
      "Ġsc": 777,
      "ew": 778,
      "lic": 779,
      "ub": 780,
      "Ġunderst": 781,
      "oc": 782,
      "Ġturn": 783,
      "ian": 784,
      "ĠK": 785,
      "Ġchange": 786,
      "erest": 787,
      "Ġdidn": 788,
      "ty": 789,
      "Ġfeel": 790,
      "ft": 791,
      "Ġafter": 792,
      "Ġtoday": 793,
      "ction": 794,
      "Ġstarted": 795,
      "Ġthought": 796,
      "000": 797,
      "av": 798,
      "Ġimportant": 799,
      "Ġob": 800,
      "Ġdesign": 801,
      "Ġend": 802,
      "Ġmean": 803,
      "Ġperson": 804,
      "con": 805,
      "Ġask": 806,
      "Ġhel": 807,
      "Ġcour": 808,
      "ĠThank": 809,
      "Ġidea": 810,
      "als": 811,
      "Ġsci": 812,
      "Ġlast": 813,
      "ail": 814,
      "Ġbas": 815,
      "Ġhim": 816,
      "?\"": 817,
      "Ġbrain": 818,
      "Ġinterest": 819,
      "Ġits": 820,
      "Ġcreat": 821,
      "Ġinst": 822,
      "ĠBe": 823,
      "ull": 824,
      "gan": 825,
      "old": 826,
      "Ġhelp": 827,
      "Ġcar": 828,
      "Ġsch": 829,
      "Ġexam": 830,
      "Ġrel": 831,
      "Ġins": 832,
      "Ġtrans": 833,
      "Ġplay": 834,
      "Ġunderstand": 835,
      "Ġwent": 836,
      "ution": 837,
      "Ġbetter": 838,
      "Ġmight": 839,
      "ough": 840,
      "Ġ3": 841,
      "ily": 842,
      "Ġbefore": 843,
      "ost": 844,
      "ists": 845,
      "ise": 846,
      "Ġgive": 847,
      "ility": 848,
      "Ġanother": 849,
      "Ġproblem": 850,
      "Ġbit": 851,
      "Ġnever": 852,
      "ular": 853,
      "Ġke": 854,
      "Ġcoll": 855,
      "Ġable": 856,
      "Ġpoint": 857,
      "ave": 858,
      "Ġgra": 859,
      "Ġcourse": 860,
      "ĠSt": 861,
      "Ġcons": 862,
      "ese": 863,
      "Ġpol": 864,
      "ros": 865,
      "Ġprodu": 866,
      "und": 867,
      "Ġpower": 868,
      "Ġstill": 869,
      "Ġbelie": 870,
      "Ġstory": 871,
      "ven": 872,
      "Ġcommun": 873,
      "ob": 874,
      "Ġfam": 875,
      "Ġtog": 876,
      "Ġfound": 877,
      "Ġtogether": 878,
      "Ġinter": 879,
      "Ġfew": 880,
      "Ġent": 881,
      "kes": 882,
      "Ġbo": 883,
      "Ġplan": 884,
      "ert": 885,
      "Ġrep": 886,
      "ix": 887,
      "Ġsol": 888,
      "Ġele": 889,
      "oth": 890,
      "Ġsl": 891,
      "Ġmon": 892,
      "Ġago": 893,
      "Ġnext": 894,
      "ited": 895,
      "ng": 896,
      "alth": 897,
      "Ġkid": 898,
      "Ġplace": 899,
      "Ġnum": 900,
      "Ġcame": 901,
      "atch": 902,
      "Ġmod": 903,
      "velop": 904,
      "Ġdr": 905,
      "Ġsort": 906,
      "Ġwater": 907,
      "Ġhigh": 908,
      "Ġschool": 909,
      "erg": 910,
      "Ġcr": 911,
      "Ġdat": 912,
      "ween": 913,
      "Ġ19": 914,
      "uc": 915,
      "Ġlearn": 916,
      "Ġstr": 917,
      "Ġ20": 918,
      "Ġcomple": 919,
      "Ġimag": 920,
      "ather": 921,
      "ense": 922,
      "Ġused": 923,
      "read": 924,
      "iss": 925,
      "ized": 926,
      "Ġbetween": 927,
      "Ġla": 928,
      "Ġeach": 929,
      "ĠWhen": 930,
      "Ġter": 931,
      "meric": 932,
      "ience": 933,
      "Ġart": 934,
      "ness": 935,
      "ork": 936,
      "Ġrec": 937,
      "ward": 938,
      "Ġquestion": 939,
      "arch": 940,
      "Ġtechnology": 941,
      "Ġpat": 942,
      "Ġdevelop": 943,
      "Ġext": 944,
      "Ġ10": 945,
      "Ġser": 946,
      "ĠAf": 947,
      "Ġdata": 948,
      "Ġmed": 949,
      ",\"": 950,
      "ures": 951,
      "az": 952,
      "Ġsmall": 953,
      "Ġmet": 954,
      "Ġatt": 955,
      "ets": 956,
      "Ġcre": 957,
      "Ġwomen": 958,
      "ram": 959,
      "Ġfin": 960,
      "ĠAmeric": 961,
      "ways": 962,
      "Ġlooking": 963,
      "Ġlove": 964,
      "Ġcare": 965,
      "Ġold": 966,
      "Ġop": 967,
      "Ġfour": 968,
      "Ġgrow": 969,
      "Ġexample": 970,
      "ific": 971,
      "Ġpartic": 972,
      "cond": 973,
      "ered": 974,
      "ute": 975,
      "Ġdoesn": 976,
      "Ġeff": 977,
      "Ġdone": 978,
      "Ġwanted": 979,
      "ced": 980,
      "Ġmin": 981,
      "Ġmom": 982,
      "Ġlight": 983,
      "ah": 984,
      "Ġcomput": 985,
      "iness": 986,
      "ĠBecause": 987,
      "ings": 988,
      "ĠHow": 989,
      "ative": 990,
      "cept": 991,
      "Ġword": 992,
      "ably": 993,
      "ĠV": 994,
      "Ġcent": 995,
      "Ġread": 996,
      "Ġmove": 997,
      "pl": 998,
      "Ġever": 999,
      "Ġhard": 1000,
      "cy": 1001,
      "conom": 1002,
      "Ġcell": 1003,
      "Ġreas": 1004,
      "Ġstu": 1005,
      "Ġwhole": 1006,
      "formation": 1007,
      "Ġchang": 1008,
      "ross": 1009,
      "Ġlive": 1010,
      "Ġlar": 1011,
      "Ġfar": 1012,
      "Ġbeh": 1013,
      "Ġposs": 1014,
      "Ġmillion": 1015,
      "ands": 1016,
      "Ġtrying": 1017,
      "oney": 1018,
      "Ġbi": 1019,
      "Ġear": 1020,
      "here": 1021,
      "Ġnat": 1022,
      "selves": 1023,
      "ger": 1024,
      "ational": 1025,
      "Ġalways": 1026,
      "ote": 1027,
      "Ġaway": 1028,
      "ope": 1029,
      "Ġed": 1030,
      "Ġchildren": 1031,
      "ism": 1032,
      "Ġless": 1033,
      "Ġgiv": 1034,
      "Ġworking": 1035,
      "Ġeconom": 1036,
      "Ġel": 1037,
      "ĠUn": 1038,
      "Ġcap": 1039,
      "ments": 1040,
      "Ġ5": 1041,
      "Ġbelieve": 1042,
      "Ġcountry": 1043,
      "Ġsupp": 1044,
      "Ġgener": 1045,
      "ĠAfric": 1046,
      "..": 1047,
      "ural": 1048,
      "Ġbus": 1049,
      "ird": 1050,
      "cer": 1051,
      "Ġresp": 1052,
      "ries": 1053,
      "Ġhealth": 1054,
      "Ġsk": 1055,
      "gin": 1056,
      "Ġbook": 1057,
      "ĠAs": 1058,
      "ont": 1059,
      "hip": 1060,
      "Ġexpl": 1061,
      "nect": 1062,
      "Ġsub": 1063,
      "Ġanim": 1064,
      "Ġproject": 1065,
      "Ġusing": 1066,
      "ruct": 1067,
      "vers": 1068,
      "Ġfrie": 1069,
      "Ġpict": 1070,
      "Ġcor": 1071,
      "Ġfo": 1072,
      "Ġmeans": 1073,
      "Ġthinking": 1074,
      "Ġrun": 1075,
      "Ġvis": 1076,
      "Ġopen": 1077,
      "Ġinf": 1078,
      "atter": 1079,
      "Ġinformation": 1080,
      "Ġmoney": 1081,
      "Ġtook": 1082,
      "Ġhome": 1083,
      "Ġspace": 1084,
      "Ġorgan": 1085,
      "led": 1086,
      "Ġmus": 1087,
      "vern": 1088,
      "Ġ4": 1089,
      "Ġfive": 1090,
      "Ġhand": 1091,
      "nce": 1092,
      "Ġmaybe": 1093,
      "ident": 1094,
      "Ġcreate": 1095,
      "its": 1096,
      "Ġcou": 1097,
      "Ġpub": 1098,
      "Ġeverything": 1099,
      "ps": 1100,
      "ract": 1101,
      "ks": 1102,
      "Ġlead": 1103,
      "Ġbecome": 1104,
      "aces": 1105,
      "Ġdoll": 1106,
      "Ġprob": 1107,
      "Ġnumber": 1108,
      "gg": 1109,
      "Ġprocess": 1110,
      "ues": 1111,
      "ital": 1112,
      "Ġcompan": 1113,
      "Ġkids": 1114,
      "Ġreg": 1115,
      "Ġspec": 1116,
      "air": 1117,
      "rib": 1118,
      "Ġsecond": 1119,
      "Ġacc": 1120,
      "Ġprog": 1121,
      "ĠOne": 1122,
      "ivers": 1123,
      "alf": 1124,
      "ten": 1125,
      "Ġfut": 1126,
      "Ġteach": 1127,
      "Ġsing": 1128,
      "Ġmind": 1129,
      "ond": 1130,
      "ouse": 1131,
      "Ġform": 1132,
      "aut": 1133,
      "Ġwalk": 1134,
      "Ġhead": 1135,
      "Ġleft": 1136,
      "iron": 1137,
      "ever": 1138,
      "lob": 1139,
      "Ġgetting": 1140,
      "ergy": 1141,
      "Ġeng": 1142,
      "Ġenough": 1143,
      "ĠInd": 1144,
      "Ġbest": 1145,
      "iew": 1146,
      "ention": 1147,
      "Ġinteresting": 1148,
      "Ġca": 1149,
      "Ġfuture": 1150,
      "sw": 1151,
      "Ġwar": 1152,
      "ines": 1153,
      "Ġgovern": 1154,
      "iting": 1155,
      "Ġquite": 1156,
      "Ġpres": 1157,
      "ĠMy": 1158,
      "Ġmonth": 1159,
      "Ġgrou": 1160,
      "Ġcomes": 1161,
      "Ġcle": 1162,
      "Ġsocial": 1163,
      "ories": 1164,
      "Ġfood": 1165,
      "Ġconf": 1166,
      "Ġtimes": 1167,
      "Ġset": 1168,
      "Ġfun": 1169,
      "Ġmaking": 1170,
      "Ġcontro": 1171,
      "ĠThese": 1172,
      "Ġhappened": 1173,
      "Ġsense": 1174,
      "ety": 1175,
      "Ġenergy": 1176,
      "Ġsign": 1177,
      "Ġansw": 1178,
      "Ġtalking": 1179,
      "Ġmark": 1180,
      "Ġdem": 1181,
      "ĠShe": 1182,
      "pr": 1183,
      "Ġprobably": 1184,
      "ier": 1185,
      "ts": 1186,
      "Ġadd": 1187,
      "Ġconnect": 1188,
      "Ġtold": 1189,
      "ertain": 1190,
      "Ġcountries": 1191,
      "Ġpass": 1192,
      "Ġbody": 1193,
      "ately": 1194,
      "Ġbuilding": 1195,
      "Ġroom": 1196,
      "tty": 1197,
      "imes": 1198,
      "Ġjob": 1199,
      "Ġcur": 1200,
      "Ġbegin": 1201,
      "Ġmoment": 1202,
      "Ġstuff": 1203,
      "Ġwithout": 1204,
      "Ġpop": 1205,
      "reen": 1206,
      "Ġphys": 1207,
      "Ġmen": 1208,
      "Ġwee": 1209,
      "ient": 1210,
      "ying": 1211,
      "Ġmodel": 1212,
      "Ġyoung": 1213,
      "Ġelect": 1214,
      "Ġreason": 1215,
      "Ġallow": 1216,
      "Ġkeep": 1217,
      "ĠFor": 1218,
      "Ġside": 1219,
      "Ġenv": 1220,
      "ner": 1221,
      "Ġhist": 1222,
      "Ġdollars": 1223,
      "lobal": 1224,
      "ices": 1225,
      "Ġelse": 1226,
      "Ġbeaut": 1227,
      "Ġlives": 1228,
      "Ġopp": 1229,
      "ĠHere": 1230,
      "Ġdist": 1231,
      "Ġcoming": 1232,
      "Ġpretty": 1233,
      "ake": 1234,
      "Ġanything": 1235,
      "Ġpie": 1236,
      "irl": 1237,
      "ĠIs": 1238,
      "Ġhalf": 1239,
      "Ġgr": 1240,
      "Ġprot": 1241,
      "Ġtop": 1242,
      "Ġsoci": 1243,
      "Ġscience": 1244,
      "Ġdef": 1245,
      "Ġsuch": 1246,
      "me": 1247,
      "ember": 1248,
      "ortun": 1249,
      "Ġbusiness": 1250,
      "Ġstop": 1251,
      "ogra": 1252,
      "Ġacross": 1253,
      "Ġsaw": 1254,
      "ality": 1255,
      "der": 1256,
      "gs": 1257,
      "ĠLet": 1258,
      "uring": 1259,
      "ĠNo": 1260,
      "ĠAn": 1261,
      "Ġrese": 1262,
      "Ġmatter": 1263,
      "Ġbad": 1264,
      "Ġwo": 1265,
      "Ġenviron": 1266,
      "ĠNew": 1267,
      "most": 1268,
      "Ġfamily": 1269,
      "ior": 1270,
      "ead": 1271,
      "idd": 1272,
      "Ġeas": 1273,
      "Ġbring": 1274,
      "kay": 1275,
      "Ġseen": 1276,
      "Ġmakes": 1277,
      "Ġsound": 1278,
      "Ġstand": 1279,
      "Ġlater": 1280,
      "Ġ200": 1281,
      "Ġty": 1282,
      "ince": 1283,
      "Ġsays": 1284,
      "ided": 1285,
      "Ġeduc": 1286,
      "io": 1287,
      "olution": 1288,
      "Ġscient": 1289,
      "ots": 1290,
      "ream": 1291,
      "Ġhope": 1292,
      "Ġey": 1293,
      "Ġasked": 1294,
      "ĠAll": 1295,
      "Ġparticular": 1296,
      "ĠAfrica": 1297,
      "Ġfig": 1298,
      "Ġcam": 1299,
      "Ġliving": 1300,
      "Ġexperience": 1301,
      "Ġaut": 1302,
      "Ġhour": 1303,
      "Ġshare": 1304,
      "Ġsimple": 1305,
      "ime": 1306,
      "Ġways": 1307,
      "Ġdet": 1308,
      "ective": 1309,
      "Ġhaving": 1310,
      "Ġgoes": 1311,
      "Ġglobal": 1312,
      "ization": 1313,
      "Ġhappens": 1314,
      "Ġsit": 1315,
      "ĠChin": 1316,
      "Ġresearch": 1317,
      "Ġcase": 1318,
      "ken": 1319,
      "where": 1320,
      "Ġfore": 1321,
      "ught": 1322,
      "arth": 1323,
      "lf": 1324,
      "Ġdays": 1325,
      "Ġcomplete": 1326,
      "Ġcult": 1327,
      "Ġval": 1328,
      "Ġequ": 1329,
      "Ġair": 1330,
      "Ġlist": 1331,
      "man": 1332,
      "ott": 1333,
      "Ġref": 1334,
      "Ġpicture": 1335,
      "Ġcol": 1336,
      "llow": 1337,
      "Ġthous": 1338,
      "arr": 1339,
      "Ġcomputer": 1340,
      "Ġplanet": 1341,
      "ready": 1342,
      "Ġwonder": 1343,
      "Ġsingle": 1344,
      "ilt": 1345,
      "iter": 1346,
      "Ġcity": 1347,
      "Ġpolit": 1348,
      "Ġlevel": 1349,
      "Ġchar": 1350,
      "Ġrob": 1351,
      "ash": 1352,
      "Ġwatch": 1353,
      "Ġprof": 1354,
      "Ġphot": 1355,
      "allen": 1356,
      "Ġbre": 1357,
      "Ġproblems": 1358,
      "arent": 1359,
      "ants": 1360,
      "Ġmem": 1361,
      "aps": 1362,
      "Ġalmost": 1363,
      "less": 1364,
      "Ġwhile": 1365,
      "Ġrest": 1366,
      "angu": 1367,
      "Ġdise": 1368,
      "Ġloc": 1369,
      "Ġsix": 1370,
      "Ġpublic": 1371,
      "orn": 1372,
      "Ġenvironment": 1373,
      "Ġboth": 1374,
      "Ġamaz": 1375,
      "Ġinside": 1376,
      "Ġtest": 1377,
      "Ġsaying": 1378,
      "Ġalready": 1379,
      "ĠSe": 1380,
      "ike": 1381,
      "Ġcommunity": 1382,
      "med": 1383,
      "uge": 1384,
      "ograph": 1385,
      "Ġmach": 1386,
      "Ġsure": 1387,
      "ĠEarth": 1388,
      "ulation": 1389,
      "Ġcertain": 1390,
      "Ġyet": 1391,
      "unch": 1392,
      "Ġmor": 1393,
      "Ġhear": 1394,
      "ins": 1395,
      "Ġbillion": 1396,
      "Ġlooked": 1397,
      "Ġanswer": 1398,
      "ases": 1399,
      "Ġsuc": 1400,
      "Ġpossible": 1401,
      "ivid": 1402,
      "no": 1403,
      "osed": 1404,
      "Ġnothing": 1405,
      "Ġlangu": 1406,
      "Ġwhether": 1407,
      "Ġonce": 1408,
      "Ġcontrol": 1409,
      "Ġpain": 1410,
      "Ġgl": 1411,
      "Ġexc": 1412,
      "ury": 1413,
      "Ġage": 1414,
      "ange": 1415,
      "Ġgirl": 1416,
      "Ġsomeone": 1417,
      "Ġdisco": 1418,
      "Ġcontin": 1419,
      "Ġvide": 1420,
      "Ġbasically": 1421,
      "Ġmusic": 1422,
      "Ġpar": 1423,
      "Ġwithin": 1424,
      "Ġiss": 1425,
      "Ġchallen": 1426,
      "Ġideas": 1427,
      "itive": 1428,
      "imate": 1429,
      "Ġwrong": 1430,
      "Ġlab": 1431,
      "ED": 1432,
      "Ġunt": 1433,
      "work": 1434,
      "Ġass": 1435,
      "Ġoften": 1436,
      "Ġexact": 1437,
      "Ġremember": 1438,
      "Ġlooks": 1439,
      "Ġamazing": 1440,
      "Ġincred": 1441,
      "Ġmil": 1442,
      "Ġproduct": 1443,
      "Ġhistory": 1444,
      "Ġmyself": 1445,
      "Ġ[": 1446,
      "side": 1447,
      "Ġguy": 1448,
      "oice": 1449,
      "Ġbeautif": 1450,
      "ield": 1451,
      "Ġwa": 1452,
      "Ġcost": 1453,
      "ĠAl": 1454,
      "Ġtrue": 1455,
      "Ġtreat": 1456,
      "Ġdev": 1457,
      "Ġmonths": 1458,
      "Ġdire": 1459,
      "ĠWhy": 1460,
      "Ġheart": 1461,
      "ĠIntern": 1462,
      "ages": 1463,
      "ware": 1464,
      "undred": 1465,
      "Ġsw": 1466,
      "ene": 1467,
      "Ġimagine": 1468,
      "lish": 1469,
      "Ġnight": 1470,
      "Ġkill": 1471,
      "ĠUnited": 1472,
      "ters": 1473,
      "Wh": 1474,
      "iverse": 1475,
      "aterial": 1476,
      "Ġself": 1477,
      "Ġlarge": 1478,
      "Ġentire": 1479,
      "Ġheard": 1480,
      "de": 1481,
      "Ġfigure": 1482,
      "cle": 1483,
      "Ġadv": 1484,
      "ians": 1485,
      "Ġwasn": 1486,
      "bers": 1487,
      "Ġindivid": 1488,
      "Ġ15": 1489,
      "utes": 1490,
      "ling": 1491,
      "Ġstate": 1492,
      "ĠOr": 1493,
      "Ġclass": 1494,
      "Ġcells": 1495,
      "uck": 1496,
      "up": 1497,
      "uro": 1498,
      "Ġche": 1499,
      "Ġworks": 1500,
      "ivity": 1501,
      "Ġcond": 1502,
      "Ġgroup": 1503,
      "Ġorder": 1504,
      "Ġhundred": 1505,
      "Ġface": 1506,
      "Ġfull": 1507,
      "Ġnews": 1508,
      "Ġ100": 1509,
      "ired": 1510,
      "ering": 1511,
      "Ġwords": 1512,
      "Ġbeautiful": 1513,
      "ives": 1514,
      "Ġfriends": 1515,
      "vious": 1516,
      "Ġmag": 1517,
      "Ġgovernment": 1518,
      "Ġaff": 1519,
      "iddle": 1520,
      "Ġ30": 1521,
      "land": 1522,
      "Ġ6": 1523,
      "eah": 1524,
      "Ġbuilt": 1525,
      "Ġcouple": 1526,
      "Ġnet": 1527,
      "ected": 1528,
      "Ġappro": 1529,
      "Ġfil": 1530,
      "Ġ'": 1531,
      "Ġsec": 1532,
      "Ġresult": 1533,
      "Ġincre": 1534,
      "Ġindividual": 1535,
      "Ġmust": 1536,
      "Ġmaterial": 1537,
      "ĠTED": 1538,
      "Ġ50": 1539,
      "âĢ": 1540,
      "Ġpay": 1541,
      "Ġret": 1542,
      "ex": 1543,
      "Ġfront": 1544,
      "Ġuntil": 1545,
      "Ġtre": 1546,
      "Ġris": 1547,
      "aper": 1548,
      "Ġpiece": 1549,
      "Ġvir": 1550,
      "bs": 1551,
      "ustr": 1552,
      "Ġlaw": 1553,
      "ock": 1554,
      "Ġfollow": 1555,
      "get": 1556,
      "outh": 1557,
      "Ġmarket": 1558,
      "Ġplaces": 1559,
      "Ġeverybody": 1560,
      "Ġcancer": 1561,
      "Ġquick": 1562,
      "Ġdi": 1563,
      "atic": 1564,
      "Ġfund": 1565,
      "Ġspecies": 1566,
      "Ġcompletely": 1567,
      "Ġdecided": 1568,
      "Ġconst": 1569,
      "ĠInternet": 1570,
      "Ġbecame": 1571,
      "ĠStates": 1572,
      "Ġname": 1573,
      "Ġknew": 1574,
      "Ġpast": 1575,
      "Ġline": 1576,
      "Ġisn": 1577,
      "ĠFr": 1578,
      "Ġz": 1579,
      "ush": 1580,
      "Ġdeep": 1581,
      "Ġland": 1582,
      "Ġobject": 1583,
      "Ġlanguage": 1584,
      "Ġcra": 1585,
      "Ġthough": 1586,
      "Ġeducation": 1587,
      "Ġview": 1588,
      "Ġ9": 1589,
      "line": 1590,
      "Ġtool": 1591,
      "omes": 1592,
      "Ġabs": 1593,
      "ron": 1594,
      "Ġexperim": 1595,
      "Ġterr": 1596,
      "Ġhappening": 1597,
      "âĢĻ": 1598,
      "Ġlearned": 1599,
      "ats": 1600,
      "Ġinvest": 1601,
      "to": 1602,
      "Ġdra": 1603,
      "ision": 1604,
      "ĠEvery": 1605,
      "Ġtrain": 1606,
      "Ġstudy": 1607,
      "ĠAmerica": 1608,
      "ined": 1609,
      "Ġstories": 1610,
      "Ġdru": 1611,
      "Ġexactly": 1612,
      "cing": 1613,
      "Ġfree": 1614,
      "Ġvideo": 1615,
      "Ġtaking": 1616,
      "Ġjo": 1617,
      "ental": 1618,
      "Ġsomebody": 1619,
      "Ġhuge": 1620,
      "ĠAt": 1621,
      "Ġstudents": 1622,
      "Ġsca": 1623,
      "Ġhouse": 1624,
      "Ġwoman": 1625,
      "ator": 1626,
      "Ġitself": 1627,
      "nov": 1628,
      "gest": 1629,
      "Ġdeal": 1630,
      "Ġanimals": 1631,
      "ien": 1632,
      "Ġgets": 1633,
      "Ġnature": 1634,
      "Ġengine": 1635,
      "Ġsuccess": 1636,
      "ane": 1637,
      "br": 1638,
      "Ġstruct": 1639,
      "ĠDo": 1640,
      "Ġsociety": 1641,
      "Ġstre": 1642,
      "Ġpos": 1643,
      "Ġsince": 1644,
      "Ġmess": 1645,
      "omet": 1646,
      "Ġav": 1647,
      "Ġuniverse": 1648,
      "ients": 1649,
      "aster": 1650,
      "Ġones": 1651,
      "rop": 1652,
      "end": 1653,
      "Ġthemselves": 1654,
      "Ġourselves": 1655,
      "Ġagainst": 1656,
      "ional": 1657,
      "Ġspend": 1658,
      "Ġquestions": 1659,
      "Ġ7": 1660,
      "Ġmic": 1661,
      "Ġkinds": 1662,
      "dd": 1663,
      "itting": 1664,
      "Ġclose": 1665,
      "ogn": 1666,
      "Ġopportun": 1667,
      "Ġmeet": 1668,
      "ocus": 1669,
      "Ġbehav": 1670,
      "acter": 1671,
      "Ġsometimes": 1672,
      "Ġmeas": 1673,
      "Ġturns": 1674,
      "Ġ8": 1675,
      "etic": 1676,
      "icult": 1677,
      "ctor": 1678,
      "ĠIndia": 1679,
      "thers": 1680,
      "Ġprov": 1681,
      "Ġalong": 1682,
      "Ġcomplex": 1683,
      "Ġcompany": 1684,
      "lud": 1685,
      "ĠSome": 1686,
      "Ġdep": 1687,
      "ones": 1688,
      "face": 1689,
      "Ġcreated": 1690,
      "Ġhours": 1691,
      "Ġminutes": 1692,
      "haps": 1693,
      "Ġcouldn": 1694,
      "sy": 1695,
      "Ġteam": 1696,
      "ability": 1697,
      "...": 1698,
      "Ġfocus": 1699,
      "Ġworked": 1700,
      "ĠOK": 1701,
      "Ġmass": 1702,
      "Ġpred": 1703,
      "Ġdisease": 1704,
      "Ġsex": 1705,
      "Ġclear": 1706,
      "cc": 1707,
      "Ġoce": 1708,
      "Ġparent": 1709,
      "iversity": 1710,
      "att": 1711,
      "Ġhold": 1712,
      "Ġrelations": 1713,
      "Ġmother": 1714,
      "ĠThen": 1715,
      "urs": 1716,
      "Ġrather": 1717,
      "aw": 1718,
      "ium": 1719,
      "ĠBr": 1720,
      "ĠGod": 1721,
      "eg": 1722,
      "ming": 1723,
      "ature": 1724,
      "Ġwind": 1725,
      "Ġill": 1726,
      "Ġthousands": 1727,
      "Ġleast": 1728,
      "Ġthird": 1729,
      "Ġbott": 1730,
      "ĠCan": 1731,
      "Ġblack": 1732,
      "Ġdifficult": 1733,
      "ĠâĢ": 1734,
      "Ġeveryone": 1735,
      "ibly": 1736,
      "Ġprogram": 1737,
      "ee": 1738,
      "Ġothers": 1739,
      "Ġinnov": 1740,
      "ples": 1741,
      "Ġemp": 1742,
      "illions": 1743,
      "Ġexist": 1744,
      "Ġguys": 1745,
      "Ġfly": 1746,
      "Ġliter": 1747,
      "Ġwon": 1748,
      "Ġearly": 1749,
      "Ġjour": 1750,
      "Ġmath": 1751,
      "Ġmiss": 1752,
      "ames": 1753,
      "istic": 1754,
      "Ġbab": 1755,
      "Ġinstead": 1756,
      "ither": 1757,
      "Ġlisten": 1758,
      "Ġgame": 1759,
      "ĠAr": 1760,
      "ially": 1761,
      "Ġlots": 1762,
      "Ġspeak": 1763,
      "ination": 1764,
      "ented": 1765,
      "Ġhappy": 1766,
      "Ġaud": 1767,
      "Ġfield": 1768,
      "Ġgave": 1769,
      "Ġvar": 1770,
      "wards": 1771,
      "Ġrad": 1772,
      "ale": 1773,
      "cul": 1774,
      "erv": 1775,
      "Ġnorm": 1776,
      "Ġarch": 1777,
      "Ġamount": 1778,
      "olved": 1779,
      "Ġtaken": 1780,
      "Ġleg": 1781,
      "Ġsystems": 1782,
      "Ġsens": 1783,
      "Ġmot": 1784,
      "Ġoutside": 1785,
      "ĠEuro": 1786,
      "ted": 1787,
      "Ġfail": 1788,
      "ĠYork": 1789,
      "Ġsimp": 1790,
      "Ġnatural": 1791,
      "ĠâĢĶ": 1792,
      "iqu": 1793,
      "ider": 1794,
      "Ġdifference": 1795,
      "not": 1796,
      "Ġpot": 1797,
      "Ġnetwork": 1798,
      "iol": 1799,
      "Ġcir": 1800,
      "utions": 1801,
      "Ġstep": 1802,
      "Ġdeath": 1803,
      "Ġbro": 1804,
      "ared": 1805,
      "Ġrecord": 1806,
      "Ġextra": 1807,
      "Ġchanged": 1808,
      "aking": 1809,
      "app": 1810,
      "ĠAmerican": 1811,
      "ential": 1812,
      "Ġhy": 1813,
      "ĠChina": 1814,
      "Ġve": 1815,
      "Ġrecent": 1816,
      "ĠPe": 1817,
      "Ġinteract": 1818,
      "Ġsupport": 1819,
      "Ġlearning": 1820,
      "Ġmiddle": 1821,
      "Ġant": 1822,
      "ological": 1823,
      "Ġlim": 1824,
      "ĠOkay": 1825,
      "ĠSh": 1826,
      "Ġeffect": 1827,
      "vered": 1828,
      "uss": 1829,
      "Ġshap": 1830,
      "Ġcolle": 1831,
      "Ġoper": 1832,
      "Ġleave": 1833,
      "ased": 1834,
      "Ġsaf": 1835,
      "Ġcut": 1836,
      "Ġ...": 1837,
      "Ġrelationship": 1838,
      "Ġseven": 1839,
      "Ġrev": 1840,
      "Ġmachine": 1841,
      "Ġarea": 1842,
      "Ġeyes": 1843,
      "ĠEurope": 1844,
      "Ġturned": 1845,
      "Ġcentury": 1846,
      "Ġtyp": 1847,
      "Ġcities": 1848,
      "Ġred": 1849,
      "ully": 1850,
      "fect": 1851,
      "ides": 1852,
      "Ġdig": 1853,
      "orth": 1854,
      "Ġbeginning": 1855,
      "Ġes": 1856,
      "Ġbehind": 1857,
      "Ġident": 1858,
      "Ġgreen": 1859,
      "elt": 1860,
      "Ġyourself": 1861,
      "The": 1862,
      "Ġgiven": 1863,
      "era": 1864,
      "Ġdream": 1865,
      "Ġhands": 1866,
      "Ġbehavior": 1867,
      "Ġlow": 1868,
      "olute": 1869,
      "ĠChr": 1870,
      "Ġda": 1871,
      "Ġcommon": 1872,
      "inary": 1873,
      "ret": 1874,
      "Ġpick": 1875,
      "Ġexplain": 1876,
      "Ġlocal": 1877,
      "gen": 1878,
      "inal": 1879,
      "verage": 1880,
      "Ġcommunic": 1881,
      "Ġshort": 1882,
      "els": 1883,
      "Ġdel": 1884,
      "Ġneeded": 1885,
      "Ġpopulation": 1886,
      "rew": 1887,
      "Ġreach": 1888,
      "Ġseeing": 1889,
      "iving": 1890,
      "Ġsent": 1891,
      "Ġbegan": 1892,
      "Ġtakes": 1893,
      "Ġfinally": 1894,
      "ĠEng": 1895,
      "sych": 1896,
      "Ġperhaps": 1897,
      "Ġeasy": 1898,
      "Ġbreak": 1899,
      "astic": 1900,
      "Ġaccess": 1901,
      "Ġsym": 1902,
      "ĠOn": 1903,
      "Ġ12": 1904,
      "ges": 1905,
      "itions": 1906,
      "ĠMan": 1907,
      "lock": 1908,
      "year": 1909,
      "aring": 1910,
      "Ġpattern": 1911,
      "Ġimpro": 1912,
      "ison": 1913,
      "ove": 1914,
      "ĠTo": 1915,
      "Ġoil": 1916,
      "Ġnon": 1917,
      "Ġmoving": 1918,
      "reme": 1919,
      "Ġterms": 1920,
      "ern": 1921,
      "Ġcompanies": 1922,
      "Ġculture": 1923,
      "ney": 1924,
      "Ġobvious": 1925,
      "itch": 1926,
      "Ġstay": 1927,
      "Ġdisc": 1928,
      "jor": 1929,
      "Ġneeds": 1930,
      "Ġopt": 1931,
      "ĠNot": 1932,
      "Ġtot": 1933,
      "Ġcannot": 1934,
      "Ġrealized": 1935,
      "Ġparts": 1936,
      "Ġtrad": 1937,
      "Ġlonger": 1938,
      "Ġpowerful": 1939,
      "Ġsimply": 1940,
      "Ġfre": 1941,
      "Ġduring": 1942,
      "idence": 1943,
      "ump": 1944,
      "Ġemot": 1945,
      "ipp": 1946,
      "ery": 1947,
      "Ġpaper": 1948,
      "Ġsuper": 1949,
      "Ġtem": 1950,
      "Ġintell": 1951,
      "Ġ18": 1952,
      "NA": 1953,
      "Ġwonderful": 1954,
      "Ġfather": 1955,
      "Ġimage": 1956,
      "Ġviol": 1957,
      "Ġfamil": 1958,
      "Ġserv": 1959,
      "Ġfriend": 1960,
      "ĠâĻª": 1961,
      "Ġsurv": 1962,
      "Ġocc": 1963,
      "Ġeight": 1964,
      "Ġweek": 1965,
      "Ġsize": 1966,
      "Ġreality": 1967,
      "Ġinclud": 1968,
      "Ġpsych": 1969,
      "Ġevent": 1970,
      "ĠJust": 1971,
      "Ġchem": 1972,
      "Ġrepres": 1973,
      "port": 1974,
      "Ġmajor": 1975,
      "Ġabsolute": 1976,
      "Ġfelt": 1977,
      "Ġge": 1978,
      "Ġarg": 1979,
      "Ġwhatever": 1980,
      "Ġtried": 1981,
      "cious": 1982,
      "Ġperform": 1983,
      "Ġresour": 1984,
      "ey": 1985,
      "Ġparents": 1986,
      "Ġess": 1987,
      "ero": 1988,
      "Ġperfect": 1989,
      "Ġpoor": 1990,
      "Ġspecial": 1991,
      "Ġpriv": 1992,
      "Ġsun": 1993,
      "ised": 1994,
      "Ġpress": 1995,
      "gle": 1996,
      "Ġpract": 1997,
      "Ġapproach": 1998,
      "Ġquickly": 1999,
      "bo": 2000,
      "fully": 2001,
      "hood": 2002,
      "ton": 2003,
      "Ġsqu": 2004,
      "Ġeconomic": 2005,
      "Ġfish": 2006,
      "lease": 2007,
      "Ġphone": 2008,
      "Ġwall": 2009,
      "ode": 2010,
      "Ġexpect": 2011,
      "Ġsurpr": 2012,
      "Ġrobot": 2013,
      "Ġmedia": 2014,
      "rought": 2015,
      "ax": 2016,
      "osp": 2017,
      "Ġblood": 2018,
      "Ġfall": 2019,
      "ibility": 2020,
      "Ġ40": 2021,
      "rodu": 2022,
      "Ġprotect": 2023,
      "ony": 2024,
      "Ġdark": 2025,
      "ĠPeople": 2026,
      "Ġsitu": 2027,
      "Ġrequ": 2028,
      "Ġpersonal": 2029,
      "Ġinsp": 2030,
      "Ġemb": 2031,
      "Ġgrand": 2032,
      "ledge": 2033,
      "Ġpresent": 2034,
      "crib": 2035,
      "itect": 2036,
      "Ġground": 2037,
      "Ġbuy": 2038,
      "Ġhumans": 2039,
      "ged": 2040,
      "ising": 2041,
      "Ġinterested": 2042,
      "Well": 2043,
      "Ġyes": 2044,
      "ilar": 2045,
      "Ġconv": 2046,
      "Ġspent": 2047,
      "Ġocean": 2048,
      "Ġgone": 2049,
      "Ġgrowth": 2050,
      "Ġopportunity": 2051,
      "Ġenc": 2052,
      "Ġstrong": 2053,
      "ards": 2054,
      "Ġpolitical": 2055,
      "Ġciv": 2056,
      "Ġrecogn": 2057,
      "Ġscale": 2058,
      "ived": 2059,
      "Ġfeed": 2060,
      "Ġweeks": 2061,
      "Ġfight": 2062,
      "oph": 2063,
      "Ġmeasure": 2064,
      "Ġknown": 2065,
      "ĠCA": 2066,
      "Ġkey": 2067,
      "Ġrisk": 2068,
      "rent": 2069,
      "Ġability": 2070,
      "Ġtravel": 2071,
      "avor": 2072,
      "unt": 2073,
      "ators": 2074,
      "ĠTw": 2075,
      "Ġblue": 2076,
      "Ġeither": 2077,
      "ains": 2078,
      "Ġleaders": 2079,
      "Ġsitting": 2080,
      "oms": 2081,
      "Ġeat": 2082,
      "oy": 2083,
      "Ġvers": 2084,
      "Ġpredict": 2085,
      "bor": 2086,
      "Ġconsum": 2087,
      "Ġeconomy": 2088,
      "Ġfear": 2089,
      "Ġshows": 2090,
      "Ġchanges": 2091,
      "Ġdirect": 2092,
      "Ġintern": 2093,
      "Ġsurface": 2094,
      "orld": 2095,
      "Ġnear": 2096,
      "ĠMay": 2097,
      "Ġextreme": 2098,
      "Ġcy": 2099,
      "ler": 2100,
      "ift": 2101,
      "Ġdest": 2102,
      "ĠRight": 2103,
      "Ġarchitect": 2104,
      "Ġmult": 2105,
      "ĠOur": 2106,
      "Ġimpact": 2107,
      "Ġlost": 2108,
      "Ġrespons": 2109,
      "Ġsend": 2110,
      "ouch": 2111,
      "izing": 2112,
      "Ġobs": 2113,
      "urb": 2114,
      "cially": 2115,
      "ills": 2116,
      "ologies": 2117,
      "Ġclimate": 2118,
      "ĠDNA": 2119,
      "Ġdemoc": 2120,
      "You": 2121,
      "Ġsum": 2122,
      "Ġchallenge": 2123,
      "oh": 2124,
      "Ġwrite": 2125,
      "Ġvalue": 2126,
      "Ġincredible": 2127,
      "Ġfeet": 2128,
      "zy": 2129,
      "Ġcool": 2130,
      "Ġmorning": 2131,
      "Ġorig": 2132,
      "Ġanimal": 2133,
      "Ġcaus": 2134,
      "ral": 2135,
      "Ġhar": 2136,
      "lt": 2137,
      "Ġcal": 2138,
      "Ġwhite": 2139,
      "Ġareas": 2140,
      "Ġwouldn": 2141,
      "Ġap": 2142,
      "iny": 2143,
      "Ġfeeling": 2144,
      "anger": 2145,
      "Ġstructure": 2146,
      "hor": 2147,
      "entially": 2148,
      "What": 2149,
      "ument": 2150,
      "Ġmicro": 2151,
      "Ġbased": 2152,
      "Ġpatients": 2153,
      "Ġnice": 2154,
      "Ġslow": 2155,
      "Ġphysical": 2156,
      "Ġdraw": 2157,
      "Ġindust": 2158,
      "Ġaverage": 2159,
      "Ġpull": 2160,
      "Ġfast": 2161,
      "ales": 2162,
      "Ġanal": 2163,
      "Ġgrowing": 2164,
      "amp": 2165,
      "Ġneigh": 2166,
      "Ġbottom": 2167,
      "lect": 2168,
      "Ġredu": 2169,
      "Ġsoft": 2170,
      "Ġ25": 2171,
      "Ġnumbers": 2172,
      "Ġfoot": 2173,
      "ule": 2174,
      "Ġmar": 2175,
      "Ġpost": 2176,
      "Ġbrought": 2177,
      "Ġcomb": 2178,
      "Ġphotograph": 2179,
      "Ġborn": 2180,
      "sh": 2181,
      "uth": 2182,
      "Ġevolution": 2183,
      "Ġscientists": 2184,
      "ateg": 2185,
      "Ġrealize": 2186,
      "Ġwin": 2187,
      "Ġprofess": 2188,
      "cl": 2189,
      "eed": 2190,
      "ole": 2191,
      "erm": 2192,
      "Ġbox": 2193,
      "Ġattention": 2194,
      "Ġbene": 2195,
      "ustain": 2196,
      "dden": 2197,
      "vent": 2198,
      "Ġsudden": 2199,
      "Ġexperiment": 2200,
      "Ġmole": 2201,
      "ression": 2202,
      "Ġpur": 2203,
      "Ġunderstanding": 2204,
      "Ġliterally": 2205,
      "oll": 2206,
      "Ġdie": 2207,
      "Ġwrote": 2208,
      "Ġmedic": 2209,
      "Ġhundreds": 2210,
      "Ġdeg": 2211,
      "of": 2212,
      "Ġhor": 2213,
      "leep": 2214,
      "Ġknowledge": 2215,
      "Ġste": 2216,
      "Ġprin": 2217,
      "ensive": 2218,
      "Ġfilm": 2219,
      "ified": 2220,
      "chie": 2221,
      "Ġcirc": 2222,
      "Ġvol": 2223,
      "Ġserious": 2224,
      "Ġtechnologies": 2225,
      "ext": 2226,
      "Ġmain": 2227,
      "Ġinstit": 2228,
      "Ġrunning": 2229,
      "lu": 2230,
      "Ġmov": 2231,
      "Ġtext": 2232,
      "ored": 2233,
      "loy": 2234,
      "Ġcivil": 2235,
      "bon": 2236,
      "Ġmeaning": 2237,
      "ug": 2238,
      "Ġhosp": 2239,
      "Ġalone": 2240,
      "Ġseems": 2241,
      "Ġstarting": 2242,
      "Ġsour": 2243,
      "Ġball": 2244,
      "acy": 2245,
      "ging": 2246,
      "ĠZ": 2247,
      "Ġast": 2248,
      "Ġmillions": 2249,
      "Ġmap": 2250,
      "Ġgiving": 2251,
      "com": 2252,
      "eng": 2253,
      "ption": 2254,
      "Ġrock": 2255,
      "Ġpolic": 2256,
      "cr": 2257,
      "ned": 2258,
      "Ġfac": 2259,
      "Ġguess": 2260,
      "Ġdeveloped": 2261,
      "Ġspread": 2262,
      "Ġsimilar": 2263,
      "Ġbooks": 2264,
      "Ġcolor": 2265,
      "Ġsea": 2266,
      "Ġtools": 2267,
      "Ġstra": 2268,
      "Ġforward": 2269,
      "Ġprom": 2270,
      "Ġcrit": 2271,
      "Ġmovement": 2272,
      "Ġflo": 2273,
      "Ġmiles": 2274,
      "Ġfavor": 2275,
      "ĠWorld": 2276,
      "aged": 2277,
      "Ġtelling": 2278,
      "ny": 2279,
      "ĠYeah": 2280,
      "Ġflow": 2281,
      "ev": 2282,
      "Ġdead": 2283,
      "iod": 2284,
      "oon": 2285,
      "Ġvill": 2286,
      "Ġforce": 2287,
      "Ġsoon": 2288,
      "Ġdevelopment": 2289,
      "Ġissue": 2290,
      "Ġdescrib": 2291,
      "Ġfundam": 2292,
      "bit": 2293,
      "par": 2294,
      "Ġhot": 2295,
      "Ġpath": 2296,
      "ĠSouth": 2297,
      "Ġimages": 2298,
      "por": 2299,
      "Ġdepe": 2300,
      "Ġanyone": 2301,
      "Ġcollect": 2302,
      "by": 2303,
      "Ġtheory": 2304,
      "head": 2305,
      "ped": 2306,
      "Ġsho": 2307,
      "Ġtele": 2308,
      "Ġthank": 2309,
      "Ġtradition": 2310,
      "Ġtouch": 2311,
      "Ġcompet": 2312,
      "Ġtalked": 2313,
      "Ġrelig": 2314,
      "ggest": 2315,
      "Ġaudience": 2316,
      "Ġgives": 2317,
      "Ġsell": 2318,
      "ades": 2319,
      "Ġproper": 2320,
      "Ġcenter": 2321,
      "Ġissues": 2322,
      "Ġabsolutely": 2323,
      "Ġsuggest": 2324,
      "Ġelectric": 2325,
      "chan": 2326,
      "Ġconvers": 2327,
      "Ġcurrent": 2328,
      "iant": 2329,
      "omen": 2330,
      "Ġforest": 2331,
      "Ġstage": 2332,
      "Ġsuff": 2333,
      "racy": 2334,
      "Ġworth": 2335,
      "Ġavail": 2336,
      "Ġchance": 2337,
      "Ġvisual": 2338,
      "oose": 2339,
      "Ġperiod": 2340,
      "Ġsil": 2341,
      "Ġroad": 2342,
      "Ġcars": 2343,
      "ĠEnglish": 2344,
      "Ġice": 2345,
      "Ġachie": 2346,
      "amed": 2347,
      "pecially": 2348,
      "Ġrul": 2349,
      "Ġshowed": 2350,
      "ilities": 2351,
      "Ġsolution": 2352,
      "Ġsn": 2353,
      "Ġarr": 2354,
      "Ġtrack": 2355,
      "Ġindustry": 2356,
      "ances": 2357,
      "Ġrate": 2358,
      "Ġgirls": 2359,
      "ai": 2360,
      "Ġonline": 2361,
      "ĠWith": 2362,
      "Ġsustain": 2363,
      "Ġfu": 2364,
      "Ġstat": 2365,
      "Ġdiscovered": 2366,
      "Ġlif": 2367,
      "Ġamong": 2368,
      "Ġsubject": 2369,
      "Ġcamp": 2370,
      "Ġnormal": 2371,
      "Ġattack": 2372,
      "Ġest": 2373,
      "oud": 2374,
      "ites": 2375,
      "Ġhon": 2376,
      "Th": 2377,
      "Ġfire": 2378,
      "urity": 2379,
      "Ġconcept": 2380,
      "Ġexperien": 2381,
      "Ġtype": 2382,
      "ique": 2383,
      "Ġintellig": 2384,
      "asing": 2385,
      "Ġaren": 2386,
      "ished": 2387,
      "Ġcreating": 2388,
      "Ġmodern": 2389,
      "Ġbenef": 2390,
      "ĠBy": 2391,
      "Ġresources": 2392,
      "ency": 2393,
      "Ġrecently": 2394,
      "Ġreact": 2395,
      "imens": 2396,
      "Ġsolve": 2397,
      "Ġdeveloping": 2398,
      "iet": 2399,
      "Ġcop": 2400,
      "Ġlay": 2401,
      "Ġprop": 2402,
      "Ġreasons": 2403,
      "Ġsituation": 2404,
      "ĠAm": 2405,
      "Ġseem": 2406,
      "Ġinnovation": 2407,
      "Ġtruth": 2408,
      "Ġdesigned": 2409,
      "pect": 2410,
      "Ġsold": 2411,
      "Ġvoice": 2412,
      "like": 2413,
      "asc": 2414,
      "ĠGoo": 2415,
      "phere": 2416,
      "ences": 2417,
      "Ġplant": 2418,
      "Ġarm": 2419,
      "Ġcapital": 2420,
      "Ġmathem": 2421,
      "Ġavailable": 2422,
      "Ġeye": 2423,
      "Ġfur": 2424,
      "ival": 2425,
      "Ġproduce": 2426,
      "yond": 2427,
      "Ġknows": 2428,
      "Ġplaying": 2429,
      "Ġasking": 2430,
      "Ġsmart": 2431,
      "Ġbaby": 2432,
      "Ġespecially": 2433,
      "Ġtiny": 2434,
      "Ġsong": 2435,
      "assion": 2436,
      "apt": 2437,
      "ify": 2438,
      "Ġsearch": 2439,
      "Ġsave": 2440,
      "Ġimm": 2441,
      "Ġevidence": 2442,
      "Ġpatient": 2443,
      "Ġcomputers": 2444,
      "Ġgroups": 2445,
      "Ġincredibly": 2446,
      "Ġsleep": 2447,
      "Ġult": 2448,
      "Ġvac": 2449,
      "ung": 2450,
      "itiz": 2451,
      "Ġhaven": 2452,
      "Ġshape": 2453,
      "Ġer": 2454,
      "Ġinvolved": 2455,
      "Ġdrive": 2456,
      "Ġjourney": 2457,
      "Ġmedical": 2458,
      "Ġbra": 2459,
      "Ġbigger": 2460,
      "Ġsever": 2461,
      "Ġtransform": 2462,
      "Ġstreet": 2463,
      "room": 2464,
      "Ġchanging": 2465,
      "Ġaw": 2466,
      "arily": 2467,
      "iction": 2468,
      "Ġbecomes": 2469,
      "Ġpictures": 2470,
      "ik": 2471,
      "Ġdou": 2472,
      "ĠYes": 2473,
      "Ġpoll": 2474,
      "oices": 2475,
      "Ġdin": 2476,
      "Ġmechan": 2477,
      "Ġtable": 2478,
      "Ġreport": 2479,
      "Ġ199": 2480,
      "lear": 2481,
      "abor": 2482,
      "ĠPh": 2483,
      "Ġemerg": 2484,
      "ister": 2485,
      "Ġfem": 2486,
      "Ġbar": 2487,
      "Ġdanger": 2488,
      "erence": 2489,
      "Ġgeneration": 2490,
      "pid": 2491,
      "Ġlived": 2492,
      "ude": 2493,
      "Ġmessage": 2494,
      "pan": 2495,
      "Ġtowards": 2496,
      "Ġbeyond": 2497,
      "Ġlikely": 2498,
      "Ġputting": 2499,
      "Ġcarbon": 2500,
      "ĠGoogle": 2501,
      "istan": 2502,
      "rest": 2503,
      "ishing": 2504,
      "book": 2505,
      "Ġtrust": 2506,
      "Ġflu": 2507,
      "Ġchoice": 2508,
      "ĠInst": 2509,
      "Ġsolar": 2510,
      "Ġdrugs": 2511,
      "Ġseveral": 2512,
      "come": 2513,
      "Ġnecess": 2514,
      "ĠDe": 2515,
      "ĠFirst": 2516,
      "ĠChinese": 2517,
      "Ġdrug": 2518,
      "light": 2519,
      "Ġlea": 2520,
      "Ġclos": 2521,
      "Ġunf": 2522,
      "Ġeffective": 2523,
      "Ġfunction": 2524,
      "Ġsafe": 2525,
      "Ġfa": 2526,
      "Ġbasic": 2527,
      "Ġdefin": 2528,
      "lict": 2529,
      "Ġcitiz": 2530,
      "Ġ60": 2531,
      "fort": 2532,
      "Ġrain": 2533,
      "Ġexcept": 2534,
      "Ġfair": 2535,
      "Ġmount": 2536,
      "Ġdom": 2537,
      "oring": 2538,
      "Ġtend": 2539,
      "ĠCom": 2540,
      "Ġdied": 2541,
      "ips": 2542,
      "pre": 2543,
      "Ġbreat": 2544,
      "Oh": 2545,
      "wh": 2546,
      "Ġrece": 2547,
      "Ġstru": 2548,
      "Ġ201": 2549,
      "Ġpotential": 2550,
      "50": 2551,
      "Ġwriting": 2552,
      "Ġsat": 2553,
      "Ġce": 2554,
      "Ġbed": 2555,
      "ously": 2556,
      "Ġsounds": 2557,
      "Ġneighbor": 2558,
      "ires": 2559,
      "Ġnational": 2560,
      "medi": 2561,
      "nam": 2562,
      "Ġspeed": 2563,
      "Ġschools": 2564,
      "Ġdevice": 2565,
      "Ġextraord": 2566,
      "Ġsoftware": 2567,
      "ma": 2568,
      "ns": 2569,
      "Ġnine": 2570,
      "Ġcommunities": 2571,
      "ration": 2572,
      "Ġbird": 2573,
      "vert": 2574,
      "Ġneur": 2575,
      "Ġdigital": 2576,
      "ctors": 2577,
      "ĠAfter": 2578,
      "igher": 2579,
      "Ġmob": 2580,
      "Ġanybody": 2581,
      "Ġrevolution": 2582,
      "Ġactiv": 2583,
      "Ġexamples": 2584,
      "Ġgeneral": 2585,
      "Ġreturn": 2586,
      "rast": 2587,
      "ief": 2588,
      "Ġoffice": 2589,
      "ĠMaybe": 2590,
      "Ġlog": 2591,
      "ĠOh": 2592,
      "Ġquality": 2593,
      "Ġprinci": 2594,
      "Ġstarts": 2595,
      "Ġaccount": 2596,
      "uly": 2597,
      "Ġblock": 2598,
      "Ġaction": 2599,
      "ressed": 2600,
      "Ġparticularly": 2601,
      "Ġrules": 2602,
      "ran": 2603,
      "Ġwish": 2604,
      "Ġhigher": 2605,
      "ĠIm": 2606,
      "umb": 2607,
      "Ġscreen": 2608,
      "Ġvirus": 2609,
      "ners": 2610,
      "Ġson": 2611,
      "Ġep": 2612,
      "Ġonto": 2613,
      "Ġcompassion": 2614,
      "Ġrights": 2615,
      "Ġcertainly": 2616,
      "Ġcross": 2617,
      "itary": 2618,
      "onse": 2619,
      "Ġpeace": 2620,
      "Ġshowing": 2621,
      "irth": 2622,
      "une": 2623,
      "Ġparticip": 2624,
      "Ġclean": 2625,
      "Ġcharacter": 2626,
      "Ġnuc": 2627,
      "Ġrich": 2628,
      "Ġviolence": 2629,
      "ground": 2630,
      "pped": 2631,
      "put": 2632,
      "Ġmoved": 2633,
      "Ġbiggest": 2634,
      "Ġlargest": 2635,
      "view": 2636,
      "Ġbacter": 2637,
      "ĠNorth": 2638,
      "ĠOf": 2639,
      "Ġwalking": 2640,
      "Ġcamera": 2641,
      "Ġmaterials": 2642,
      "usion": 2643,
      "Ġprim": 2644,
      "Ġeffic": 2645,
      "Ġobviously": 2646,
      "ĠWhere": 2647,
      "Ġconscious": 2648,
      "Ġvision": 2649,
      "ask": 2650,
      "Ġtotally": 2651,
      "Ġfurther": 2652,
      "Ġaf": 2653,
      "Ġokay": 2654,
      "Ġhit": 2655,
      "Ġneg": 2656,
      "Ġscientific": 2657,
      "Ġexciting": 2658,
      "iar": 2659,
      "ĠRe": 2660,
      "Ġvirt": 2661,
      "oun": 2662,
      "ĠBra": 2663,
      "Ġplants": 2664,
      "antly": 2665,
      "Ġcause": 2666,
      "Ġresults": 2667,
      "Ġdiag": 2668,
      "Ġaware": 2669,
      "Ġcode": 2670,
      "Ġec": 2671,
      "idge": 2672,
      "Ġwants": 2673,
      "uit": 2674,
      "Ġthreat": 2675,
      "Ġsyn": 2676,
      "Ġresponse": 2677,
      "ought": 2678,
      "ĠPro": 2679,
      "Ġcris": 2680,
      "Ġteachers": 2681,
      "Ġextremely": 2682,
      "how": 2683,
      "Ġmeant": 2684,
      "ĠPr": 2685,
      "Ġprison": 2686,
      "xy": 2687,
      "Ġpa": 2688,
      "Ġrole": 2689,
      "Ġ80": 2690,
      "Ġrepresent": 2691,
      "more": 2692,
      "oke": 2693,
      "isions": 2694,
      "eter": 2695,
      "Ġready": 2696,
      "Ġnobody": 2697,
      "Ġcreative": 2698,
      "Ġdetail": 2699,
      "Ġfix": 2700,
      "Ġrele": 2701,
      "Ġadm": 2702,
      "Ġboy": 2703,
      "Ġskin": 2704,
      "Ġprogress": 2705,
      "Ġindividuals": 2706,
      "Ġled": 2707,
      "Ġeverywhere": 2708,
      "tend": 2709,
      "Ġwatching": 2710,
      "Ġgas": 2711,
      "ores": 2712,
      "Ġdoor": 2713,
      "Ġapart": 2714,
      "Ġpush": 2715,
      "ows": 2716,
      "verty": 2717,
      "osphere": 2718,
      "Ġcontext": 2719,
      "Ġstudent": 2720,
      "Ġprojects": 2721,
      "Ġsecurity": 2722,
      "aur": 2723,
      "ina": 2724,
      "Ġbirth": 2725,
      "Ġdiv": 2726,
      "Ġnamed": 2727,
      "iding": 2728,
      "Ġ11": 2729,
      "nal": 2730,
      "Ġmarr": 2731,
      "Ġprint": 2732,
      "Ġlink": 2733,
      "licated": 2734,
      "Ġallowed": 2735,
      "Ġeventually": 2736,
      "for": 2737,
      "Ġpu": 2738,
      "Ġimmedi": 2739,
      "ĠAfrican": 2740,
      "Ġcrazy": 2741,
      "Ġfavorite": 2742,
      "Ġgames": 2743,
      "icle": 2744,
      "ĠMost": 2745,
      "ĠAny": 2746,
      "Ġstick": 2747,
      "ĠGe": 2748,
      "Ġconnected": 2749,
      "Ġmodels": 2750,
      "Ġcolleag": 2751,
      "ze": 2752,
      "Ġsepar": 2753,
      "Ġsupposed": 2754,
      "Ġimprove": 2755,
      "Ġchemical": 2756,
      "Ġfundamental": 2757,
      "iation": 2758,
      "pective": 2759,
      "itten": 2760,
      "Ġconsider": 2761,
      "ughter": 2762,
      "Ġwaste": 2763,
      "Ġcarry": 2764,
      "Ġmeth": 2765,
      "ĠBrit": 2766,
      "Ġhospital": 2767,
      "Ġdro": 2768,
      "oming": 2769,
      "Ġnotice": 2770,
      "Ġintrodu": 2771,
      "Ġdiscover": 2772,
      "Ġcontinue": 2773,
      "Ġtrees": 2774,
      "erve": 2775,
      "Ġgrew": 2776,
      "Ġtransl": 2777,
      "Ġstrateg": 2778,
      "Ġconflict": 2779,
      "Ġjobs": 2780,
      "Ġobjects": 2781,
      "Ġgal": 2782,
      "ĠEven": 2783,
      "Ġadult": 2784,
      "cient": 2785,
      "Ġbank": 2786,
      "Ġchoose": 2787,
      "Ġtrial": 2788,
      "Ġcapt": 2789,
      "Ġcheck": 2790,
      ".,": 2791,
      "Ġgoal": 2792,
      "ĠCal": 2793,
      "ĠJoh": 2794,
      "Ġtells": 2795,
      "Ġessentially": 2796,
      "Ġtar": 2797,
      "Ġtree": 2798,
      "Ġshown": 2799,
      "ĠWho": 2800,
      "apan": 2801,
      "ruction": 2802,
      "Ġrobots": 2803,
      "Ġmis": 2804,
      "lex": 2805,
      "ĠTod": 2806,
      "Ġclin": 2807,
      "Ġaccept": 2808,
      "Ġlaunch": 2809,
      "Ġearl": 2810,
      "Ġsignific": 2811,
      "Ġpassion": 2812,
      "Ġthousand": 2813,
      "Ġdepend": 2814,
      "Ġextraordinary": 2815,
      "Ġfill": 2816,
      "Ġpoverty": 2817,
      "Ġminds": 2818,
      "Ġterror": 2819,
      "Ġincluding": 2820,
      "Ġbunch": 2821,
      "Ġconc": 2822,
      "ffic": 2823,
      "Ġgraph": 2824,
      "Ġfamilies": 2825,
      "urban": 2826,
      "ana": 2827,
      "ĠWar": 2828,
      "Ġ16": 2829,
      "ission": 2830,
      "Ġpositive": 2831,
      "Ġvillage": 2832,
      "We": 2833,
      "Ġcases": 2834,
      "Ġwealth": 2835,
      "ids": 2836,
      "ims": 2837,
      "ĠWest": 2838,
      "ĠJapan": 2839,
      "Ġmemory": 2840,
      "Ġwife": 2841,
      "ops": 2842,
      "ulate": 2843,
      "Ġdeb": 2844,
      "conds": 2845,
      "Ġassum": 2846,
      "Ġdiscuss": 2847,
      "Ġmovie": 2848,
      "iers": 2849,
      "Ġfra": 2850,
      "Ġtaught": 2851,
      "Ġimposs": 2852,
      "akes": 2853,
      "Ġfarm": 2854,
      "Ġallows": 2855,
      "Ġdemocracy": 2856,
      "Ġlate": 2857,
      "iger": 2858,
      "the": 2859,
      "Ġconcer": 2860,
      "ounds": 2861,
      "Ġbuildings": 2862,
      "Ġfinan": 2863,
      "Ġinflu": 2864,
      "Ġlabor": 2865,
      "Ġtemper": 2866,
      "Ġfaster": 2867,
      "anc": 2868,
      "Ġabove": 2869,
      "mend": 2870,
      "eth": 2871,
      "Ġworse": 2872,
      "Ġsomewhere": 2873,
      "odies": 2874,
      "Ġpen": 2875,
      "Ġspir": 2876,
      "Ġconditions": 2877,
      "Ġcollege": 2878,
      "Ġmathemat": 2879,
      "Ġ14": 2880,
      "izations": 2881,
      "Ġhappiness": 2882,
      "Ġended": 2883,
      "ortunately": 2884,
      "Ġexcited": 2885,
      "Ġmagn": 2886,
      "edom": 2887,
      "Ġactivity": 2888,
      "Ġkilled": 2889,
      "Ġsuddenly": 2890,
      "Ġsource": 2891,
      "Ġdecision": 2892,
      "Ġremark": 2893,
      "Ġwait": 2894,
      "ĠChris": 2895,
      "Ġsequ": 2896,
      "Ġgenes": 2897,
      "Ġfinding": 2898,
      "Ġcollabor": 2899,
      "Ġpolice": 2900,
      "Ġrepl": 2901,
      "Ġlarger": 2902,
      "men": 2903,
      "Ġfing": 2904,
      "Ġfant": 2905,
      "Ġlose": 2906,
      "Ġwebs": 2907,
      "ĠThose": 2908,
      "rage": 2909,
      "ured": 2910,
      "Ġbrains": 2911,
      "bol": 2912,
      "atory": 2913,
      "Ġmine": 2914,
      "Ġaffect": 2915,
      "Ġmedicine": 2916,
      "ĠToday": 2917,
      "Ġdisapp": 2918,
      "Ġappear": 2919,
      "Ġstanding": 2920,
      "Ġenj": 2921,
      "Ġminute": 2922,
      "Ġteacher": 2923,
      "Ġcrisis": 2924,
      "ech": 2925,
      "Ġbom": 2926,
      "Ġdoctor": 2927,
      "Ġtruly": 2928,
      "Ġblind": 2929,
      "Ġincrease": 2930,
      "Ġconversation": 2931,
      "ued": 2932,
      "Ġphil": 2933,
      "Ġindeed": 2934,
      "ror": 2935,
      "Ġfine": 2936,
      "Ġproducts": 2937,
      "Ġstar": 2938,
      "cape": 2939,
      "Ġ17": 2940,
      "Ġcold": 2941,
      "Ġimpossible": 2942,
      "estern": 2943,
      "let": 2944,
      "Ġstars": 2945,
      "ĠDon": 2946,
      "ipt": 2947,
      "Ġsorts": 2948,
      "Ġpublish": 2949,
      "Ġsuccessful": 2950,
      "Ġposition": 2951,
      "ĠChrist": 2952,
      "!\"": 2953,
      "Ġcard": 2954,
      "Ġluck": 2955,
      "Ġkil": 2956,
      "Ġcomplicated": 2957,
      "Ġphen": 2958,
      "Ġolder": 2959,
      "cise": 2960,
      "though": 2961,
      "ĠLe": 2962,
      "Ġunivers": 2963,
      "others": 2964,
      "Ġsky": 2965,
      "Ġafford": 2966,
      "Ġport": 2967,
      "Ġdam": 2968,
      "ologists": 2969,
      "Ġperspective": 2970,
      "nces": 2971,
      "inct": 2972,
      "Ġdy": 2973,
      "Ġkept": 2974,
      "Ġauthor": 2975,
      "Ġcitizens": 2976,
      "inated": 2977,
      "Ġlands": 2978,
      "ĠLook": 2979,
      "Ġtraditional": 2980,
      "Ġachieve": 2981,
      "IV": 2982,
      "mb": 2983,
      "Ġsite": 2984,
      "isms": 2985,
      "Ġbur": 2986,
      "rap": 2987,
      "Ġmanage": 2988,
      "Ġstudies": 2989,
      "Ġmilitary": 2990,
      "Ġinternational": 2991,
      "ring": 2992,
      "onst": 2993,
      "Ġfram": 2994,
      "Ġlower": 2995,
      "Ġgalax": 2996,
      "la": 2997,
      "rate": 2998,
      "Ġcat": 2999,
      "Ġforms": 3000,
      "useum": 3001,
      "Ġearth": 3002,
      "Ġpolicy": 3003,
      "Ġstraight": 3004,
      "Ġcart": 3005,
      "rams": 3006,
      "amm": 3007,
      "ĠQ": 3008,
      "Ġign": 3009,
      "Ġpack": 3010,
      "ĠTV": 3011,
      "Ġworkers": 3012,
      "Ġorganization": 3013,
      "Ġnuclear": 3014,
      "ining": 3015,
      "Ġfasc": 3016,
      "urt": 3017,
      "ĠHIV": 3018,
      "soci": 3019,
      "Ġspecific": 3020,
      "Ġwild": 3021,
      "ĠSomet": 3022,
      "ama": 3023,
      "Ġusually": 3024,
      "ĠCar": 3025,
      "Ġpoints": 3026,
      "Ġreading": 3027,
      "Ġbal": 3028,
      "ster": 3029,
      "Ġseries": 3030,
      "Ġregion": 3031,
      "Ġpieces": 3032,
      "Ġpurp": 3033,
      "fact": 3034,
      "rect": 3035,
      "Ġmention": 3036,
      "ĠSp": 3037,
      "rad": 3038,
      "Ġcontrib": 3039,
      "Ġdistrib": 3040,
      "Ġmist": 3041,
      "Ġalg": 3042,
      "Ġmoral": 3043,
      "Ġtraining": 3044,
      "Ġsquare": 3045,
      "Ġheav": 3046,
      "ĠLike": 3047,
      "Ġaddress": 3048,
      "Ġmassive": 3049,
      "Ġservice": 3050,
      "Ġphenomen": 3051,
      "Ġdoc": 3052,
      "Ġsmaller": 3053,
      "Ġsand": 3054,
      "Ġswe": 3055,
      "Ġlines": 3056,
      "sect": 3057,
      "Ġsomehow": 3058,
      "iven": 3059,
      "ugh": 3060,
      "zz": 3061,
      "Ġthrow": 3062,
      "Ġalive": 3063,
      "Ġanymore": 3064,
      "Ġrecognize": 3065,
      "Ġelectricity": 3066,
      "Ġoxy": 3067,
      "Ġburn": 3068,
      "ays": 3069,
      "Ġupon": 3070,
      "Ġenorm": 3071,
      "Ġdecisions": 3072,
      "Ġsolutions": 3073,
      "Ġengage": 3074,
      "enn": 3075,
      "ĠAre": 3076,
      "Ġseconds": 3077,
      "agine": 3078,
      "ĠGo": 3079,
      "Ġbeings": 3080,
      "Ġtreatment": 3081,
      "time": 3082,
      "Ġurban": 3083,
      "Ġyeah": 3084,
      "ĠAg": 3085,
      "Ġterm": 3086,
      "Ġeffort": 3087,
      "Ġpatterns": 3088,
      "Ġhop": 3089,
      "epend": 3090,
      "Ġdetect": 3091,
      "Ġweren": 3092,
      "Ġ198": 3093,
      "Ġcritical": 3094,
      "Ġactual": 3095,
      "Ġ21": 3096,
      "Ġroll": 3097,
      "Ġslight": 3098,
      "Ġmachines": 3099,
      "Ġzero": 3100,
      "Ġemploy": 3101,
      "Ġprivate": 3102,
      "No": 3103,
      "fer": 3104,
      "go": 3105,
      "eral": 3106,
      "Ġplease": 3107,
      "imb": 3108,
      "ĠSw": 3109,
      "thern": 3110,
      "Ġbecoming": 3111,
      "ĠAfgh": 3112,
      "Ġbiology": 3113,
      "Ġrespond": 3114,
      "Ġfreedom": 3115,
      "Ġdangerous": 3116,
      "Ġstrugg": 3117,
      "ently": 3118,
      "aging": 3119,
      "Ġprote": 3120,
      "Ġwritten": 3121,
      "Ġskills": 3122,
      "Ġphysics": 3123,
      "Ġprovide": 3124,
      "Ġcook": 3125,
      "Ġprice": 3126,
      "Ġboard": 3127,
      "ĠAmericans": 3128,
      "Ġhealthy": 3129,
      "Ġbacteria": 3130,
      "Ġthr": 3131,
      "rel": 3132,
      "ĠAct": 3133,
      "sequ": 3134,
      "Ġversion": 3135,
      "po": 3136,
      "Ġsou": 3137,
      "Ġunique": 3138,
      "Ġloved": 3139,
      "Ġincreasing": 3140,
      "Ġtown": 3141,
      "ĠAb": 3142,
      "ĠMars": 3143,
      "Ġ13": 3144,
      "Ġexpensive": 3145,
      "Ġanywhere": 3146,
      "rum": 3147,
      "imately": 3148,
      "rab": 3149,
      "Ġquant": 3150,
      "Ġcareer": 3151,
      "Ġpage": 3152,
      "Ġforth": 3153,
      "Ġcomfort": 3154,
      "Ġspect": 3155,
      "Ġwaiting": 3156,
      "Ġcosts": 3157,
      "dom": 3158,
      "Ġtrou": 3159,
      "itation": 3160,
      "ĠMar": 3161,
      "ustrial": 3162,
      "Ġneighborhood": 3163,
      "Ġbodies": 3164,
      "Ġdoctors": 3165,
      "Ġtrick": 3166,
      "Ġcloud": 3167,
      "Ġfamous": 3168,
      "Ġmolec": 3169,
      "Ġsal": 3170,
      "Ġmental": 3171,
      "Ġwhe": 3172,
      "Ġcover": 3173,
      "Ġcontent": 3174,
      "Ġdiseases": 3175,
      "Ġearlier": 3176,
      "inating": 3177,
      "ashing": 3178,
      "Ġshot": 3179,
      "Ġwilling": 3180,
      "Ġremind": 3181,
      "Ġstrange": 3182,
      "Ġlistening": 3183,
      "Ġinstitutions": 3184,
      "ĠAfghan": 3185,
      "oid": 3186,
      "Ġworry": 3187,
      "Ġcoun": 3188,
      "Ġpainting": 3189,
      "Ġoccur": 3190,
      "ping": 3191,
      "Ġlad": 3192,
      "iced": 3193,
      "Ġweb": 3194,
      "ceed": 3195,
      "Ġann": 3196,
      "Ġdog": 3197,
      "Ġjud": 3198,
      "Ġexh": 3199,
      "acity": 3200,
      "Ġdrink": 3201,
      "Ġcalcul": 3202,
      "erman": 3203,
      "Ġeth": 3204,
      "Ġgovernments": 3205,
      "Ġdeterm": 3206,
      "Ġdirection": 3207,
      "Ġsecret": 3208,
      "Ġclearly": 3209,
      "Ġvacc": 3210,
      "Ġimmediately": 3211,
      "cies": 3212,
      "ried": 3213,
      "Ġpark": 3214,
      "lebr": 3215,
      "oles": 3216,
      "Ġplastic": 3217,
      "ained": 3218,
      "ĠEast": 3219,
      "Ġexplore": 3220,
      "Ġmagic": 3221,
      "Ġintelligence": 3222,
      "Ġcry": 3223,
      "Ġweight": 3224,
      "ulf": 3225,
      "erson": 3226,
      "iest": 3227,
      "Ġgreatest": 3228,
      "Ġtransport": 3229,
      "Ġglass": 3230,
      "rees": 3231,
      "Ġcust": 3232,
      "itude": 3233,
      "Ġran": 3234,
      "ĠWhich": 3235,
      "Ġdesp": 3236,
      "Ġthroughout": 3237,
      "ĠAnother": 3238,
      "Ġarchitecture": 3239,
      "ube": 3240,
      "Ġcatch": 3241,
      "Ġmatch": 3242,
      "iling": 3243,
      "Ġrid": 3244,
      "Ġneurons": 3245,
      "back": 3246,
      "Ġjump": 3247,
      "Ġgreater": 3248,
      "Ġfamiliar": 3249,
      "SA": 3250,
      "mic": 3251,
      "yr": 3252,
      "oty": 3253,
      "Ġatm": 3254,
      "Ġhimself": 3255,
      "Ġfinal": 3256,
      "Ġlaws": 3257,
      "Ġfloor": 3258,
      "ĠImagine": 3259,
      "Ġstore": 3260,
      "Ġveh": 3261,
      "Ġmethod": 3262,
      "ball": 3263,
      "ĠAd": 3264,
      "Ġoppos": 3265,
      "rom": 3266,
      "atives": 3267,
      "aly": 3268,
      "Ġsaving": 3269,
      "Ġlevels": 3270,
      "Ġfinancial": 3271,
      "met": 3272,
      "ndom": 3273,
      "iti": 3274,
      "ĠEx": 3275,
      "Ġapply": 3276,
      "Ġdriving": 3277,
      "Ġwalked": 3278,
      "uted": 3279,
      "ĠCity": 3280,
      "Ġoffic": 3281,
      "Ġemail": 3282,
      "Ġincome": 3283,
      "Ġgenetic": 3284,
      "ĠIsl": 3285,
      "Ġenvironmental": 3286,
      "Ġmultip": 3287,
      "Ġcelebr": 3288,
      "orrow": 3289,
      "ĠUniversity": 3290,
      "Ġautom": 3291,
      "Ġchallenges": 3292,
      "Ġ90": 3293,
      "Ġwebsite": 3294,
      "Ġsam": 3295,
      "Ġhous": 3296,
      "Ġrange": 3297,
      "ĠCent": 3298,
      "eless": 3299,
      "Ġlegs": 3300,
      "Ġdecade": 3301,
      "Ġteaching": 3302,
      "Ġtypes": 3303,
      "Ġpressure": 3304,
      "ĠX": 3305,
      "istics": 3306,
      "ologist": 3307,
      "Ġhero": 3308,
      "Ġhumanity": 3309,
      "attle": 3310,
      "Ġenjoy": 3311,
      "aries": 3312,
      "ĠSte": 3313,
      "Ġrise": 3314,
      "Ġtherefore": 3315,
      "ĠHar": 3316,
      "Ġactive": 3317,
      "resh": 3318,
      "itted": 3319,
      "Ġrandom": 3320,
      "Ġoptim": 3321,
      "Ġmobile": 3322,
      "rastruct": 3323,
      "Ġfantastic": 3324,
      "na": 3325,
      "Ġcrow": 3326,
      "Ġfit": 3327,
      "ĠBl": 3328,
      "Ġvict": 3329,
      "ables": 3330,
      "Ġlaugh": 3331,
      "Ġservices": 3332,
      "cope": 3333,
      "ky": 3334,
      "pro": 3335,
      "atically": 3336,
      "Ġple": 3337,
      "Ġgradu": 3338,
      "Ġvalues": 3339,
      "Ġmeeting": 3340,
      "vision": 3341,
      "Ġpan": 3342,
      "orry": 3343,
      "ĠMus": 3344,
      "Ġproduction": 3345,
      "Ġinterview": 3346,
      "Ġvari": 3347,
      "Ġfuel": 3348,
      "iot": 3349,
      "Ġdecades": 3350,
      "Ġsociet": 3351,
      "Ġterrible": 3352,
      "ystem": 3353,
      "Ġdecide": 3354,
      "Ġbroad": 3355,
      "Ġpractice": 3356,
      "Ġprep": 3357,
      "airs": 3358,
      "ches": 3359,
      "Ġord": 3360,
      "Ġprograms": 3361,
      "Ġpolitics": 3362,
      "ĠMany": 3363,
      "Ġencou": 3364,
      "zil": 3365,
      "iles": 3366,
      "Ġinteg": 3367,
      "Ġuseful": 3368,
      "Ġbeauty": 3369,
      "Ġfollowing": 3370,
      "Ġengineering": 3371,
      "Ġtiss": 3372,
      "Ġahead": 3373,
      "ĠWestern": 3374,
      "Ġinfrastruct": 3375,
      "Ġvarious": 3376,
      "bb": 3377,
      "Ġnation": 3378,
      "Ġforget": 3379,
      "Ġchoices": 3380,
      "ĠCl": 3381,
      "Ġrespect": 3382,
      "ĠBrazil": 3383,
      "Ġatmosphere": 3384,
      "ises": 3385,
      "Ġhair": 3386,
      "Ġconnection": 3387,
      "ĠSecond": 3388,
      "Ġ70": 3389,
      "Ġperformance": 3390,
      "Ġhonest": 3391,
      "Ġcolleagues": 3392,
      "Ġremarkable": 3393,
      "Ġdynam": 3394,
      "itor": 3395,
      "Ġassoci": 3396,
      "Ġconsequ": 3397,
      "ĠGerman": 3398,
      "Ġsurger": 3399,
      "Ġpopular": 3400,
      "Ġjournal": 3401,
      "Ġbabies": 3402,
      "ĠTwo": 3403,
      "Ġenormous": 3404,
      "Ġdram": 3405,
      "Ġalthough": 3406,
      "ement": 3407,
      "udd": 3408,
      "Ġrace": 3409,
      "Ġsurround": 3410,
      "Ġinvented": 3411,
      "ĠKen": 3412,
      "Ġhelped": 3413,
      "ondon": 3414,
      "Ġphysic": 3415,
      "Ġfemale": 3416,
      "aign": 3417,
      "rated": 3418,
      "Ġweap": 3419,
      "ils": 3420,
      "Ġuses": 3421,
      "Ġ500": 3422,
      "Ġorganizations": 3423,
      "Ġstandard": 3424,
      "Ġshared": 3425,
      "Ġmal": 3426,
      "ica": 3427,
      "ĠLondon": 3428,
      "Ġinstance": 3429,
      "ervation": 3430,
      "Ġspirit": 3431,
      "used": 3432,
      "ĠPer": 3433,
      "Ġrelative": 3434,
      "Ġdestro": 3435,
      "key": 3436,
      "antic": 3437,
      "Ġmale": 3438,
      "Ġexpress": 3439,
      "Ġcondition": 3440,
      "Ġflying": 3441,
      "Ġmotiv": 3442,
      "Ġeffects": 3443,
      "ĠJohn": 3444,
      "Ġi": 3445,
      "Ġaid": 3446,
      "ĠAustr": 3447,
      "Ġworst": 3448,
      "Ġspeech": 3449,
      "Ġraise": 3450,
      "Ġunderstood": 3451,
      "Ġdiagn": 3452,
      "Ġnut": 3453,
      "Ġdemonst": 3454,
      "Ġstreets": 3455,
      "ec": 3456,
      "itter": 3457,
      "Ġpig": 3458,
      "Ġdrop": 3459,
      "ĠCong": 3460,
      "Ġsurve": 3461,
      "Ġcollective": 3462,
      "Ġsupply": 3463,
      "Ġtemperature": 3464,
      "pes": 3465,
      "Ġbase": 3466,
      "osing": 3467,
      "Ġtax": 3468,
      "ĠFace": 3469,
      "Ġscr": 3470,
      "Ġpossibly": 3471,
      "board": 3472,
      "iate": 3473,
      "ufact": 3474,
      "wise": 3475,
      "ricult": 3476,
      "Ġslightly": 3477,
      "equ": 3478,
      "Ġyell": 3479,
      "ĠSch": 3480,
      "Ġ24": 3481,
      "Ġmostly": 3482,
      "Ġcommer": 3483,
      "Ġstopped": 3484,
      "60": 3485,
      "ray": 3486,
      "Ġsad": 3487,
      "Ġsick": 3488,
      "Ġanyway": 3489,
      "Ġgene": 3490,
      "ornia": 3491,
      "ios": 3492,
      "Ġban": 3493,
      "Ġgent": 3494,
      "Ġbelow": 3495,
      "Ġsurvive": 3496,
      "Ġcauses": 3497,
      "Ġtelevision": 3498,
      "ĠCalif": 3499,
      "Ġinsect": 3500,
      "iring": 3501,
      "Ġshark": 3502,
      "Ġwhose": 3503,
      "ĠYour": 3504,
      "Ġsmell": 3505,
      "Ġtrade": 3506,
      "Ġpurpose": 3507,
      "Ġcustom": 3508,
      "uct": 3509,
      "Ġstress": 3510,
      "olve": 3511,
      "Ġlegal": 3512,
      "Ġsummer": 3513,
      "Ġtens": 3514,
      "Ġsus": 3515,
      "anced": 3516,
      "load": 3517,
      "Ġbelief": 3518,
      "Ġradio": 3519,
      "Ġinfrastructure": 3520,
      "inate": 3521,
      "repre": 3522,
      "Ġmut": 3523,
      "ĠThink": 3524,
      "Ġinvent": 3525,
      "Ġslide": 3526,
      "Ġartist": 3527,
      "Ġswitch": 3528,
      "Ġrelationships": 3529,
      "Ġtotal": 3530,
      "Ġdirectly": 3531,
      "reprene": 3532,
      "Ġir": 3533,
      "Ġstates": 3534,
      "Ġheat": 3535,
      "Ġprevent": 3536,
      "Ġ197": 3537,
      "Ġcapacity": 3538,
      "ĠFrom": 3539,
      "ĠCalifornia": 3540,
      "now": 3541,
      "vest": 3542,
      "Ġaltern": 3543,
      "iber": 3544,
      "Ġmeters": 3545,
      "Ġcultural": 3546,
      "Ġdoub": 3547,
      "ĠAfghanistan": 3548,
      "Ġtask": 3549,
      "arian": 3550,
      "ĠHis": 3551,
      "Why": 3552,
      "Ġcommunicate": 3553,
      "Ġphilos": 3554,
      "cles": 3555,
      "nel": 3556,
      "Ġmamm": 3557,
      "Ġelectron": 3558,
      "Ġprofound": 3559,
      "Ġexperiments": 3560,
      "ĠInstead": 3561,
      "Ġpaid": 3562,
      "How": 3563,
      "yle": 3564,
      "Ġhus": 3565,
      "Ġdad": 3566,
      "Ġdimens": 3567,
      "arter": 3568,
      "Ġmanufact": 3569,
      "ĠDr": 3570,
      "Ġcentral": 3571,
      "Ġbiological": 3572,
      "yl": 3573,
      "Ġmix": 3574,
      "Ġrule": 3575,
      "Ġdispl": 3576,
      "lications": 3577,
      "Ġcontroll": 3578,
      "Ġeasily": 3579,
      "Ġmembers": 3580,
      "Ġswim": 3581,
      "Ġtremend": 3582,
      "Ġsymbol": 3583,
      "Ġcampaign": 3584,
      "water": 3585,
      "Ġet": 3586,
      "order": 3587,
      "Ġscan": 3588,
      "Ġvisit": 3589,
      "Ġhyd": 3590,
      "Ġresponsibility": 3591,
      "Ġdegrees": 3592,
      "Ġbought": 3593,
      "ĠIra": 3594,
      "Ġloss": 3595,
      "Ġgun": 3596,
      "Ġreflect": 3597,
      "Ġsocieties": 3598,
      "ĠFacebook": 3599,
      "arm": 3600,
      "cks": 3601,
      "cience": 3602,
      "ĠDav": 3603,
      "Ġagricult": 3604,
      "Ġspeaking": 3605,
      "Ġanswers": 3606,
      "uing": 3607,
      "ya": 3608,
      "raid": 3609,
      "oper": 3610,
      "Ġtwice": 3611,
      "Ġfeels": 3612,
      "Ġcreativity": 3613,
      "Ġplanets": 3614,
      "Ġhistor": 3615,
      "Ġreduce": 3616,
      "Ġsignificant": 3617,
      "band": 3618,
      "Ġdying": 3619,
      "icles": 3620,
      "Ġang": 3621,
      "Ġnoticed": 3622,
      "Ġvast": 3623,
      "Ġmarkets": 3624,
      "cules": 3625,
      "Ġmicrob": 3626,
      "Ġoxygen": 3627,
      "Ġgentle": 3628,
      "ĠArab": 3629,
      "Ġshock": 3630,
      "rench": 3631,
      "Ġplayed": 3632,
      "Ġboys": 3633,
      "Ġdaughter": 3634,
      "Ġemotional": 3635,
      "Ġsurprising": 3636,
      "Ġanaly": 3637,
      "Ġsustainable": 3638,
      "Ġafraid": 3639,
      "It": 3640,
      "ked": 3641,
      "ening": 3642,
      "ened": 3643,
      "izes": 3644,
      "Ġdifferently": 3645,
      "Ġfunny": 3646,
      "Ġnetworks": 3647,
      "Ġoriginal": 3648,
      "Ġcloser": 3649,
      "Ġpublished": 3650,
      "gy": 3651,
      "house": 3652,
      "wood": 3653,
      "Ġliber": 3654,
      "ĠNational": 3655,
      "unk": 3656,
      "Ġexpand": 3657,
      "rupt": 3658,
      "Ġhighly": 3659,
      "Ġdevices": 3660,
      "ĠIraq": 3661,
      "af": 3662,
      "ancy": 3663,
      "Ġhabit": 3664,
      "ĠSan": 3665,
      "ĠPl": 3666,
      "Ġevolved": 3667,
      "Ġentreprene": 3668,
      "Ġcorner": 3669,
      "Ġwindow": 3670,
      "Ġmission": 3671,
      "Ġbroken": 3672,
      "Ġcommunication": 3673,
      "Ġmid": 3674,
      "aling": 3675,
      "oting": 3676,
      "Ġcontact": 3677,
      "Ġlack": 3678,
      "Ġforces": 3679,
      "Ġgold": 3680,
      "Ġshift": 3681,
      "Ġ300": 3682,
      "ception": 3683,
      "Ġefficient": 3684,
      "Ġut": 3685,
      "Ġwood": 3686,
      "Ġdance": 3687,
      "orith": 3688,
      "Ġbeat": 3689,
      "empt": 3690,
      "phone": 3691,
      "Ġindepend": 3692,
      "Ġproduced": 3693,
      "othes": 3694,
      "Ġinspired": 3695,
      "ira": 3696,
      "lies": 3697,
      "adem": 3698,
      "atell": 3699,
      "Ġcoff": 3700,
      "ĠGreat": 3701,
      "anging": 3702,
      "Ġrapid": 3703,
      "ĠIndian": 3704,
      "Ġaddition": 3705,
      "ashion": 3706,
      "ID": 3707,
      "Ġreco": 3708,
      "cell": 3709,
      "Ġcompon": 3710,
      "Ġdifferences": 3711,
      "Ġhelping": 3712,
      "Ġalgorith": 3713,
      "mon": 3714,
      "night": 3715,
      "Ġhom": 3716,
      "Ġspaces": 3717,
      "Ġresist": 3718,
      "Ġexperiences": 3719,
      "Ġmountain": 3720,
      "win": 3721,
      "Ġoh": 3722,
      "amb": 3723,
      "anda": 3724,
      "Ġmolecules": 3725,
      "fr": 3726,
      "edd": 3727,
      "ĠTe": 3728,
      "ĠMich": 3729,
      "ander": 3730,
      "Ġconference": 3731,
      "Ġscientist": 3732,
      "off": 3733,
      "Ġhole": 3734,
      "Ġdiversity": 3735,
      "Ġknowing": 3736,
      "Ġagree": 3737,
      "aced": 3738,
      "Ġblog": 3739,
      "Ġdesigners": 3740,
      "Ġmissing": 3741,
      "Ġreligion": 3742,
      "Ġtrouble": 3743,
      "lim": 3744,
      "rim": 3745,
      "Ġver": 3746,
      "Ġfort": 3747,
      "Ġseemed": 3748,
      "Ġgotten": 3749,
      "Ġrare": 3750,
      "Ġbasis": 3751,
      "Ġdemand": 3752,
      "Ġpassed": 3753,
      "Ġjoin": 3754,
      "Ġidentity": 3755,
      "Ġdreams": 3756,
      "Ġnearly": 3757,
      "ĠAgain": 3758,
      "ĠAustral": 3759,
      "Ġsatell": 3760,
      "icon": 3761,
      "Ġhall": 3762,
      "ĠPar": 3763,
      "idden": 3764,
      "Ġbringing": 3765,
      "Ġcrowd": 3766,
      "Ġwire": 3767,
      "isco": 3768,
      "rael": 3769,
      "term": 3770,
      "ulner": 3771,
      "Ġrough": 3772,
      "ĠRo": 3773,
      "ĠRuss": 3774,
      "Ġflight": 3775,
      "Ġattract": 3776,
      "Ġvolunt": 3777,
      "Ġsurgery": 3778,
      "ef": 3779,
      "Ġ$": 3780,
      "Ġcru": 3781,
      "Ġhost": 3782,
      "edia": 3783,
      "Ġpoet": 3784,
      "Ġconsid": 3785,
      "Ġdeliver": 3786,
      "Ġtarget": 3787,
      "reg": 3788,
      "orge": 3789,
      "Ġeating": 3790,
      "ste": 3791,
      "Ġseas": 3792,
      "ĠOver": 3793,
      "Ġclimb": 3794,
      "Ġbackground": 3795,
      "Ġforever": 3796,
      "Ġspending": 3797,
      "ĠiP": 3798,
      "hy": 3799,
      "Ġtun": 3800,
      "Ġfat": 3801,
      "Ġnone": 3802,
      "Ġaspect": 3803,
      "ears": 3804,
      "Ġtrip": 3805,
      "Ġplat": 3806,
      "Ġlights": 3807,
      "Ġhearing": 3808,
      "exic": 3809,
      "Ġcomplexity": 3810,
      "Ġbirds": 3811,
      "Ġinj": 3812,
      "Ġstudying": 3813,
      "ĠThanks": 3814,
      "ĠIslam": 3815,
      "val": 3816,
      "icking": 3817,
      "Ġindustrial": 3818,
      "Ġopposite": 3819,
      "inist": 3820,
      "reci": 3821,
      "care": 3822,
      "ording": 3823,
      "Ġcreates": 3824,
      "Ġcommercial": 3825,
      "Ġetc": 3826,
      "aul": 3827,
      "gth": 3828,
      "atures": 3829,
      "Ġfol": 3830,
      "Ġhack": 3831,
      "orders": 3832,
      "Ġraised": 3833,
      "rength": 3834,
      "Ġfully": 3835,
      "Ġwide": 3836,
      "Ġweird": 3837,
      "ĠSc": 3838,
      "ifying": 3839,
      "ĠMc": 3840,
      "ĠMexic": 3841,
      "Ġtrib": 3842,
      "Ġtraffic": 3843,
      "Ġaccom": 3844,
      "Ġairpl": 3845,
      "Ġinvestment": 3846,
      "Ġfocused": 3847,
      "cript": 3848,
      "cop": 3849,
      "ius": 3850,
      "Ġcore": 3851,
      "Ġmuseum": 3852,
      "pping": 3853,
      "Ġeasier": 3854,
      "Ġsexual": 3855,
      "mp": 3856,
      "rical": 3857,
      "Ġske": 3858,
      "Ġreb": 3859,
      "osystem": 3860,
      "Ġphoto": 3861,
      "ees": 3862,
      "iam": 3863,
      "Ġstrength": 3864,
      "Ġrout": 3865,
      "roud": 3866,
      "Ġvulner": 3867,
      "Ġparty": 3868,
      "Ġpartners": 3869,
      "Ġboat": 3870,
      "Ġopportunities": 3871,
      "Ġdinos": 3872,
      "Ġcoffee": 3873,
      "ratic": 3874,
      "Ġing": 3875,
      "Ġur": 3876,
      "artment": 3877,
      "Ġteen": 3878,
      "Ġgenome": 3879,
      "ĠChar": 3880,
      "Ġenter": 3881,
      "Ġcrim": 3882,
      "Ġcorrect": 3883,
      "Ġinfect": 3884,
      "Ġdescribe": 3885,
      "Ġlucky": 3886,
      "Ġtremendous": 3887,
      "tle": 3888,
      "ties": 3889,
      "Ġfold": 3890,
      "ĠIran": 3891,
      "ĠWill": 3892,
      "Ġmatters": 3893,
      "ography": 3894,
      "Ġharm": 3895,
      "Ġkilomet": 3896,
      "hand": 3897,
      "atr": 3898,
      "Ġgiant": 3899,
      "ulations": 3900,
      "ĠNor": 3901,
      "Ġimportantly": 3902,
      "Ġpossibility": 3903,
      "ĠIsrael": 3904,
      "Ġparad": 3905,
      "Ġecosystem": 3906,
      "ae": 3907,
      "ĠTake": 3908,
      "Ġstem": 3909,
      "Ġjustice": 3910,
      "Ġcla": 3911,
      "Ġbrill": 3912,
      "Ġremain": 3913,
      "Ġmetap": 3914,
      "Ġstructures": 3915,
      "Ġfailure": 3916,
      "Ġconsciousness": 3917,
      "Ġtherap": 3918,
      "Ġmouth": 3919,
      "Ġproud": 3920,
      "Ġnotion": 3921,
      "ĠGu": 3922,
      "Ġbrings": 3923,
      "Ġturning": 3924,
      "ĠHowever": 3925,
      "Ġpuzz": 3926,
      "Ġdespite": 3927,
      "Ġcred": 3928,
      "Ġforg": 3929,
      "Ġheld": 3930,
      "ively": 3931,
      "Ġadvant": 3932,
      "Ġbenefits": 3933,
      "Ġultimately": 3934,
      "Ġfairly": 3935,
      "Ġvirtual": 3936,
      "ĠActually": 3937,
      "Ġplatform": 3938,
      "Ġrepe": 3939,
      "irt": 3940,
      "Ġshop": 3941,
      "Ġsharing": 3942,
      "Ġalt": 3943,
      "ĠMore": 3944,
      "ĠOb": 3945,
      "Ġtransm": 3946,
      "Ġstuck": 3947,
      "Ġentirely": 3948,
      "ipped": 3949,
      "Ġlandscape": 3950,
      "ĠDavid": 3951,
      "IDS": 3952,
      "do": 3953,
      "iage": 3954,
      "Ġdesert": 3955,
      "Ġsubst": 3956,
      "Ġdistance": 3957,
      "Ġmagaz": 3958,
      "Ġemotions": 3959,
      "Ġyellow": 3960,
      "based": 3961,
      "Ġtum": 3962,
      "Ġbag": 3963,
      "Ġfro": 3964,
      "Ġancient": 3965,
      "Ġhell": 3966,
      "ĠDar": 3967,
      "itely": 3968,
      "Ġaccur": 3969,
      "Ġbomb": 3970,
      "Ġfab": 3971,
      "Ġmos": 3972,
      "ĠGood": 3973,
      "bert": 3974,
      "Ġartists": 3975,
      "Ġaccident": 3976,
      "Ġepide": 3977,
      "Ġnegative": 3978,
      "Ġtough": 3979,
      "Ġmig": 3980,
      "Ġmort": 3981,
      "Ġchim": 3982,
      "Ġconcent": 3983,
      "Ġphones": 3984,
      "Ġadapt": 3985,
      "ysis": 3986,
      "Ġimagination": 3987,
      "Ġnecessarily": 3988,
      "ĠSometimes": 3989,
      "Ġphenomenon": 3990,
      "zen": 3991,
      "Ġcand": 3992,
      "icians": 3993,
      "vere": 3994,
      "rogen": 3995,
      "celer": 3996,
      "ulated": 3997,
      "Ġcalls": 3998,
      "Ġattempt": 3999,
      "ĠAsia": 4000,
      "Ġregular": 4001,
      "Ġdefinition": 4002,
      "Ġhusband": 4003,
      "cest": 4004,
      "mark": 4005,
      "reet": 4006,
      "ĠTr": 4007,
      "Ġseed": 4008,
      "Ġinvis": 4009,
      "Ġflag": 4010,
      "Ġmoments": 4011,
      "Ġopened": 4012,
      "Ġbreast": 4013,
      "Ġfigured": 4014,
      "ĠEuropean": 4015,
      "Ġrequire": 4016,
      "Ġreligious": 4017,
      "Ġbrand": 4018,
      "Ġtissue": 4019,
      "gra": 4020,
      "my": 4021,
      "Ġbillions": 4022,
      "Ġinform": 4023,
      "edic": 4024,
      "Ġnor": 4025,
      "ĠMiddle": 4026,
      "ĠEd": 4027,
      "Ġamb": 4028,
      "Ġbright": 4029,
      "ĠSee": 4030,
      "Ġargument": 4031,
      "ĠTwitter": 4032,
      "Ġleadership": 4033,
      "This": 4034,
      "Ġbone": 4035,
      "Ġbud": 4036,
      "Ġbound": 4037,
      "Ġbatter": 4038,
      "ifically": 4039,
      "ĠOnce": 4040,
      "Ġbrother": 4041,
      "Ġcreatures": 4042,
      "Ġsuffering": 4043,
      "Ġnecessary": 4044,
      "Ġdestroy": 4045,
      "Ġcogn": 4046,
      "Ġmill": 4047,
      "Ġbees": 4048,
      "Ġreve": 4049,
      "Ġancest": 4050,
      "Ġexer": 4051,
      "ĠNiger": 4052,
      "ager": 4053,
      "Ġuniversity": 4054,
      "Ġremote": 4055,
      "connect": 4056,
      "Ġhelps": 4057,
      "Ġelements": 4058,
      "Ġsorry": 4059,
      "Ġtom": 4060,
      "Ġpounds": 4061,
      "Ġfashion": 4062,
      "aria": 4063,
      "Ġsector": 4064,
      "ada": 4065,
      "ĠEn": 4066,
      "Ġevents": 4067,
      "Ġappreci": 4068,
      "Ġparticles": 4069,
      "Ġcorpor": 4070,
      "set": 4071,
      "Ġfle": 4072,
      "Ġden": 4073,
      "ĠAud": 4074,
      "Ġriver": 4075,
      "Ġappe": 4076,
      "Ġsignal": 4077,
      "Ġforeign": 4078,
      "Ġcharge": 4079,
      "Ġfailed": 4080,
      "Ġinfluence": 4081,
      "Ġpleas": 4082,
      "Ġtor": 4083,
      "verse": 4084,
      "Ġnote": 4085,
      "Ġcoast": 4086,
      "Ġdisp": 4087,
      "Ġstudied": 4088,
      "Ġcheap": 4089,
      "Ġemotion": 4090,
      "Ġwalls": 4091,
      "Ġfaith": 4092,
      "kn": 4093,
      "inally": 4094,
      "Ġegg": 4095,
      "urch": 4096,
      "Ġstream": 4097,
      "ĠWashing": 4098,
      "ulpt": 4099,
      "ĠCO": 4100,
      "Ġsculpt": 4101,
      "Ġleading": 4102,
      "Ġsucceed": 4103,
      "Ġholding": 4104,
      "Ġresponsible": 4105,
      "Ġcounter": 4106,
      "30": 4107,
      "dimens": 4108,
      "ĠĠ": 4109,
      "Ġbread": 4110,
      "Ġnorth": 4111,
      "roll": 4112,
      "ĠBill": 4113,
      "Ġship": 4114,
      "ĠWeb": 4115,
      "Ġagre": 4116,
      "aker": 4117,
      "ification": 4118,
      "Ġ400": 4119,
      "Ġconvin": 4120,
      "Ġcycle": 4121,
      "Ġcompetition": 4122,
      "Ġfarmers": 4123,
      "rict": 4124,
      "itable": 4125,
      "ĠSu": 4126,
      "uments": 4127,
      "ĠDan": 4128,
      "ĠFrench": 4129,
      "Ġprevious": 4130,
      "Ġpresident": 4131,
      "Ġrestaur": 4132,
      "Ġhorr": 4133,
      "Ġstrategy": 4134,
      "aff": 4135,
      "ford": 4136,
      "ley": 4137,
      "lection": 4138,
      "ctions": 4139,
      "idents": 4140,
      "ĠMr": 4141,
      "Ġspot": 4142,
      "Ġcompared": 4143,
      "Ġquote": 4144,
      "Ġcooper": 4145,
      "ibr": 4146,
      "Ġoffer": 4147,
      "Ġletter": 4148,
      "Ġchildhood": 4149,
      "Ġindic": 4150,
      "issions": 4151,
      "Ġgender": 4152,
      "Ġadults": 4153,
      "ĠWashington": 4154,
      "vant": 4155,
      "Ġtast": 4156,
      "Ġnarr": 4157,
      "alled": 4158,
      "Ġund": 4159,
      "istry": 4160,
      "Ġsport": 4161,
      "ibilities": 4162,
      "Ġshouldn": 4163,
      "Ġdiscovery": 4164,
      "Ġdeeply": 4165,
      "Ġavoid": 4166,
      "Ġwis": 4167,
      "Ġmouse": 4168,
      "Ġexch": 4169,
      "ĠRich": 4170,
      "Ġacceler": 4171,
      "Ġequal": 4172,
      "Ġnewsp": 4173,
      "Ġbalance": 4174,
      "Ġdocument": 4175,
      "Ġwheel": 4176,
      "Ġphilosoph": 4177,
      "gypt": 4178,
      "Ġbrilliant": 4179,
      "cra": 4180,
      "inc": 4181,
      "Ġprost": 4182,
      "uman": 4183,
      "Ġmaint": 4184,
      "Ġpoem": 4185,
      "Ġorganisms": 4186,
      "Ġdouble": 4187,
      "Ġleaving": 4188,
      "vity": 4189,
      "Ġchick": 4190,
      "Ġmanaged": 4191,
      "Ġprior": 4192,
      "Ġsmo": 4193,
      "Ġbelong": 4194,
      "Ġdollar": 4195,
      "Ġcolors": 4196,
      "Ġjoy": 4197,
      "Ġtypical": 4198,
      "Ġargue": 4199,
      "Ġfighting": 4200,
      "stein": 4201,
      "Ġfresh": 4202,
      "Ġdue": 4203,
      "ett": 4204,
      "throp": 4205,
      "Ġshel": 4206,
      "ĠNA": 4207,
      "ĠCon": 4208,
      "ĠMe": 4209,
      "ĠEgypt": 4210,
      "Ġadop": 4211,
      "Ġtransp": 4212,
      "Ġcrime": 4213,
      "Ġlesson": 4214,
      "Ġbusinesses": 4215,
      "Ġwatched": 4216,
      "Ġ150": 4217,
      "Ġconstruct": 4218,
      "Ġoceans": 4219,
      "Ġfrequ": 4220,
      "Ġmajority": 4221,
      "Ġdegree": 4222,
      "Ġunfortunately": 4223,
      "ĠBritish": 4224,
      "Ġfascinating": 4225,
      "dimensional": 4226,
      "lin": 4227,
      "ugg": 4228,
      "Ġble": 4229,
      "thes": 4230,
      "ĠNe": 4231,
      "Ġunc": 4232,
      "Ġleads": 4233,
      "Ġcaught": 4234,
      "Ġengineers": 4235,
      "Ġlimited": 4236,
      "Ġembra": 4237,
      "Ġexhib": 4238,
      "Ġsister": 4239,
      "ĠDid": 4240,
      "Ġunlike": 4241,
      "ruption": 4242,
      "athy": 4243,
      "Ġbridge": 4244,
      "Ġbelieved": 4245,
      "Ġfinished": 4246,
      "Ġphotos": 4247,
      "exp": 4248,
      "Ġhyp": 4249,
      "Ġprofessional": 4250,
      "ses": 4251,
      "Ġpurs": 4252,
      "Ġlunch": 4253,
      "Ġwearing": 4254,
      "Ġpros": 4255,
      "ĠCo": 4256,
      "ĠHa": 4257,
      "Ġclosed": 4258,
      "iable": 4259,
      "elling": 4260,
      "Ġrelated": 4261,
      "Ġprototy": 4262,
      "Ġinstitution": 4263,
      "hold": 4264,
      "Ġtit": 4265,
      "Ġcos": 4266,
      "Ġfoss": 4267,
      "Ġfaces": 4268,
      "oses": 4269,
      "ĠGen": 4270,
      "Ġcreation": 4271,
      "Ġedge": 4272,
      "Ġpaint": 4273,
      "Ġbenefit": 4274,
      "ij": 4275,
      "Ġhidden": 4276,
      "Ġnames": 4277,
      "entally": 4278,
      "ĠBang": 4279,
      "Ġrot": 4280,
      "agers": 4281,
      "Ġastron": 4282,
      "ength": 4283,
      "Ġseparate": 4284,
      "Ġconcerned": 4285,
      "Ġvolunte": 4286,
      "Ġinvisible": 4287,
      "uild": 4288,
      "word": 4289,
      "Ġtour": 4290,
      "ĠBig": 4291,
      "cked": 4292,
      "Ġotherwise": 4293,
      "ĠVery": 4294,
      "ographic": 4295,
      "Ġfollowed": 4296,
      "Ġintellect": 4297,
      "Ġiron": 4298,
      "Ġhate": 4299,
      "Ġmoves": 4300,
      "Ġsoil": 4301,
      "ĠCol": 4302,
      "Ġeveryday": 4303,
      "Ġgrad": 4304,
      "Ġelement": 4305,
      "Ġopin": 4306,
      "Ġcapable": 4307,
      "Ġgrown": 4308,
      "Ġgrass": 4309,
      "Ġrefuge": 4310,
      "Ġconstantly": 4311,
      "Ġmotor": 4312,
      "Ġanti": 4313,
      "Ġsurprise": 4314,
      "Ġslowly": 4315,
      "IT": 4316,
      "If": 4317,
      "wide": 4318,
      "Ġmir": 4319,
      "Ġpun": 4320,
      "oted": 4321,
      "illed": 4322,
      "pper": 4323,
      "ĠGra": 4324,
      "ĠFl": 4325,
      "Ġnoise": 4326,
      "Ġheads": 4327,
      "Ġtrained": 4328,
      "Ġsteps": 4329,
      "Ġinsects": 4330,
      "Ġkilometers": 4331,
      "Ġmosqu": 4332,
      "known": 4333,
      "20": 4334,
      "DP": 4335,
      "Ġpet": 4336,
      "alley": 4337,
      "apers": 4338,
      "Ġsimpl": 4339,
      "Ġhighest": 4340,
      "ĠFranc": 4341,
      "Ġnormally": 4342,
      "Ġinteraction": 4343,
      "Ġdescribed": 4344,
      "Ġbreath": 4345,
      "Ġmarried": 4346,
      "force": 4347,
      "Ġfrag": 4348,
      "Ġsequence": 4349,
      "Ġadvantage": 4350,
      "lands": 4351,
      "uros": 4352,
      "Ġmaster": 4353,
      "Ġwhom": 4354,
      "enty": 4355,
      "Ġmoon": 4356,
      "ĠHer": 4357,
      "Ġtruck": 4358,
      "ĠPaul": 4359,
      "ĠDes": 4360,
      "Ġnovel": 4361,
      "Ġartific": 4362,
      "Ġsafety": 4363,
      "Ġcurrently": 4364,
      "Ġreceived": 4365,
      "Ġprinciples": 4366,
      "Ġlaunched": 4367,
      "ha": 4368,
      "iors": 4369,
      "oe": 4370,
      "right": 4371,
      "Ġgain": 4372,
      "Ġwear": 4373,
      "ĠApp": 4374,
      "urally": 4375,
      "irm": 4376,
      "Ġking": 4377,
      "ĠPark": 4378,
      "Ġtalks": 4379,
      "Ġexpert": 4380,
      "Ġbegins": 4381,
      "Ġperfectly": 4382,
      "Ġmentioned": 4383,
      "ox": 4384,
      "Ġtox": 4385,
      "Ġdry": 4386,
      "Ġgar": 4387,
      "Ġbear": 4388,
      "iration": 4389,
      "terday": 4390,
      "ĠHave": 4391,
      "Ġfell": 4392,
      "Ġclick": 4393,
      "aked": 4394,
      "Ġplane": 4395,
      "Ġgrandm": 4396,
      "ĠAmaz": 4397,
      "Ġmathematics": 4398,
      "Ġweapons": 4399,
      "Ġfolks": 4400,
      "ĠAudience": 4401,
      "mar": 4402,
      "vention": 4403,
      "Ġodd": 4404,
      "itute": 4405,
      "oration": 4406,
      "Ġinequ": 4407,
      "omy": 4408,
      "Ġgard": 4409,
      "ĠSun": 4410,
      "Ġseat": 4411,
      "ulous": 4412,
      "Ġexists": 4413,
      "Ġinvited": 4414,
      "Ġattach": 4415,
      "Ġidentify": 4416,
      "ipping": 4417,
      "Ġsurprised": 4418,
      "Ġreplace": 4419,
      "Ġmetaphor": 4420,
      "oint": 4421,
      "Ġpages": 4422,
      "asion": 4423,
      "Ġreward": 4424,
      "essed": 4425,
      "ĠPres": 4426,
      "Ġbull": 4427,
      "Ġroof": 4428,
      "Ġfactory": 4429,
      "forest": 4430,
      "Ġinsight": 4431,
      "Ġeleph": 4432,
      "Ġsurvival": 4433,
      "Ġfinger": 4434,
      "Ġmultiple": 4435,
      "Ġtheater": 4436,
      "Ġhomes": 4437,
      "Ġtons": 4438,
      "Ġfed": 4439,
      "Ġnan": 4440,
      "sec": 4441,
      "ĠEach": 4442,
      "ĠLife": 4443,
      "Ġcommit": 4444,
      "Ġprecise": 4445,
      "Ġbrief": 4446,
      "ublic": 4447,
      "Ġsignals": 4448,
      "Ġconsequences": 4449,
      "Ġera": 4450,
      "ino": 4451,
      "Ġband": 4452,
      "oman": 4453,
      "Ġgay": 4454,
      "Ġstock": 4455,
      "ume": 4456,
      "Ġhasn": 4457,
      "Ġcrash": 4458,
      "Ġarticle": 4459,
      "Ġleader": 4460,
      "Ġequip": 4461,
      "Ġpaying": 4462,
      "ĠEverybody": 4463,
      "Ġconsidered": 4464,
      "cil": 4465,
      "lied": 4466,
      "ux": 4467,
      "ushing": 4468,
      "Ġmyth": 4469,
      "cket": 4470,
      "ortex": 4471,
      "Ġcompare": 4472,
      "Ġfellow": 4473,
      "ildren": 4474,
      "Ġharder": 4475,
      "Ġseriously": 4476,
      "Ġdinner": 4477,
      "Ġprotein": 4478,
      "Ġnutr": 4479,
      "ĠAustralia": 4480,
      "Ġcognitive": 4481,
      "anes": 4482,
      "uries": 4483,
      "Ġextend": 4484,
      "Ġintu": 4485,
      "Ġves": 4486,
      "ĠGDP": 4487,
      "Ġempt": 4488,
      "Ġinvestig": 4489,
      "Ġoperating": 4490,
      "Ġversus": 4491,
      "Ġshoes": 4492,
      "Ġsoldiers": 4493,
      "Ġpow": 4494,
      "ancing": 4495,
      "Ġstim": 4496,
      "ami": 4497,
      "Ġarms": 4498,
      "Ġcivilization": 4499,
      "Ġdebate": 4500,
      "ĠMexico": 4501,
      "Ġmagazine": 4502,
      "RI": 4503,
      "Ġcro": 4504,
      "Ġnerv": 4505,
      "urd": 4506,
      "Ġworried": 4507,
      "ads": 4508,
      "ĠPM": 4509,
      "Ġletters": 4510,
      "lication": 4511,
      "ĠDoes": 4512,
      "Ġmicros": 4513,
      "Ġdepression": 4514,
      "Ġlimit": 4515,
      "Ġfeedback": 4516,
      "Ġgalaxies": 4517,
      "Ġassociated": 4518,
      "Ġsouth": 4519,
      "Ġmothers": 4520,
      "ĠWould": 4521,
      "ĠBas": 4522,
      "Ġunless": 4523,
      "Ġcontract": 4524,
      "Ġfinish": 4525,
      "Ġhealthcare": 4526,
      "Ġcurious": 4527,
      "Ġresearchers": 4528,
      "Ġtesting": 4529,
      "Ġclassroom": 4530,
      "Ġexistence": 4531,
      "Ġquantum": 4532,
      "Ġcomfortable": 4533,
      "craft": 4534,
      "uous": 4535,
      "Ġquiet": 4536,
      "ĠGreen": 4537,
      "ĠRes": 4538,
      "ĠRed": 4539,
      "Ġscen": 4540,
      "Ġplanning": 4541,
      "Ġstupid": 4542,
      "Ġequival": 4543,
      "Ġtreated": 4544,
      "Ġdrawing": 4545,
      "Ġleaves": 4546,
      "Ġvessel": 4547,
      "Yes": 4548,
      "Ġinit": 4549,
      "Ġincent": 4550,
      "Ġforced": 4551,
      "anted": 4552,
      "ĠTheir": 4553,
      "Ġchair": 4554,
      "ĠEl": 4555,
      "Ġacadem": 4556,
      "Ġexperts": 4557,
      "Ġ35": 4558,
      "Ġgenerations": 4559,
      "Ġcamer": 4560,
      "ĠEngland": 4561,
      "Ġalternative": 4562,
      "Ġequipment": 4563,
      "bel": 4564,
      "Ġtal": 4565,
      "Ġwave": 4566,
      "Ġbattle": 4567,
      "Ġisland": 4568,
      "Ġants": 4569,
      "odes": 4570,
      "Ġdesire": 4571,
      "Ġsurge": 4572,
      "Ġcoral": 4573,
      "Ġillustr": 4574,
      "Ġsympt": 4575,
      "Ġlayer": 4576,
      "Ġmolecule": 4577,
      "pet": 4578,
      "sing": 4579,
      "Ġcateg": 4580,
      "encies": 4581,
      "Ġhun": 4582,
      "icy": 4583,
      "ĠThree": 4584,
      "thetic": 4585,
      "Ġlies": 4586,
      "Ġexec": 4587,
      "Ġorg": 4588,
      "Ġteles": 4589,
      "Ġemissions": 4590,
      "Ġprocesses": 4591,
      "Ġhopefully": 4592,
      "Ġdaily": 4593,
      "Ġlifet": 4594,
      "Ġprinciple": 4595,
      "Ġmarriage": 4596,
      "Ġwisdom": 4597,
      "Ġtick": 4598,
      "aled": 4599,
      "roph": 4600,
      "Ġstood": 4601,
      "Ġselect": 4602,
      "Ġmeat": 4603,
      "apse": 4604,
      "ago": 4605,
      "Ġscene": 4606,
      "Ġdesigner": 4607,
      "Ġeconomics": 4608,
      "Ġcontinent": 4609,
      "Ġfields": 4610,
      "Ġresource": 4611,
      "Ġexperienced": 4612,
      "Ġstruggle": 4613,
      "Ġnervous": 4614,
      "gar": 4615,
      "Ġlapt": 4616,
      "ara": 4617,
      "Ġgap": 4618,
      "Ġglo": 4619,
      "Ġgather": 4620,
      "Ġrelease": 4621,
      "Ġlie": 4622,
      "Ġlibr": 4623,
      "Ġfrustr": 4624,
      "Ġrural": 4625,
      "Ġsaved": 4626,
      "Ġexpected": 4627,
      "ensity": 4628,
      "Ġcalling": 4629,
      "ĠKore": 4630,
      "Ġwarming": 4631,
      "Ġautism": 4632,
      "Ġmotion": 4633,
      "Ġcircle": 4634,
      "Ġpicked": 4635,
      "Ġsentence": 4636,
      "Ġconsumption": 4637,
      "Ġcircum": 4638,
      "Ġstatistics": 4639,
      "ĠGermany": 4640,
      "hab": 4641,
      "Ġax": 4642,
      "rete": 4643,
      "Ġdate": 4644,
      "Ġinner": 4645,
      "Ġweather": 4646,
      "ĠSm": 4647,
      "Ġshut": 4648,
      "olves": 4649,
      "estic": 4650,
      "Ġspl": 4651,
      "Ġspoke": 4652,
      "Ġcompl": 4653,
      "Ġcoal": 4654,
      "Ġpartner": 4655,
      "ĠRem": 4656,
      "place": 4657,
      "Ġwarm": 4658,
      "Ġvideos": 4659,
      "Ġantib": 4660,
      "Ġagriculture": 4661,
      "Hey": 4662,
      "ok": 4663,
      "Ġsoph": 4664,
      "Ġisol": 4665,
      "otic": 4666,
      "ĠTimes": 4667,
      "Ġround": 4668,
      "ests": 4669,
      "Ġcontain": 4670,
      "Ġputs": 4671,
      "Ġimportance": 4672,
      "Ġorganic": 4673,
      "Ġaccording": 4674,
      "Ġlanguages": 4675,
      "ĠEverything": 4676,
      "Ġshapes": 4677,
      "Ġclinical": 4678,
      "Ġfilled": 4679,
      "Ġincreasingly": 4680,
      "Ġvehicle": 4681,
      "Ġwond": 4682,
      "Ġtoward": 4683,
      "Ġweak": 4684,
      "Ġrein": 4685,
      "Ġreform": 4686,
      "Ġrecon": 4687,
      "Ġabst": 4688,
      "Ġchain": 4689,
      "umber": 4690,
      "ĠMIT": 4691,
      "Ġhadn": 4692,
      "ĠPal": 4693,
      "Ġcovered": 4694,
      "ĠRep": 4695,
      "Ġfacts": 4696,
      "Ġtechnical": 4697,
      "ĠKing": 4698,
      "Ġtransformation": 4699,
      "Ġbits": 4700,
      "Ġfourth": 4701,
      "Ġsetting": 4702,
      "Ġanalysis": 4703,
      "Ġselling": 4704,
      "Ġgalaxy": 4705,
      "Ġdistribution": 4706,
      "ĠDarwin": 4707,
      "ĠRichard": 4708,
      "Ġartificial": 4709,
      "ĠPresident": 4710,
      "itness": 4711,
      "ĠAIDS": 4712,
      "Ġdol": 4713,
      "Ġrow": 4714,
      "osition": 4715,
      "ĠEin": 4716,
      "Ġagg": 4717,
      "Ġflat": 4718,
      "Ġkeeping": 4719,
      "Ġdealing": 4720,
      "Ġengineer": 4721,
      "Ġproperty": 4722,
      "ĠGeorge": 4723,
      "Ġequivalent": 4724,
      "car": 4725,
      "vard": 4726,
      "Ġwake": 4727,
      "Ġusers": 4728,
      "Ġvote": 4729,
      "Ġthinks": 4730,
      "neath": 4731,
      "Ġorganized": 4732,
      "print": 4733,
      "Ġconnections": 4734,
      "Ġlawy": 4735,
      "Ġsymmet": 4736,
      "Ġprivile": 4737,
      "Ġmovies": 4738,
      "Ġarrived": 4739,
      "Ġreaction": 4740,
      "ĠKenya": 4741,
      "Ġairplane": 4742,
      "Ġconvinced": 4743,
      "cast": 4744,
      "Ġtall": 4745,
      "Ġdial": 4746,
      "lement": 4747,
      "semb": 4748,
      "ĠJe": 4749,
      "new": 4750,
      "Ġfactors": 4751,
      "Ġcaused": 4752,
      "Ġuniversal": 4753,
      "Ġdynamic": 4754,
      "Ġcameras": 4755,
      "au": 4756,
      "down": 4757,
      "ri": 4758,
      "isher": 4759,
      "Ġhide": 4760,
      "esome": 4761,
      "Ġneuro": 4762,
      "Ġrates": 4763,
      "ession": 4764,
      "cale": 4765,
      "Ġvoices": 4766,
      "ogen": 4767,
      "Ġqual": 4768,
      "Ġsla": 4769,
      "Ġmovements": 4770,
      "Ġsoul": 4771,
      "Ġordinary": 4772,
      "Ġdimensions": 4773,
      "zing": 4774,
      "uses": 4775,
      "Ġstation": 4776,
      "ĠBar": 4777,
      "add": 4778,
      "Ġprove": 4779,
      "Ġenem": 4780,
      "ressive": 4781,
      "ocol": 4782,
      "Ġmedium": 4783,
      "Ġsites": 4784,
      "Ġilleg": 4785,
      "Ġrequires": 4786,
      "Ġyesterday": 4787,
      "Ġcollection": 4788,
      "Ġheavy": 4789,
      "Ġdolph": 4790,
      ".'": 4791,
      "sour": 4792,
      "Ġgall": 4793,
      "Ġconcl": 4794,
      "Ġtail": 4795,
      "Ġfeelings": 4796,
      "Ġarts": 4797,
      "Ġwondering": 4798,
      "Ġrisks": 4799,
      "That": 4800,
      "ĠJapanese": 4801,
      "Ġdamage": 4802,
      "Ġsatellite": 4803,
      "ĠEinstein": 4804,
      "gn": 4805,
      "mber": 4806,
      "nding": 4807,
      "Ġtoile": 4808,
      "Ġlosing": 4809,
      "Ġgod": 4810,
      "ĠCE": 4811,
      "Ġplayers": 4812,
      "Ġopening": 4813,
      "Ġinfin": 4814,
      "Ġcolon": 4815,
      "Ġconduct": 4816,
      "Ġillness": 4817,
      "Ġreleased": 4818,
      "Ġcriminal": 4819,
      "low": 4820,
      "oot": 4821,
      "uff": 4822,
      "Ġcow": 4823,
      "itals": 4824,
      "Ġpoo": 4825,
      "Ġpil": 4826,
      "Ġnar": 4827,
      "Ġends": 4828,
      "Ġsurf": 4829,
      "Ġsolid": 4830,
      "Ġdriver": 4831,
      "Ġmuscle": 4832,
      "Ġkilling": 4833,
      "Ġdiet": 4834,
      "iency": 4835,
      "Ġmessages": 4836,
      "Ġveget": 4837,
      "Ġcutting": 4838,
      "Ġintelligent": 4839,
      "ĠSwed": 4840,
      "Ġhouses": 4841,
      "oes": 4842,
      "Ġcards": 4843,
      "Ġkick": 4844,
      "Ġneuros": 4845,
      "ension": 4846,
      "Ġunderneath": 4847,
      "akistan": 4848,
      "Ġinterface": 4849,
      "Ġexplan": 4850,
      "Ġsigns": 4851,
      "Ġrepresents": 4852,
      "Ġessential": 4853,
      "onym": 4854,
      "Ġsending": 4855,
      "Ġestab": 4856,
      "Ġcopy": 4857,
      "Ġvictims": 4858,
      "hi": 4859,
      "life": 4860,
      "ym": 4861,
      "erves": 4862,
      "ald": 4863,
      "ĠBen": 4864,
      "cipl": 4865,
      "acters": 4866,
      "Ġperce": 4867,
      "Ġexpression": 4868,
      "Ġblow": 4869,
      "Ġreprodu": 4870,
      "Ġelectrical": 4871,
      "Ġcharacters": 4872,
      "Ġappropr": 4873,
      "Ġdeeper": 4874,
      "Ġproperties": 4875,
      "ĠHarvard": 4876,
      "Ġindependent": 4877,
      "Ġrapidly": 4878,
      "Ġepidemic": 4879,
      "ĠAmazon": 4880,
      "Ġhang": 4881,
      "icip": 4882,
      "Ġnations": 4883,
      "ĠSim": 4884,
      "irty": 4885,
      "Ġheight": 4886,
      "Ġwhenever": 4887,
      "ĠLast": 4888,
      "Ġ2000": 4889,
      "Ġresc": 4890,
      "Ġdesigning": 4891,
      "Ġwaves": 4892,
      "Ġadvanced": 4893,
      "Ġconstruction": 4894,
      "ĠAtl": 4895,
      "Ġvariety": 4896,
      "Ġmalaria": 4897,
      "Ġexchange": 4898,
      "Ġinequality": 4899,
      "Ġsophistic": 4900,
      "fish": 4901,
      "Ġholes": 4902,
      "Ġtow": 4903,
      "Ġreef": 4904,
      "Ġliked": 4905,
      "Ġrat": 4906,
      "Ġtrillion": 4907,
      "ĠPakistan": 4908,
      "akers": 4909,
      "Ġauth": 4910,
      "Ġvalu": 4911,
      "iques": 4912,
      "Ġpromise": 4913,
      "ĠBritain": 4914,
      "Ġmanagement": 4915,
      "ĠSchool": 4916,
      "Ġbattery": 4917,
      "Ġtomorrow": 4918,
      "Ġintellectual": 4919,
      "ĠFrancisco": 4920,
      "Ġempty": 4921,
      "van": 4922,
      "ĠInt": 4923,
      "Ġgang": 4924,
      "Ġtap": 4925,
      "Ġprefer": 4926,
      "Ġsmile": 4927,
      "Ġthoughts": 4928,
      "Ġcarefully": 4929,
      "Ġpossibilities": 4930,
      "Ġ45": 4931,
      "Ġbroke": 4932,
      "Ġprofessor": 4933,
      "Ġfacing": 4934,
      "Ġemerging": 4935,
      "Ġtrials": 4936,
      "ĠCenter": 4937,
      "Ġdisplay": 4938,
      "Ġpoetry": 4939,
      "Ġcredit": 4940,
      "Ġbudget": 4941,
      "ĠNASA": 4942,
      "Ġfossil": 4943,
      "ait": 4944,
      "aurs": 4945,
      "zed": 4946,
      "Ġten": 4947,
      "Ġpure": 4948,
      "ulating": 4949,
      "Ġchart": 4950,
      "Ġmanip": 4951,
      "ĠGree": 4952,
      "Ġtransition": 4953,
      "ĠStreet": 4954,
      "Ġsources": 4955,
      "Ġawful": 4956,
      "Ġnegot": 4957,
      "Ġexercise": 4958,
      "bble": 4959,
      "gets": 4960,
      "lom": 4961,
      "min": 4962,
      "Ġhurt": 4963,
      "Ġflex": 4964,
      "alt": 4965,
      "Ġshif": 4966,
      "ĠCould": 4967,
      "ĠMo": 4968,
      "Ġadvert": 4969,
      "Ġrecy": 4970,
      "Ġspecifically": 4971,
      "Ġrequired": 4972,
      "engu": 4973,
      "Ġcapture": 4974,
      "Ġmicrobes": 4975,
      "Ġgentlemen": 4976,
      "ael": 4977,
      "rs": 4978,
      "Ġpip": 4979,
      "Ġfal": 4980,
      "Ġdots": 4981,
      "Ġlat": 4982,
      "Ġlength": 4983,
      "ĠAnt": 4984,
      "Ġformer": 4985,
      "Ġmel": 4986,
      "ĠCam": 4987,
      "Ġreview": 4988,
      "Ġchemistry": 4989,
      "Ġeffectively": 4990,
      "ĠCongress": 4991,
      "Ġentrepreneurs": 4992,
      "oom": 4993,
      "Ġsight": 4994,
      "Ġmer": 4995,
      "ĠSat": 4996,
      "Ġmaps": 4997,
      "osis": 4998,
      "Ġuns": 4999,
      "Ġremo": 5000,
      "Ġplayer": 5001,
      "Ġminim": 5002,
      "Ġgenerate": 5003,
      "ĠAnge": 5004,
      "Ġmember": 5005,
      "Ġdepends": 5006,
      "Ġdetails": 5007,
      "Ġdisappear": 5008,
      "Ġvulnerable": 5009,
      "Ġgrandmother": 5010,
      "Ġlifetime": 5011,
      "hes": 5012,
      "Ã©": 5013,
      "itarian": 5014,
      "organ": 5015,
      "Ġgift": 5016,
      "Ġuser": 5017,
      "Ġevil": 5018,
      "cont": 5019,
      "Ġproducing": 5020,
      "Ġlessons": 5021,
      "Ġcultures": 5022,
      "Ġradical": 5023,
      "Ġprofession": 5024,
      "Ġforests": 5025,
      "Ġsnow": 5026,
      "Ġmountains": 5027,
      "Ġintroduce": 5028,
      "Ġgraduate": 5029,
      "Ġrelatively": 5030,
      "frie": 5031,
      "Ġclaim": 5032,
      "ĠNigeria": 5033,
      "stream": 5034,
      "Ġpeak": 5035,
      "Ġunit": 5036,
      "ĠJew": 5037,
      "Ġideal": 5038,
      "Ġconsist": 5039,
      "Ġfoundation": 5040,
      "Ġentertain": 5041,
      "Ġdefine": 5042,
      "Ġlocation": 5043,
      "Ġconvince": 5044,
      "Ġhonor": 5045,
      "Ġchemicals": 5046,
      "Ġmathematical": 5047,
      "Ġlady": 5048,
      "Ġcircumst": 5049,
      "uary": 5050,
      "icago": 5051,
      "ĠAnderson": 5052,
      "rooms": 5053,
      "Ġchap": 5054,
      "Ġride": 5055,
      "Ġintr": 5056,
      "Ġpray": 5057,
      "Ġtechniques": 5058,
      "olds": 5059,
      "Ġextract": 5060,
      "Ġserve": 5061,
      "Ġengaged": 5062,
      "Ġpoliticians": 5063,
      "Ġfunding": 5064,
      "ĠCanada": 5065,
      "Ġparticipate": 5066,
      "ĠQu": 5067,
      "Ġofficial": 5068,
      "Ġfortun": 5069,
      "Don": 5070,
      "Ġcave": 5071,
      "usive": 5072,
      "rog": 5073,
      "ĠSince": 5074,
      "ĠBG": 5075,
      "ĠMil": 5076,
      "abet": 5077,
      "Ġunus": 5078,
      "Ġbuying": 5079,
      "Ġphr": 5080,
      "Ġcenters": 5081,
      "Ġcorruption": 5082,
      "Ġformed": 5083,
      "Ġcure": 5084,
      "Ġbill": 5085,
      "Ġbul": 5086,
      "Ġbare": 5087,
      "Ġped": 5088,
      "ĠII": 5089,
      "Ġgrain": 5090,
      "enture": 5091,
      "Ġsees": 5092,
      "Ġgoals": 5093,
      "Ġjail": 5094,
      "Ġteeth": 5095,
      "ĠMart": 5096,
      "ĠChicago": 5097,
      "Ġinstall": 5098,
      "Ġgrade": 5099,
      "Ġfewer": 5100,
      "Ġ99": 5101,
      "ĠPhil": 5102,
      "Ġencourage": 5103,
      "Ġroughly": 5104,
      "Ġaccompl": 5105,
      "Ġmosquit": 5106,
      "mas": 5107,
      "ov": 5108,
      "Ġpal": 5109,
      "Ġpengu": 5110,
      "ĠTom": 5111,
      "Ġreven": 5112,
      "lying": 5113,
      "Ġkitch": 5114,
      "Ġliqu": 5115,
      "Ġrub": 5116,
      "ĠGP": 5117,
      "Ġthanks": 5118,
      "ĠJames": 5119,
      "Ġpregn": 5120,
      "Ġbran": 5121,
      "Ġmetal": 5122,
      "Ġassist": 5123,
      "Ġoccup": 5124,
      "Ġcombination": 5125,
      "Ġsweet": 5126,
      "Ġspectrum": 5127,
      "Ġdinosaurs": 5128,
      "Ġvaluable": 5129,
      "bre": 5130,
      "bors": 5131,
      "rument": 5132,
      "Ġlic": 5133,
      "Ġbeach": 5134,
      "urance": 5135,
      "Ġstaff": 5136,
      "ĠYet": 5137,
      "Ġactions": 5138,
      "ĠLad": 5139,
      "ĠLos": 5140,
      "chnology": 5141,
      "Ġinvention": 5142,
      "Ġcourage": 5143,
      "Ġ75": 5144,
      "Ġinclude": 5145,
      "Ġprotection": 5146,
      "Ġprimary": 5147,
      "Ġcartoon": 5148,
      "Ġencoura": 5149,
      "Ġchimpan": 5150,
      "fit": 5151,
      "mit": 5152,
      "mission": 5153,
      "itan": 5154,
      "Ġpitch": 5155,
      "lly": 5156,
      "Ġinev": 5157,
      "Ġnose": 5158,
      "ĠTur": 5159,
      "Ġoutcome": 5160,
      "Ġhowever": 5161,
      "Ġdisaster": 5162,
      "Ġdesk": 5163,
      "oston": 5164,
      "Ġrefer": 5165,
      "Ġbottle": 5166,
      "Ġsituations": 5167,
      "Ġconvention": 5168,
      "Ġconsumer": 5169,
      "Ġobser": 5170,
      "Ġevolutionary": 5171,
      "Ġhospitals": 5172,
      "Ġshoot": 5173,
      "Ġstatus": 5174,
      "Ġdiscussion": 5175,
      "Ġmolecular": 5176,
      "Ġforgot": 5177,
      "Ġestablish": 5178,
      "Ġsides": 5179,
      "Ġshall": 5180,
      "abilities": 5181,
      "ternal": 5182,
      "Ġinstrument": 5183,
      "Ġinterp": 5184,
      "Ġincreased": 5185,
      "Ġhyper": 5186,
      "Ġ2010": 5187,
      "Ġvaccine": 5188,
      "Ġsharks": 5189,
      "Ġmanufacturing": 5190,
      "Ġseason": 5191,
      "hyth": 5192,
      "uh": 5193,
      "Ġsan": 5194,
      "ĠBank": 5195,
      "Ġmyst": 5196,
      "ĠMin": 5197,
      "Ġcompar": 5198,
      "Ġsugar": 5199,
      "Ġworldwide": 5200,
      "ĠDep": 5201,
      "ĠGh": 5202,
      "Ġdiss": 5203,
      "Ġflies": 5204,
      "Ġinterests": 5205,
      "Ġdrives": 5206,
      "Ġgrid": 5207,
      "Ġenvironments": 5208,
      "Ġassign": 5209,
      "Ġaffected": 5210,
      "ĠFrank": 5211,
      "Ġpotentially": 5212,
      "Ġanalog": 5213,
      "olly": 5214,
      "porary": 5215,
      "ĠInstitute": 5216,
      "Ġdefinitely": 5217,
      "Ġblocks": 5218,
      "Ġcarrying": 5219,
      "Ġsymptoms": 5220,
      "pher": 5221,
      "Ġho": 5222,
      "ĠBoston": 5223,
      "Ġshad": 5224,
      "Ġens": 5225,
      "Ġapplied": 5226,
      "Ġgenerally": 5227,
      "Ġregions": 5228,
      "Ġadded": 5229,
      "Ġbehaviors": 5230,
      "Ġneighbors": 5231,
      "Ġwinter": 5232,
      "ĠAnyway": 5233,
      "Ġintroduced": 5234,
      "Ġcomponents": 5235,
      "Ġrestaurant": 5236,
      "Ġopinion": 5237,
      "11": 5238,
      "vable": 5239,
      "Ġtank": 5240,
      "Ġthin": 5241,
      "Ġinput": 5242,
      "icing": 5243,
      "ĠWomen": 5244,
      "olving": 5245,
      "Ġspin": 5246,
      "Ġarrest": 5247,
      "Ġdecl": 5248,
      "Ġ196": 5249,
      "Ġruns": 5250,
      "Ġpassword": 5251,
      "Ġ2008": 5252,
      "ended": 5253,
      "Ġradiation": 5254,
      "Ġtypically": 5255,
      "Ġreached": 5256,
      "Ġpulled": 5257,
      "Ġviruses": 5258,
      "Ġawareness": 5259,
      "Ġmistake": 5260,
      "Ġprepared": 5261,
      "Ġmaintain": 5262,
      "Ġmirror": 5263,
      "log": 5264,
      "mers": 5265,
      "spe": 5266,
      "atin": 5267,
      "ita": 5268,
      "Ġbath": 5269,
      "Ġment": 5270,
      "Ġlect": 5271,
      "Ġbee": 5272,
      "igm": 5273,
      "cend": 5274,
      "ĠWik": 5275,
      "Ġatoms": 5276,
      "Ġrom": 5277,
      "Ġworlds": 5278,
      "ĠYouT": 5279,
      "Ġgoods": 5280,
      "Ġfactor": 5281,
      "Ġkeeps": 5282,
      "Ġexisting": 5283,
      "Ġrecorded": 5284,
      "Ġoption": 5285,
      "Ġtraveling": 5286,
      "Ġhorse": 5287,
      "Ġsteel": 5288,
      "Ġconversations": 5289,
      "Ġattacks": 5290,
      "what": 5291,
      "Ġemployees": 5292,
      "ĠMuslim": 5293,
      "Ġillegal": 5294,
      "Ġsophisticated": 5295,
      "Ġunusual": 5296,
      "bur": 5297,
      "iat": 5298,
      "uits": 5299,
      "Ġfert": 5300,
      "Ġnav": 5301,
      "etics": 5302,
      "Ġdogs": 5303,
      "Ġju": 5304,
      "Ġrational": 5305,
      "ĠGal": 5306,
      "Ġbubble": 5307,
      "Ġconservation": 5308,
      "Ġregard": 5309,
      "Ġcyber": 5310,
      "Ġmeaningful": 5311,
      "Ġfundamentally": 5312,
      "Ġestim": 5313,
      "Ġsample": 5314,
      "Ġnewspaper": 5315,
      "Ġkitchen": 5316,
      "ĠYouTube": 5317,
      "uel": 5318,
      "Ġbow": 5319,
      "Ġsevere": 5320,
      "Ġshame": 5321,
      "Ġnotes": 5322,
      "Ġconver": 5323,
      "Ġspring": 5324,
      "Ġfeature": 5325,
      "ĠUS": 5326,
      "ework": 5327,
      "Ġpersonally": 5328,
      "Ġphysically": 5329,
      "Ġprotected": 5330,
      "ĠFrance": 5331,
      "Ġinnovative": 5332,
      "Ġoperate": 5333,
      "ĠMichael": 5334,
      "ĠiPh": 5335,
      "Ġingred": 5336,
      "Ġorgans": 5337,
      "80": 5338,
      "can": 5339,
      "cred": 5340,
      "father": 5341,
      "Ġvert": 5342,
      "aters": 5343,
      "Ġpian": 5344,
      "Ġfishing": 5345,
      "Ġdip": 5346,
      "Ġreci": 5347,
      "Ġrenew": 5348,
      "ĠBro": 5349,
      "abled": 5350,
      "Ġperman": 5351,
      "Ġquarter": 5352,
      "ĠFour": 5353,
      "Ġacqu": 5354,
      "angers": 5355,
      "Ġ194": 5356,
      "Ġtopic": 5357,
      "Ġproviding": 5358,
      "Ġempathy": 5359,
      "Ġsenses": 5360,
      "Ġstronger": 5361,
      "Ġharvest": 5362,
      "whel": 5363,
      "Ġactivities": 5364,
      "Ġframework": 5365,
      "Ġhydrogen": 5366,
      "Ġfalse": 5367,
      "Ġliquid": 5368,
      "Do": 5369,
      "Ġdedic": 5370,
      "ĠAlex": 5371,
      "ifth": 5372,
      "Ġring": 5373,
      "ĠColl": 5374,
      "ĠMic": 5375,
      "Ġsphere": 5376,
      "Ġque": 5377,
      "Ġdesper": 5378,
      "Ġadj": 5379,
      "Ġgravity": 5380,
      "Ġbiom": 5381,
      "Ġnaturally": 5382,
      "Ġdrag": 5383,
      "Ġscared": 5384,
      "Ġpractical": 5385,
      "Ġdestruction": 5386,
      "Ġhoriz": 5387,
      "Ġultimate": 5388,
      "Ġawesome": 5389,
      "Ġmechanism": 5390,
      "ĠSteve": 5391,
      "ĠPerhaps": 5392,
      "Ġmortality": 5393,
      "Ġabstract": 5394,
      "friend": 5395,
      "Ġpair": 5396,
      "ĠBer": 5397,
      "Ġplus": 5398,
      "Ġcoord": 5399,
      "Ġfeatures": 5400,
      "Ġaging": 5401,
      "Ġremains": 5402,
      "Ġinstrum": 5403,
      "Ġtransfer": 5404,
      "ĠValley": 5405,
      "hips": 5406,
      "gged": 5407,
      "Ġclever": 5408,
      "Ġequality": 5409,
      "Ġjoined": 5410,
      "Ġempower": 5411,
      "Ġdemocratic": 5412,
      "Ġpollution": 5413,
      "point": 5414,
      "Ġvehicles": 5415,
      "Ġdoubt": 5416,
      "ĠRussia": 5417,
      "Ġtumor": 5418,
      "Ġpleasure": 5419,
      "Look": 5420,
      "cal": 5421,
      "gment": 5422,
      "ront": 5423,
      "ss": 5424,
      "Ġmira": 5425,
      "Ġhits": 5426,
      "Ġhung": 5427,
      "Ġeld": 5428,
      "Ġstorm": 5429,
      "Ġcha": 5430,
      "umps": 5431,
      "eline": 5432,
      "Ġsuit": 5433,
      "ĠOther": 5434,
      "Ġclip": 5435,
      "Ġoverwhel": 5436,
      "Ġtechnological": 5437,
      "Ġapparent": 5438,
      "Ġreplic": 5439,
      "Ġsolved": 5440,
      "Ġprocessing": 5441,
      "Ġcurve": 5442,
      "Ġfigures": 5443,
      "Ġauton": 5444,
      "Ġproductive": 5445,
      "Ġinspiration": 5446,
      "Ġ1990": 5447,
      "Ġsatis": 5448,
      "Ġcollaboration": 5449,
      "Ġalgorithms": 5450,
      "Ġeggs": 5451,
      "Ġtoxic": 5452,
      "Ġantibiot": 5453,
      "ris": 5454,
      "Ġought": 5455,
      "Ġwel": 5456,
      "Ġasp": 5457,
      "ĠWhile": 5458,
      "ĠPart": 5459,
      "Ġcomputing": 5460,
      "ĠNobody": 5461,
      "ĠAlso": 5462,
      "Ġamounts": 5463,
      "Ġprivacy": 5464,
      "Ġinternal": 5465,
      "Ġpolicies": 5466,
      "Ġefficiency": 5467,
      "Ġaftern": 5468,
      "Ġrelevant": 5469,
      "Ġhoping": 5470,
      "Ġdramatic": 5471,
      "Ġancestors": 5472,
      "500": 5473,
      "gl": 5474,
      "gent": 5475,
      "rat": 5476,
      "vis": 5477,
      "xim": 5478,
      "Ġwars": 5479,
      "Ġsen": 5480,
      "Ġcortex": 5481,
      "isters": 5482,
      "Ġmile": 5483,
      "enced": 5484,
      "Ġhunt": 5485,
      "orous": 5486,
      "Ġlying": 5487,
      "Ġanx": 5488,
      "opia": 5489,
      "uls": 5490,
      "Ġrig": 5491,
      "Ġperception": 5492,
      "ĠDem": 5493,
      "Ġclock": 5494,
      "Ġclothes": 5495,
      "Ġunderwater": 5496,
      "Ġcollected": 5497,
      "Ġelection": 5498,
      "Ġdriven": 5499,
      "Ġsinging": 5500,
      "Ġphotographs": 5501,
      "Ġsongs": 5502,
      "Ġprinting": 5503,
      "Ġdropped": 5504,
      "Ġpassionate": 5505,
      "Ġconcrete": 5506,
      "Ġauthority": 5507,
      "ĠCharles": 5508,
      "Ġsports": 5509,
      "Ġgarden": 5510,
      "ham": 5511,
      "Ġwitness": 5512,
      "eration": 5513,
      "ingu": 5514,
      "Ġtoy": 5515,
      "asks": 5516,
      "olic": 5517,
      "Ġchurch": 5518,
      "Ġmak": 5519,
      "Ġspo": 5520,
      "aren": 5521,
      "ĠPac": 5522,
      "Ġstudio": 5523,
      "Ġpolar": 5524,
      "Ġvisible": 5525,
      "Ġconfront": 5526,
      "Ġfunctions": 5527,
      "Ġdiam": 5528,
      "Ġjoke": 5529,
      "ĠArt": 5530,
      "Ġhousing": 5531,
      "Ġsurvey": 5532,
      "ĠParis": 5533,
      "Ġpuzzle": 5534,
      "ta": 5535,
      "za": 5536,
      "Ġcere": 5537,
      "Ġcast": 5538,
      "Ġfisher": 5539,
      "Ġlens": 5540,
      "Ġnurs": 5541,
      "ĠMont": 5542,
      "Ġacting": 5543,
      "Ġtape": 5544,
      "ĠDay": 5545,
      "Ġ23": 5546,
      "ĠRob": 5547,
      "Ġskill": 5548,
      "Ġsubs": 5549,
      "Ġmusical": 5550,
      "Ġequally": 5551,
      "Ġtests": 5552,
      "Ġliterature": 5553,
      "Ġoperation": 5554,
      "Ġframe": 5555,
      "Ġtransportation": 5556,
      "Ġsurrounded": 5557,
      "Ġfabric": 5558,
      "Ġnarrative": 5559,
      "Ġafternoon": 5560,
      "In": 5561,
      "lation": 5562,
      "Ġthick": 5563,
      "inction": 5564,
      "Ġmere": 5565,
      "ĠTalk": 5566,
      "Ġintense": 5567,
      "Ġunknown": 5568,
      "Ġ22": 5569,
      "berg": 5570,
      "Ġscar": 5571,
      "Ġscore": 5572,
      "Ġchallenging": 5573,
      "Ġlargely": 5574,
      "Ġexplained": 5575,
      "Ġbreathe": 5576,
      "Ġterrorism": 5577,
      "Ġfingers": 5578,
      "Ġswimming": 5579,
      "ault": 5580,
      "itz": 5581,
      "itution": 5582,
      "Ġiniti": 5583,
      "anta": 5584,
      "ums": 5585,
      "ĠPort": 5586,
      "Ġclub": 5587,
      "Ġload": 5588,
      "Ġapplications": 5589,
      "Ġremove": 5590,
      "ĠState": 5591,
      "Ġinfected": 5592,
      "Ġorganism": 5593,
      "Ġyounger": 5594,
      "arrass": 5595,
      "Ġmemories": 5596,
      "Ġtested": 5597,
      "Ġparall": 5598,
      "Ġmilk": 5599,
      "Ġadvice": 5600,
      "Ġstret": 5601,
      "Ġpsychology": 5602,
      "Ġrocket": 5603,
      "Ġcritic": 5604,
      "Ġdomin": 5605,
      "Ġmistakes": 5606,
      "Ġridic": 5607,
      "Ġagreed": 5608,
      "ĠCEO": 5609,
      "Ġnavig": 5610,
      "fortunately": 5611,
      "ls": 5612,
      "scale": 5613,
      "Ġhorm": 5614,
      "Ġtonight": 5615,
      "Ġdress": 5616,
      "sem": 5617,
      "Ġchose": 5618,
      "osh": 5619,
      "Ġworker": 5620,
      "Ġnowhere": 5621,
      "ĠFive": 5622,
      "Ġdiscipl": 5623,
      "Ġcontrast": 5624,
      "Ġcommand": 5625,
      "Ġhandle": 5626,
      "Ġsunlight": 5627,
      "Ġfalling": 5628,
      "Ġcombine": 5629,
      "Ġsilence": 5630,
      "ĠProject": 5631,
      "Ġoccurred": 5632,
      "Ġwireless": 5633,
      "Ġaccurate": 5634,
      "Ġchicken": 5635,
      "Ġcircumstances": 5636,
      "Ġinterpret": 5637,
      "ĠiPhone": 5638,
      "lines": 5639,
      "oons": 5640,
      "Ġboring": 5641,
      "Ġborders": 5642,
      "Ġfiction": 5643,
      "Ġorch": 5644,
      "Ġoutc": 5645,
      "ĠPol": 5646,
      "ĠJan": 5647,
      "ĠHealth": 5648,
      "Ġobst": 5649,
      "ĠUnfortunately": 5650,
      "Ġconfidence": 5651,
      "Ġdefined": 5652,
      "Ġtrend": 5653,
      "Ġsensors": 5654,
      "Ġdeaths": 5655,
      "Ġrecords": 5656,
      "Ġstayed": 5657,
      "Ġoptions": 5658,
      "Ġviolent": 5659,
      "Ġembarrass": 5660,
      "Ġproteins": 5661,
      "cription": 5662,
      "Ġhorrible": 5663,
      "Ġtaste": 5664,
      "Ġwine": 5665,
      "itual": 5666,
      "Ġborder": 5667,
      "Ġbicy": 5668,
      "icide": 5669,
      "Ġreject": 5670,
      "Ġupper": 5671,
      "Ġcomment": 5672,
      "Ġplate": 5673,
      "Ġuncom": 5674,
      "Ġimplement": 5675,
      "elly": 5676,
      "Ġdownload": 5677,
      "Ġpercentage": 5678,
      "being": 5679,
      "ĠStan": 5680,
      "Ġbusy": 5681,
      "Ġdeploy": 5682,
      "Ġsensitive": 5683,
      "Ġcombined": 5684,
      "ounced": 5685,
      "Ġ1980": 5686,
      "Ġcooking": 5687,
      "Ġappreciate": 5688,
      "Ġconclusion": 5689,
      "Americ": 5690,
      "mm": 5691,
      "Ġcord": 5692,
      "Ġfake": 5693,
      "orb": 5694,
      "ĠThom": 5695,
      "Ġselection": 5696,
      "illing": 5697,
      "Ġbutton": 5698,
      "ĠCome": 5699,
      "Ġtheme": 5700,
      "Ġtrig": 5701,
      "Ġsomewhat": 5702,
      "Ġprime": 5703,
      "ptember": 5704,
      "Ġcontem": 5705,
      "Ġevening": 5706,
      "ĠJer": 5707,
      "Ġconstant": 5708,
      "Ġconstrain": 5709,
      "Ġzone": 5710,
      "aneously": 5711,
      "Ġdepth": 5712,
      "Ġgreenhouse": 5713,
      "ĠOnly": 5714,
      "Ġpresentation": 5715,
      "Ġhotel": 5716,
      "Ġroads": 5717,
      "Ġtracking": 5718,
      "ĠSomething": 5719,
      "iosity": 5720,
      "Ġangry": 5721,
      "Ġflew": 5722,
      "Ġsplit": 5723,
      "ĠGPS": 5724,
      "den": 5725,
      "foot": 5726,
      "ih": 5727,
      "mal": 5728,
      "yn": 5729,
      "Ġcents": 5730,
      "itors": 5731,
      "Ġpool": 5732,
      "Ġgut": 5733,
      "ĠAc": 5734,
      "ĠAir": 5735,
      "Ġitem": 5736,
      "Ġreverse": 5737,
      "stand": 5738,
      "adic": 5739,
      "ĠEth": 5740,
      "Ġresil": 5741,
      "Ġsuppose": 5742,
      "Ġpresence": 5743,
      "Ġrooms": 5744,
      "Ġelectro": 5745,
      "ĠSeptember": 5746,
      "Ġparking": 5747,
      "Ġstatement": 5748,
      "Ġclosely": 5749,
      "Ġvolume": 5750,
      "Ġsustainability": 5751,
      "Ġassume": 5752,
      "Ġresistance": 5753,
      "source": 5754,
      "fin": 5755,
      "making": 5756,
      "Ġdot": 5757,
      "Ġloud": 5758,
      "ula": 5759,
      "ĠNumber": 5760,
      "ĠMon": 5761,
      "ĠLaw": 5762,
      "Ġoverall": 5763,
      "ĠRev": 5764,
      "onscious": 5765,
      "Ġflower": 5766,
      "Ġrecom": 5767,
      "herent": 5768,
      "Ġallowing": 5769,
      "Ġglam": 5770,
      "Ġadvance": 5771,
      "Ġmarketing": 5772,
      "Ġzoom": 5773,
      "Ġpsychological": 5774,
      "Ġrocks": 5775,
      "Ġsuffer": 5776,
      "Ġcapitalism": 5777,
      "Ġfixed": 5778,
      "Ġbirthday": 5779,
      "Ġdetermine": 5780,
      "ĠAdam": 5781,
      "Ġcontrolled": 5782,
      "Ġlaptop": 5783,
      "Ġexplanation": 5784,
      "ĠAngeles": 5785,
      "St": 5786,
      "ias": 5787,
      "over": 5788,
      "xide": 5789,
      "Ġsets": 5790,
      "Ġbes": 5791,
      "Ġbarr": 5792,
      "Ġbones": 5793,
      "Ġmice": 5794,
      "Ġinject": 5795,
      "owered": 5796,
      "Ġattend": 5797,
      "ĠHouse": 5798,
      "ĠMed": 5799,
      "Ġclus": 5800,
      "Ġflood": 5801,
      "Ġdatab": 5802,
      "Ġ1960": 5803,
      "Ġstring": 5804,
      "Ġpatent": 5805,
      "Ġsigned": 5806,
      "Ġlabel": 5807,
      "Ġfilms": 5808,
      "Ġprovided": 5809,
      "Ġfaced": 5810,
      "Ġadminist": 5811,
      "Ġlaboratory": 5812,
      "Ġappropriate": 5813,
      "ĠWikip": 5814,
      "Yeah": 5815,
      "och": 5816,
      "iture": 5817,
      "ingly": 5818,
      "Ġpump": 5819,
      "aser": 5820,
      "entic": 5821,
      "Ġabuse": 5822,
      "ola": 5823,
      "Ġfrank": 5824,
      "Ġcock": 5825,
      "Ġunexp": 5826,
      "ĠBefore": 5827,
      "Ġcenturies": 5828,
      "Ġexploration": 5829,
      "Ġ2009": 5830,
      "Ġmulti": 5831,
      "Ġsubjects": 5832,
      "Ġreceive": 5833,
      "Ġdivide": 5834,
      "Ġburning": 5835,
      "Ġtherapy": 5836,
      "Ġhypothes": 5837,
      "ĠMicro": 5838,
      "70": 5839,
      "But": 5840,
      "Ġack": 5841,
      "Ġmarch": 5842,
      "Ġpill": 5843,
      "Ġfurn": 5844,
      "ctic": 5845,
      "Ġmeg": 5846,
      "ĠCount": 5847,
      "ĠMal": 5848,
      "ĠMark": 5849,
      "Ġchannel": 5850,
      "Ġguide": 5851,
      "Ġgrab": 5852,
      "Ġsolving": 5853,
      "Ġelev": 5854,
      "Ġ2007": 5855,
      "Ġteams": 5856,
      "box": 5857,
      "Ġmeasured": 5858,
      "Ġcausing": 5859,
      "Ġmarine": 5860,
      "Ġcircuit": 5861,
      "Ġvillages": 5862,
      "Ġsilk": 5863,
      "Ġemergency": 5864,
      "Ġladies": 5865,
      "Ġcosm": 5866,
      "Ġvessels": 5867,
      "belie": 5868,
      "ĠPacific": 5869,
      "Ġoutcomes": 5870,
      "dr": 5871,
      "nic": 5872,
      "ups": 5873,
      "Ġhur": 5874,
      "Ġhook": 5875,
      "Ġpin": 5876,
      "Ġpushing": 5877,
      "Ġdiction": 5878,
      "arant": 5879,
      "asters": 5880,
      "vey": 5881,
      "Ġweigh": 5882,
      "Ġears": 5883,
      "uting": 5884,
      "ĠSil": 5885,
      "ĠScience": 5886,
      "Ġstone": 5887,
      "Ġwash": 5888,
      "Ġritual": 5889,
      "ĠMa": 5890,
      "ĠMary": 5891,
      "Ġplans": 5892,
      "agn": 5893,
      "Ġimpl": 5894,
      "Ġdisg": 5895,
      "ologically": 5896,
      "Ġcreature": 5897,
      "Ġtranspl": 5898,
      "Ġcollapse": 5899,
      "Ġexisted": 5900,
      "Ġboxes": 5901,
      "Ġballoon": 5902,
      "Ġsuggests": 5903,
      "Ġmathematic": 5904,
      "Ġstruck": 5905,
      "Ġspiritual": 5906,
      "Ġcustomers": 5907,
      "Ġwondered": 5908,
      "Ġnarrow": 5909,
      "ĠWikipedia": 5910,
      "Ġunexpected": 5911,
      "Is": 5912,
      "My": 5913,
      "look": 5914,
      "eness": 5915,
      "Ġpapers": 5916,
      "Ġvan": 5917,
      "ĠMount": 5918,
      "ĠMuseum": 5919,
      "Ġenable": 5920,
      "ĠEm": 5921,
      "Ġexpon": 5922,
      "ĠFe": 5923,
      "Ġoffered": 5924,
      "Ġtechnique": 5925,
      "Ġapplication": 5926,
      "Ġextent": 5927,
      "Ġextinct": 5928,
      "Ġdirector": 5929,
      "Ġclasses": 5930,
      "Ġ600": 5931,
      "Ġfloating": 5932,
      "Ġflowers": 5933,
      "Ġlifest": 5934,
      "Ġtransformed": 5935,
      "Ġbreathing": 5936,
      "Ġlogic": 5937,
      "Ġconclud": 5938,
      "ĠAbout": 5939,
      "Ġelectronic": 5940,
      "ĠObama": 5941,
      "Ġdestroyed": 5942,
      "connected": 5943,
      "onymous": 5944,
      "Ġpiano": 5945,
      "nes": 5946,
      "nda": 5947,
      "Ġmad": 5948,
      "Ġfirm": 5949,
      "Ġyouth": 5950,
      "ching": 5951,
      "keys": 5952,
      "ĠBab": 5953,
      "Ġproport": 5954,
      "Ġtab": 5955,
      "ĠFound": 5956,
      "Ġimplications": 5957,
      "heim": 5958,
      "Ġdecline": 5959,
      "Ġowners": 5960,
      "Ġcourt": 5961,
      "Ġinstruct": 5962,
      "Ġstri": 5963,
      "Ġeconomies": 5964,
      "Ġeconomists": 5965,
      "Ġdistinct": 5966,
      "ographer": 5967,
      "Ġstandards": 5968,
      "Ġeducational": 5969,
      "Ġcrack": 5970,
      "ĠEveryone": 5971,
      "Ġfalls": 5972,
      "Ġencoun": 5973,
      "Ġadmit": 5974,
      "Ġdrinking": 5975,
      "Ġaspects": 5976,
      "Ġembrace": 5977,
      "ĠApple": 5978,
      "ĠBasically": 5979,
      "Ġscenar": 5980,
      "Ġlibrary": 5981,
      "called": 5982,
      "iety": 5983,
      "Ġicon": 5984,
      "Ġmales": 5985,
      "omic": 5986,
      "alu": 5987,
      "Ġwhales": 5988,
      "sters": 5989,
      "Ġshr": 5990,
      "iled": 5991,
      "ĠNever": 5992,
      "Ġtack": 5993,
      "Ġwherever": 5994,
      "ĠGlobal": 5995,
      "Ġgenius": 5996,
      "ĠUnion": 5997,
      "Ġexplos": 5998,
      "Ġcorres": 5999,
      "Ġdepartment": 6000,
      "Ġlegis": 6001,
      "Ġlimits": 6002,
      "Ġarmy": 6003,
      "Ġsavings": 6004,
      "Ġsamples": 6005,
      "Ġtitle": 6006,
      "ĠRemember": 6007,
      "ĠRepublic": 6008,
      "ĠThomas": 6009,
      "Okay": 6010,
      "hour": 6011,
      "tail": 6012,
      "inations": 6013,
      "rem": 6014,
      "ata": 6015,
      "iters": 6016,
      "Ġneut": 6017,
      "Ġchip": 6018,
      "que": 6019,
      "ĠChe": 6020,
      "ĠPlease": 6021,
      "ĠFinally": 6022,
      "Ġroot": 6023,
      "ĠJul": 6024,
      "ĠJune": 6025,
      "athers": 6026,
      "Ġcarried": 6027,
      "Ġrelate": 6028,
      "Ġelim": 6029,
      "Ġaccum": 6030,
      "Ġengaging": 6031,
      "Ġpopulations": 6032,
      "Ġbreed": 6033,
      "Ġmemor": 6034,
      "Ġcontinued": 6035,
      "Ġsecure": 6036,
      "Ġmeasuring": 6037,
      "Ġanticip": 6038,
      "Ġlimb": 6039,
      "Ġidentical": 6040,
      "Ġgrandfather": 6041,
      "Ġ250": 6042,
      "Ġerror": 6043,
      "Ġtranslate": 6044,
      "Ġirr": 6045,
      "Ġparadigm": 6046,
      "Ġglobe": 6047,
      "ollywood": 6048,
      "Ġdiplom": 6049,
      "Ġinstruments": 6050,
      "Ġacknow": 6051,
      "uum": 6052,
      "nded": 6053,
      "ounce": 6054,
      "Ġnest": 6055,
      "ĠSa": 6056,
      "Ġstro": 6057,
      "aming": 6058,
      "aint": 6059,
      "Ġexplo": 6060,
      "ĠLatin": 6061,
      "Ġ27": 6062,
      "acing": 6063,
      "Ġphase": 6064,
      "icted": 6065,
      "Ġdecre": 6066,
      "tech": 6067,
      "Ġshoulder": 6068,
      "Ġinstinct": 6069,
      "Ġmonkey": 6070,
      "Ġfinance": 6071,
      "Ġgrows": 6072,
      "Ġbiod": 6073,
      "Ġgras": 6074,
      "Ġprofit": 6075,
      "Ġ[\"": 6076,
      "Ġrecording": 6077,
      "Ġrepresented": 6078,
      "Ġarguments": 6079,
      "Ġfeeding": 6080,
      "Ġmechanical": 6081,
      "Ġdomestic": 6082,
      "Ġclinic": 6083,
      "Ġdramatically": 6084,
      "ĠKorea": 6085,
      "ĠAntar": 6086,
      "rors": 6087,
      "Ġdign": 6088,
      "etically": 6089,
      "Ġstands": 6090,
      "Ġneither": 6091,
      "ĠHuman": 6092,
      "ĠLa": 6093,
      "Ġpoly": 6094,
      "Ġpharm": 6095,
      "ĠJim": 6096,
      "Ġhumor": 6097,
      "Ġraw": 6098,
      "Ġcareful": 6099,
      "Ġbike": 6100,
      "Ġpresented": 6101,
      "Ġincreases": 6102,
      "Ġoccasion": 6103,
      "Ġspreading": 6104,
      "Ġlinked": 6105,
      "ĠChristmas": 6106,
      "Ġportra": 6107,
      "Ġclouds": 6108,
      "Ġcelebrate": 6109,
      "Ġautomatically": 6110,
      "profit": 6111,
      "Ġprototype": 6112,
      "Ġprecisely": 6113,
      "Ġmicroscope": 6114,
      "Ġprivilege": 6115,
      "Ġfrankly": 6116,
      "cers": 6117,
      "wr": 6118,
      "well": 6119,
      "Ġath": 6120,
      "Ġcup": 6121,
      "Ġhoney": 6122,
      "Ġdense": 6123,
      "Ġwhist": 6124,
      "Ġdozen": 6125,
      "Ġfright": 6126,
      "ateful": 6127,
      "ĠNG": 6128,
      "Ġours": 6129,
      "ĠCop": 6130,
      "Ġacts": 6131,
      "emb": 6132,
      "Ġevolve": 6133,
      "Ġlets": 6134,
      "Ġscream": 6135,
      "Ġequation": 6136,
      "Ġembedd": 6137,
      "Ġarchitects": 6138,
      "Ġfootprint": 6139,
      "Ġignor": 6140,
      "Ġdistributed": 6141,
      "Ġjudge": 6142,
      "ĠBlack": 6143,
      "Ġtoilet": 6144,
      "Ġrecyc": 6145,
      "Ġphrase": 6146,
      "ĠJanuary": 6147,
      "east": 6148,
      "uce": 6149,
      "Ġtired": 6150,
      "inals": 6151,
      "erge": 6152,
      "itory": 6153,
      "Ġpul": 6154,
      "otion": 6155,
      "imp": 6156,
      "imeter": 6157,
      "ĠSam": 6158,
      "Ġanger": 6159,
      "illy": 6160,
      "Ġru": 6161,
      "ĠNext": 6162,
      "aret": 6163,
      "Ġprize": 6164,
      "Ġflash": 6165,
      "licity": 6166,
      "ĠKe": 6167,
      "Ġstoryt": 6168,
      "ĠIsland": 6169,
      "Ġwindows": 6170,
      "Ġrecognition": 6171,
      "Ġtraveled": 6172,
      "Ġaston": 6173,
      "ĠComm": 6174,
      "Ġspectac": 6175,
      "Ġscript": 6176,
      "Ġ1970": 6177,
      "Ġmammals": 6178,
      "Ġcomponent": 6179,
      "Ġinfinite": 6180,
      "ĠSweden": 6181,
      "bl": 6182,
      "oca": 6183,
      "rary": 6184,
      "vas": 6185,
      "Ġtent": 6186,
      "rets": 6187,
      "ato": 6188,
      "Ġlun": 6189,
      "Ġglob": 6190,
      "ĠSpe": 6191,
      "Ġstere": 6192,
      "rade": 6193,
      "Ġhem": 6194,
      "ille": 6195,
      "Ġfruit": 6196,
      "Ġmyster": 6197,
      "Ġknock": 6198,
      "ĠCap": 6199,
      "soft": 6200,
      "Ġdisorder": 6201,
      "Ġcommitted": 6202,
      "rows": 6203,
      "Ġguarant": 6204,
      "Ġdesigns": 6205,
      "Ġconserv": 6206,
      "Ġinterf": 6207,
      "Ġ1950": 6208,
      "ĠAfricans": 6209,
      "Ġmush": 6210,
      "Ġhearts": 6211,
      "Ġperforming": 6212,
      "Ġobsessed": 6213,
      "ĠRobert": 6214,
      "Ġsurgeon": 6215,
      "Ġpoorest": 6216,
      "Ġconventional": 6217,
      "bage": 6218,
      "hol": 6219,
      "iance": 6220,
      "rating": 6221,
      "Ġther": 6222,
      "Ġben": 6223,
      "Ġpy": 6224,
      "Ġdust": 6225,
      "Ġdancing": 6226,
      "Ġgest": 6227,
      "Ġwhale": 6228,
      "eters": 6229,
      "lymp": 6230,
      "Ġshell": 6231,
      "Ġproced": 6232,
      "Ġseek": 6233,
      "Ġplaced": 6234,
      "ĠWhite": 6235,
      "Ġtwe": 6236,
      "Ġovercome": 6237,
      "Ġpocket": 6238,
      "Ġbrothers": 6239,
      "Ġpersu": 6240,
      "Ġtraum": 6241,
      "Ġscary": 6242,
      "Ġpersonality": 6243,
      "Ġinsurance": 6244,
      "Ġproduces": 6245,
      "Ġwalks": 6246,
      "Ġ2005": 6247,
      "Ġreference": 6248,
      "Ġproperly": 6249,
      "Ġachieved": 6250,
      "Ġimmune": 6251,
      "Ġcolleague": 6252,
      "Ġbombs": 6253,
      "Ġthrown": 6254,
      "Ġmethods": 6255,
      "Ġcontrolling": 6256,
      "Ġcorporate": 6257,
      "Ġacademic": 6258,
      "Ġtelescope": 6259,
      "Ġenemy": 6260,
      "Ġpregnant": 6261,
      "Ġparallel": 6262,
      "eal": 6263,
      "tes": 6264,
      "uity": 6265,
      "wich": 6266,
      "Ġsne": 6267,
      "oned": 6268,
      "Ġpace": 6269,
      "esis": 6270,
      "Ġdiverse": 6271,
      "level": 6272,
      "using": 6273,
      "ĠAh": 6274,
      "Ġstyle": 6275,
      "erences": 6276,
      "opher": 6277,
      "Ġsem": 6278,
      "illance": 6279,
      "Ġorbit": 6280,
      "Ġvag": 6281,
      "ĠHaw": 6282,
      "Ġspinal": 6283,
      "ĠOlymp": 6284,
      "ĠPo": 6285,
      "ĠPan": 6286,
      "ĠGulf": 6287,
      "Ġtraged": 6288,
      "Ġentered": 6289,
      "Ġrepair": 6290,
      "Ġbias": 6291,
      "Ġexploring": 6292,
      "Ġcolum": 6293,
      "clear": 6294,
      "Ġbehavioral": 6295,
      "Ġrobotic": 6296,
      "Ġmainly": 6297,
      "Ġpollen": 6298,
      "Ġearthqu": 6299,
      "Ġefforts": 6300,
      "Ġvaccines": 6301,
      "Ġcrying": 6302,
      "ĠCentral": 6303,
      "Ġappeared": 6304,
      "Ġexhibition": 6305,
      "Ġhunger": 6306,
      "ĠGhana": 6307,
      "ĠFoundation": 6308,
      "90": 6309,
      "ban": 6310,
      "bal": 6311,
      "pass": 6312,
      "Ġtight": 6313,
      "Ġbat": 6314,
      "ener": 6315,
      "otes": 6316,
      "iggs": 6317,
      "raction": 6318,
      "Ġchocol": 6319,
      "Ġtea": 6320,
      "Ġvital": 6321,
      "Ġtries": 6322,
      "ogue": 6323,
      "Ġwanting": 6324,
      "Ġunits": 6325,
      "Ġloop": 6326,
      "licit": 6327,
      "Ġpolio": 6328,
      "Ġimagined": 6329,
      "Ġmetab": 6330,
      "Ġorganize": 6331,
      "Ġgrateful": 6332,
      "Ġcolony": 6333,
      "Ġpainful": 6334,
      "Ġclassic": 6335,
      "Ġ65": 6336,
      "Ġrising": 6337,
      "Ġhousehold": 6338,
      "Ġmissed": 6339,
      "Ġinteracting": 6340,
      "Ġdirections": 6341,
      "Ġcollecting": 6342,
      "Ġignore": 6343,
      "iveness": 6344,
      "Ġjournalist": 6345,
      "Ġhabitat": 6346,
      "Ġcandid": 6347,
      "arency": 6348,
      "Ġobstac": 6349,
      "gic": 6350,
      "mates": 6351,
      "rant": 6352,
      "Ġ0": 6353,
      "Ġtasks": 6354,
      "Ġsed": 6355,
      "Ġboss": 6356,
      "Ġtoler": 6357,
      "esign": 6358,
      "anthrop": 6359,
      "ari": 6360,
      "arters": 6361,
      "Ġstack": 6362,
      "ĠBon": 6363,
      "Ġaside": 6364,
      "Ġassemb": 6365,
      "Ġgolf": 6366,
      "earch": 6367,
      "Ġwhereas": 6368,
      "ĠGet": 6369,
      "ĠInter": 6370,
      "Ġdisorders": 6371,
      "Ġsmoke": 6372,
      "Ġraising": 6373,
      "Ġconnecting": 6374,
      "ĠSec": 6375,
      "Ġconsumers": 6376,
      "Ġtelephone": 6377,
      "Ġstrategies": 6378,
      "Ġappears": 6379,
      "Ġphilosophy": 6380,
      "Ġelephant": 6381,
      "ĠJeff": 6382,
      "Ġremoved": 6383,
      "Ġmystery": 6384,
      "Ġpermanent": 6385,
      "ĠDemoc": 6386,
      "ĠRevolution": 6387,
      "ĠMicrosoft": 6388,
      "bi": 6389,
      "Ġfan": 6390,
      "Ġdensity": 6391,
      "org": 6392,
      "Ġlung": 6393,
      "Ġgon": 6394,
      "ota": 6395,
      "cean": 6396,
      "think": 6397,
      "through": 6398,
      "ĠBush": 6399,
      "Ġrush": 6400,
      "ĠNations": 6401,
      "ĠHiggs": 6402,
      "Ġplot": 6403,
      "Ġplenty": 6404,
      "Ġleap": 6405,
      "Ġunbelie": 6406,
      "aks": 6407,
      "Ġcollaps": 6408,
      "Ġcontrovers": 6409,
      "pring": 6410,
      "Ġcheaper": 6411,
      "attan": 6412,
      "Ġillusion": 6413,
      "Ġpractices": 6414,
      "Ġdarkness": 6415,
      "Ġrecognized": 6416,
      "Ġastero": 6417,
      "Ġaccepted": 6418,
      "Ġdepending": 6419,
      "Ġuniversities": 6420,
      "Ġseeds": 6421,
      "Ġcommitment": 6422,
      "Ġauthentic": 6423,
      "Ġentertainment": 6424,
      "Ġbarely": 6425,
      "Ġvertical": 6426,
      "ĠEthi": 6427,
      "Ġembedded": 6428,
      "Let": 6429,
      "PA": 6430,
      "aving": 6431,
      "hib": 6432,
      "hattan": 6433,
      "iang": 6434,
      "son": 6435,
      "sum": 6436,
      "Ġwound": 6437,
      "Ġcash": 6438,
      "esity": 6439,
      "leton": 6440,
      "ĠSyr": 6441,
      "iform": 6442,
      "ĠGl": 6443,
      "ĠGold": 6444,
      "iac": 6445,
      "Ġprem": 6446,
      "Ġblank": 6447,
      "Ġinvite": 6448,
      "Ġplays": 6449,
      "Ġmonkeys": 6450,
      "Ġrecru": 6451,
      "Ġhardware": 6452,
      "Ġcorals": 6453,
      "Ġmuscles": 6454,
      "Ġcuriosity": 6455,
      "Ġgray": 6456,
      "Ġtreating": 6457,
      "Ġdevast": 6458,
      "Ġfilter": 6459,
      "Ġinteractions": 6460,
      "Ġreaching": 6461,
      "ĠManhattan": 6462,
      "Ġgeomet": 6463,
      "Ġcitizen": 6464,
      "Ġapartment": 6465,
      "Ġpushed": 6466,
      "Ġdrove": 6467,
      "Ġconcern": 6468,
      "Ġfascinated": 6469,
      "Ġcontribute": 6470,
      "Ġengagement": 6471,
      "Ġheroes": 6472,
      "Ġrecovery": 6473,
      "Ġrepeat": 6474,
      "Ġattached": 6475,
      "Ġisolated": 6476,
      "Ġlicense": 6477,
      "Ġrecommend": 6478,
      "gly": 6479,
      "power": 6480,
      "under": 6481,
      "Ġtill": 6482,
      "ĠTex": 6483,
      "children": 6484,
      "amin": 6485,
      "Ġliver": 6486,
      "usted": 6487,
      "Ġchamp": 6488,
      "ĠCor": 6489,
      "Ġprices": 6490,
      "ello": 6491,
      "century": 6492,
      "Ġwriter": 6493,
      "Ġinvolves": 6494,
      "azz": 6495,
      "Ġoldest": 6496,
      "Ġdistrict": 6497,
      "Ġgla": 6498,
      "Ġproductivity": 6499,
      "ĠInternational": 6500,
      "Ġmeetings": 6501,
      "appy": 6502,
      "Ġescape": 6503,
      "ĠNothing": 6504,
      "Ġinspire": 6505,
      "Ġshooting": 6506,
      "Ġconcepts": 6507,
      "Ġeradic": 6508,
      "Ġfacial": 6509,
      "Ġdiagram": 6510,
      "Ġsynthes": 6511,
      "Ġdivided": 6512,
      "Ġbanks": 6513,
      "Ġcaptured": 6514,
      "Ġneighborhoods": 6515,
      "Ġsurveillance": 6516,
      "Ġentrepreneur": 6517,
      "copes": 6518,
      "Ġprosper": 6519,
      "Ġfertil": 6520,
      "Ġhungry": 6521,
      "Ġantibiotics": 6522,
      "Ġlifestyle": 6523,
      "ĠNGO": 6524,
      "Ġglobally": 6525,
      "cut": 6526,
      "eared": 6527,
      "ship": 6528,
      "Ġtip": 6529,
      "Ġtube": 6530,
      "Ġaim": 6531,
      "Ġsales": 6532,
      "Ġborrow": 6533,
      "Ġfulf": 6534,
      "Ġdict": 6535,
      "Ġdio": 6536,
      "astern": 6537,
      "Ġbeg": 6538,
      "Ġstations": 6539,
      "keep": 6540,
      "Ġrhyth": 6541,
      "Ġdelic": 6542,
      "Ġusual": 6543,
      "rous": 6544,
      "Ġspider": 6545,
      "Ġsacr": 6546,
      "ogether": 6547,
      "Ġsuicide": 6548,
      "Ġneedle": 6549,
      "ptions": 6550,
      "ĠJack": 6551,
      "Ġherself": 6552,
      "phones": 6553,
      "Ġprev": 6554,
      "Ġlovely": 6555,
      "ĠVoice": 6556,
      "Ġcontrols": 6557,
      "Ġretire": 6558,
      "apping": 6559,
      "Ġinteractive": 6560,
      "Ġsearching": 6561,
      "Ġfluid": 6562,
      "while": 6563,
      "Ġvirtually": 6564,
      "ĠSpace": 6565,
      "related": 6566,
      "Ġpaintings": 6567,
      "Ġscratch": 6568,
      "Ġmanufacture": 6569,
      "Ġsculpture": 6570,
      "ĠSuper": 6571,
      "Ġadopt": 6572,
      "Ġvolunteers": 6573,
      "ĠGrand": 6574,
      "Ġpowers": 6575,
      "Ġcrops": 6576,
      "Ġrescue": 6577,
      "Ġlatest": 6578,
      "Ġromantic": 6579,
      "Ġapparently": 6580,
      "ĠTexas": 6581,
      "AR": 6582,
      "case": 6583,
      "ek": 6584,
      "gers": 6585,
      "iated": 6586,
      "nels": 6587,
      "rid": 6588,
      "isons": 6589,
      "Ġdirty": 6590,
      "Ġgig": 6591,
      "ĠTor": 6592,
      "Ġaband": 6593,
      "Ġexcell": 6594,
      "ivered": 6595,
      "ĠNat": 6596,
      "ĠNarr": 6597,
      "Ġalien": 6598,
      "ĠHy": 6599,
      "ĠMad": 6600,
      "agger": 6601,
      "ĠPole": 6602,
      "ĠRw": 6603,
      "Ġlock": 6604,
      "ĠJes": 6605,
      "ishment": 6606,
      "Ġemph": 6607,
      "Ġbrown": 6608,
      "ubes": 6609,
      "Ġslides": 6610,
      "Ġmonitor": 6611,
      "Ġbehave": 6612,
      "ĠIndeed": 6613,
      "Ġairport": 6614,
      "Ġtextbook": 6615,
      "Ġestimate": 6616,
      "Ġreported": 6617,
      "Ġutter": 6618,
      "Ġalgorithm": 6619,
      "ĠIslamic": 6620,
      "abetes": 6621,
      "Ġpenguins": 6622,
      "ĠStanford": 6623,
      "Ġfurniture": 6624,
      "There": 6625,
      "fl": 6626,
      "flies": 6627,
      "ka": 6628,
      "Ġcens": 6629,
      "Ġcute": 6630,
      "Ġpour": 6631,
      "orking": 6632,
      "Ġlin": 6633,
      "Ġyield": 6634,
      "ida": 6635,
      "section": 6636,
      "Ġsection": 6637,
      "ĠBoy": 6638,
      "Ġlikes": 6639,
      "Ġhelic": 6640,
      "ĠNob": 6641,
      "ĠHollywood": 6642,
      "osen": 6643,
      "iel": 6644,
      "Ġenh": 6645,
      "ĠLeg": 6646,
      "Ġparties": 6647,
      "Ġunderground": 6648,
      "Ġflip": 6649,
      "oster": 6650,
      "Ġcorn": 6651,
      "Ġelsewhere": 6652,
      "Ġbreaking": 6653,
      "lessly": 6654,
      "Ġprovides": 6655,
      "Ġexpectations": 6656,
      "Ġimpacts": 6657,
      "Ġpurch": 6658,
      "Ġfunctional": 6659,
      "Ġlaughing": 6660,
      "Ġweapon": 6661,
      "ĠCongo": 6662,
      "Ġrebuild": 6663,
      "Ġfederal": 6664,
      "Ġaxis": 6665,
      "ĠMartin": 6666,
      "Ġlecture": 6667,
      "Ġdignity": 6668,
      "Ġdioxide": 6669,
      "lims": 6670,
      "Ġmim": 6671,
      "Ġfifth": 6672,
      "anz": 6673,
      "orter": 6674,
      "lete": 6675,
      "Ġrely": 6676,
      "iday": 6677,
      "ĠBay": 6678,
      "Ġconven": 6679,
      "ĠCons": 6680,
      "osure": 6681,
      "emic": 6682,
      "Ġtag": 6683,
      "ĠOp": 6684,
      "Ġexposed": 6685,
      "ĠDel": 6686,
      "ĠLab": 6687,
      "Ġpretend": 6688,
      "Ġscales": 6689,
      "Ġobesity": 6690,
      "Ġ32": 6691,
      "Ġparticle": 6692,
      "Ġminor": 6693,
      "Ġcapita": 6694,
      "Ġgenerated": 6695,
      "Ġskull": 6696,
      "Ġvisited": 6697,
      "Ġopposed": 6698,
      "Ġagenda": 6699,
      "attered": 6700,
      "Ġdelivered": 6701,
      "Ġaccessible": 6702,
      "Ġlayers": 6703,
      "Ġmagnetic": 6704,
      "Ġsandwich": 6705,
      "Ġbeliefs": 6706,
      "Ġcooperation": 6707,
      "Ġuncertain": 6708,
      "ĠAtlantic": 6709,
      "ĠDepartment": 6710,
      "Ġdedicated": 6711,
      "doll": 6712,
      "walk": 6713,
      "Ġwip": 6714,
      "Ġwings": 6715,
      "ali": 6716,
      "Ġrent": 6717,
      "ched": 6718,
      "ĠWoman": 6719,
      "ĠBu": 6720,
      "Ġate": 6721,
      "Ġchoo": 6722,
      "ckets": 6723,
      "Ġmaxim": 6724,
      "Ġintention": 6725,
      "Ġvibr": 6726,
      "ĠHi": 6727,
      "ĠPre": 6728,
      "ĠDH": 6729,
      "ĠDis": 6730,
      "Ġ26": 6731,
      "Ġdisrupt": 6732,
      "Ġlocked": 6733,
      "Ġsheep": 6734,
      "Ġresolution": 6735,
      "Ġhardly": 6736,
      "Ġdefend": 6737,
      "Ġsurely": 6738,
      "aws": 6739,
      "Ġprotecting": 6740,
      "class": 6741,
      "Ġconcert": 6742,
      "Ġoptimistic": 6743,
      "Ġhistorical": 6744,
      "Ġrecover": 6745,
      "Ġcrucial": 6746,
      "ĠWilliam": 6747,
      "Ġincentives": 6748,
      "Ġreconst": 6749,
      "Ġuncomfort": 6750,
      "Ġencounter": 6751,
      "Ġspectacular": 6752,
      "Ġpyram": 6753,
      "ĠNobel": 6754,
      "fall": 6755,
      "hop": 6756,
      "oir": 6757,
      "Ġid": 6758,
      "Ġtears": 6759,
      "Ġcous": 6760,
      "oma": 6761,
      "tery": 6762,
      "Ġchief": 6763,
      "Ġpeer": 6764,
      "quare": 6765,
      "ĠHigh": 6766,
      "Ġupset": 6767,
      "ĠOct": 6768,
      "Ġexpans": 6769,
      "udes": 6770,
      "Ġschol": 6771,
      "Ġmeter": 6772,
      "Ġattrib": 6773,
      "Ġsket": 6774,
      "Ġcharity": 6775,
      "Ġlegacy": 6776,
      "Ġ120": 6777,
      "Ġreduction": 6778,
      "Ġfootball": 6779,
      "Ġceiling": 6780,
      "zees": 6781,
      "Ġdisappeared": 6782,
      "Ġfrozen": 6783,
      "Ġtransparent": 6784,
      "ĠHaiti": 6785,
      "Ġastronom": 6786,
      "Ġrefugees": 6787,
      "Ġintuitive": 6788,
      "Ġorchest": 6789,
      "Ġchocolate": 6790,
      "Be": 6791,
      "cence": 6792,
      "han": 6793,
      "ket": 6794,
      "zens": 6795,
      "oust": 6796,
      "Ġhire": 6797,
      "ester": 6798,
      "ĠIce": 6799,
      "ĠTurn": 6800,
      "iders": 6801,
      "uration": 6802,
      "Ġchest": 6803,
      "ĠEve": 6804,
      "Ġunp": 6805,
      "Ġimper": 6806,
      "Ġbackwards": 6807,
      "Ġsheet": 6808,
      "ĠStud": 6809,
      "Ġ195": 6810,
      "archy": 6811,
      "Ġconfident": 6812,
      "Ġdistant": 6813,
      "Ġfocusing": 6814,
      "Ġdelight": 6815,
      "Ġsilent": 6816,
      "Ġamongst": 6817,
      "Ġprinted": 6818,
      "Ġtransparency": 6819,
      "Ġinitial": 6820,
      "Ġcomplain": 6821,
      "ĠPalest": 6822,
      "Ġdolphins": 6823,
      "Ġingredients": 6824,
      "Ġspoken": 6825,
      "Ġtransplant": 6826,
      "hh": 6827,
      "ras": 6828,
      "ua": 6829,
      "Ġaqu": 6830,
      "Ġcab": 6831,
      "Ġfool": 6832,
      "arp": 6833,
      "Ġabund": 6834,
      "Ġugly": 6835,
      "Ġmold": 6836,
      "ĠBob": 6837,
      "Ġexternal": 6838,
      "Ġchosen": 6839,
      "Ġric": 6840,
      "ĠNet": 6841,
      "Ġoutput": 6842,
      "ĠHom": 6843,
      "ĠRio": 6844,
      "Ġlob": 6845,
      "Ġcontains": 6846,
      "Ġrail": 6847,
      "Ġreput": 6848,
      "Ġdrivers": 6849,
      "Ġgovernance": 6850,
      "Ġdiabetes": 6851,
      "Ġviews": 6852,
      "Ġinvesting": 6853,
      "Ġdrawn": 6854,
      "Ġdigit": 6855,
      "Ġcommunications": 6856,
      "Ġtouched": 6857,
      "Ġfuels": 6858,
      "ĠReally": 6859,
      "forward": 6860,
      "Ġdebt": 6861,
      "ĠChristian": 6862,
      "Ġaffordable": 6863,
      "going": 6864,
      "Ġannounced": 6865,
      "Ġintegrated": 6866,
      "Ġsuspect": 6867,
      "Ġgonna": 6868,
      "ĠNarrator": 6869,
      "Ġuncomfortable": 6870,
      "ding": 6871,
      "hen": 6872,
      "Ġtrop": 6873,
      "Ġtheories": 6874,
      "Ġhat": 6875,
      "Ġpink": 6876,
      "omous": 6877,
      "Ġna": 6878,
      "usions": 6879,
      "Ġbeer": 6880,
      "ione": 6881,
      "cel": 6882,
      "ĠWas": 6883,
      "ĠWall": 6884,
      "Ġdoors": 6885,
      "ĠBack": 6886,
      "ĠBudd": 6887,
      "Ġconce": 6888,
      "Ġspr": 6889,
      "Ġactors": 6890,
      "emp": 6891,
      "ĠPat": 6892,
      "Ġages": 6893,
      "Ġagencies": 6894,
      "ĠFin": 6895,
      "ĠUg": 6896,
      "Ġobl": 6897,
      "Ġgranted": 6898,
      "Ġstops": 6899,
      "Ġcontinues": 6900,
      "Ġparas": 6901,
      "Ġprogramming": 6902,
      "Ġveter": 6903,
      "Ġessence": 6904,
      "Ġinspiring": 6905,
      "Ġrainforest": 6906,
      "Ġcharacteristics": 6907,
      "Ġconflicts": 6908,
      "ĠMuslims": 6909,
      "Ġmotivation": 6910,
      "ĠScott": 6911,
      "Ġroute": 6912,
      "Ġnorthern": 6913,
      "Ġtalent": 6914,
      "Ġelder": 6915,
      "Ġchaos": 6916,
      "Ġsatisf": 6917,
      "Ġwelcome": 6918,
      "Ġanxiety": 6919,
      "American": 6920,
      "dollar": 6921,
      "BI": 6922,
      "So": 6923,
      "bra": 6924,
      "Ġtro": 6925,
      "Ġtied": 6926,
      "Ġpand": 6927,
      "omb": 6928,
      "ĠTen": 6929,
      "state": 6930,
      "Ġangle": 6931,
      "thal": 6932,
      "Ġshake": 6933,
      "Ġtech": 6934,
      "Ġspark": 6935,
      "oded": 6936,
      "ĠOx": 6937,
      "ĠPeter": 6938,
      "Ġfinds": 6939,
      "Ġletting": 6940,
      "Ġinstant": 6941,
      "Ġboom": 6942,
      "Ġlaughter": 6943,
      "Ġdefense": 6944,
      "Ġ2004": 6945,
      "Ġparaly": 6946,
      "Ġtrends": 6947,
      "Ġlegit": 6948,
      "Ġbreakthrough": 6949,
      "Ġsurviv": 6950,
      "Ġmargin": 6951,
      "Ġdiscoveries": 6952,
      "Ġdiagnosed": 6953,
      "Ġboundaries": 6954,
      "Ġrefugee": 6955,
      "Ġadvertising": 6956,
      "Ġshadow": 6957,
      "Ġdominant": 6958,
      "Ġbicycle": 6959,
      "Ġdatabase": 6960,
      "heimer": 6961,
      "Ġhelicop": 6962,
      "And": 6963,
      "aj": 6964,
      "born": 6965,
      "ober": 6966,
      "rons": 6967,
      "top": 6968,
      "war": 6969,
      "Ġx": 6970,
      "Ġwra": 6971,
      "Ġbon": 6972,
      "Ġhol": 6973,
      "Ġhanging": 6974,
      "Ġpra": 6975,
      "Ġpicking": 6976,
      "Ġlaser": 6977,
      "Ġgro": 6978,
      "Ġnit": 6979,
      "Ġnaked": 6980,
      "ctica": 6981,
      "rol": 6982,
      "ĠSing": 6983,
      "Ġstable": 6984,
      "Ġdozens": 6985,
      "Ġproof": 6986,
      "Ġorange": 6987,
      "isted": 6988,
      "osal": 6989,
      "Ġquit": 6990,
      "Ġmanif": 6991,
      "ĠGirl": 6992,
      "Ġclients": 6993,
      "Ġbubb": 6994,
      "Ġtraject": 6995,
      "uba": 6996,
      "ĠStep": 6997,
      "Ġopens": 6998,
      "Ġearn": 6999,
      "irds": 7000,
      "Ġsubtle": 7001,
      "Ġanimation": 7002,
      "Ġprobability": 7003,
      "gging": 7004,
      "Ġpassing": 7005,
      "Ġpainted": 7006,
      "Ġabsorb": 7007,
      "Ġsimplicity": 7008,
      "ietnam": 7009,
      "Ġphilanthrop": 7010,
      "Ġstruggling": 7011,
      "pox": 7012,
      "Ġdynamics": 7013,
      "Ġdemonstrate": 7014,
      "Ġdimension": 7015,
      "Ġsmooth": 7016,
      "ĠResearch": 7017,
      "ĠSmith": 7018,
      "Ġsurfaces": 7019,
      "Ġnurses": 7020,
      "ĠAntarctica": 7021,
      "Ġlungs": 7022,
      "Ġtragedy": 7023,
      "Ġearthquake": 7024,
      "Ġricher": 7025,
      "Where": 7026,
      "tical": 7027,
      "Ġmood": 7028,
      "Ġhip": 7029,
      "Ġpunch": 7030,
      "Ġder": 7031,
      "Ġdiver": 7032,
      "alian": 7033,
      "othing": 7034,
      "ĠThings": 7035,
      "sey": 7036,
      "stage": 7037,
      "Ġkiss": 7038,
      "ĠBel": 7039,
      "Ġshrim": 7040,
      "Ġneural": 7041,
      "Ġintent": 7042,
      "Ġyours": 7043,
      "Ġquad": 7044,
      "Ġchances": 7045,
      "Ġcarr": 7046,
      "Ġschem": 7047,
      "Ġrelax": 7048,
      "Ġpointed": 7049,
      "Ġintervention": 7050,
      "Ġenth": 7051,
      "Ġhighlight": 7052,
      "Ġstrip": 7053,
      "Ġserved": 7054,
      "ughters": 7055,
      "Ġexcl": 7056,
      "Ġadvoc": 7057,
      "Ġidentified": 7058,
      "Ġconsume": 7059,
      "Ġreduced": 7060,
      "Ġmechanics": 7061,
      "Ġmechanisms": 7062,
      "Ġ2011": 7063,
      "Ġimprovement": 7064,
      "Ġdependent": 7065,
      "Ġterrorist": 7066,
      "Ġterrorists": 7067,
      "Ġconsequence": 7068,
      "Ġbaseball": 7069,
      "Ġsusp": 7070,
      "Ġrepeated": 7071,
      "Ġsymmetry": 7072,
      "Ġslavery": 7073,
      "Ġneuroscience": 7074,
      "ĠJewish": 7075,
      "Ġchapter": 7076,
      "Ġsenior": 7077,
      "Ġemphas": 7078,
      "ĠOctober": 7079,
      "Can": 7080,
      "bul": 7081,
      "part": 7082,
      "zheimer": 7083,
      "Ġaer": 7084,
      "itate": 7085,
      "Ġdive": 7086,
      "Ġgh": 7087,
      "Ġwet": 7088,
      "Ġeast": 7089,
      "ĠSpan": 7090,
      "ura": 7091,
      "Ġstages": 7092,
      "lyn": 7093,
      "Ġrating": 7094,
      "Ġmail": 7095,
      "Ġsacred": 7096,
      "ĠOk": 7097,
      "Ġperpet": 7098,
      "Ġagency": 7099,
      "ĠFre": 7100,
      "Ġdish": 7101,
      "Ġroots": 7102,
      "ĠJo": 7103,
      "Ġcommod": 7104,
      "Ġemerge": 7105,
      "Ġdrill": 7106,
      "Ġstrangers": 7107,
      "Ġattitude": 7108,
      "Ġminister": 7109,
      "Ġlighting": 7110,
      "ĠVir": 7111,
      "ĠVietnam": 7112,
      "Ġfarmer": 7113,
      "Ġedges": 7114,
      "ontal": 7115,
      "Ġdisturb": 7116,
      "Ġaircraft": 7117,
      "arents": 7118,
      "ĠAlzheimer": 7119,
      "viously": 7120,
      "Ġlanded": 7121,
      "Ġobjective": 7122,
      "Ġinnovations": 7123,
      "Ġsensory": 7124,
      "Ġorigin": 7125,
      "Ġcircles": 7126,
      "Ġsuggesting": 7127,
      "Ġreports": 7128,
      "Ġneuron": 7129,
      "Ġparticipants": 7130,
      "Ġsynthetic": 7131,
      "Ġlinks": 7132,
      "Ġassumptions": 7133,
      "Ġcalculate": 7134,
      "Ġofficer": 7135,
      "Ġvictim": 7136,
      "Ġagricultural": 7137,
      "Ġreveal": 7138,
      "Ġpilot": 7139,
      "Ġridiculous": 7140,
      "ĠUganda": 7141,
      "li": 7142,
      "Ġthrew": 7143,
      "Ġthumb": 7144,
      "Ġaes": 7145,
      "Ġtheore": 7146,
      "Ġsink": 7147,
      "Ġsisters": 7148,
      "enger": 7149,
      "Ġpile": 7150,
      "Ġfib": 7151,
      "edy": 7152,
      "Ġlift": 7153,
      "Ġgases": 7154,
      "utical": 7155,
      "ĠTal": 7156,
      "ĠTell": 7157,
      "igation": 7158,
      "ĠSou": 7159,
      "Ġanthrop": 7160,
      "Ġseats": 7161,
      "ĠSov": 7162,
      "Ġjun": 7163,
      "Ġchrom": 7164,
      "ĠItaly": 7165,
      "ĠMand": 7166,
      "Ġtriang": 7167,
      "astroph": 7168,
      "ĠOcean": 7169,
      "Ġcoach": 7170,
      "ĠLar": 7171,
      "Ġunh": 7172,
      "Ġpoison": 7173,
      "Ġapple": 7174,
      "ocal": 7175,
      "Ġafterwards": 7176,
      "Ġmonit": 7177,
      "Ġlaid": 7178,
      "Ġcapability": 7179,
      "Ġadding": 7180,
      "Ġeducated": 7181,
      "ĠSea": 7182,
      "Ġmusicians": 7183,
      "Ġtreatments": 7184,
      "def": 7185,
      "Ġspeaker": 7186,
      "Ġvariation": 7187,
      "Ġpredictions": 7188,
      "Ġdegrad": 7189,
      "Ġpromote": 7190,
      "Ġflows": 7191,
      "Ġreturned": 7192,
      "Ġparticipation": 7193,
      "Ġtricks": 7194,
      "Ġsalt": 7195,
      "Ġelectronics": 7196,
      "Ġsmoking": 7197,
      "Ġglaci": 7198,
      "auc": 7199,
      "fold": 7200,
      "Ġtear": 7201,
      "Ġwid": 7202,
      "Ġsits": 7203,
      "Ġmur": 7204,
      "Ġhill": 7205,
      "Ġhier": 7206,
      "Ġtoys": 7207,
      "Ġfract": 7208,
      "esh": 7209,
      "Ġlux": 7210,
      "asy": 7211,
      "ĠThird": 7212,
      "ĠBur": 7213,
      "ĠBible": 7214,
      "Ġneat": 7215,
      "capes": 7216,
      "Ġalco": 7217,
      "unclear": 7218,
      "ĠCour": 7219,
      "ĠHel": 7220,
      "ĠWhether": 7221,
      "ardo": 7222,
      "Ġevalu": 7223,
      "aceutical": 7224,
      "Ġclim": 7225,
      "Ġhappier": 7226,
      "Ġunpre": 7227,
      "Ġdisag": 7228,
      "ĠRiver": 7229,
      "phor": 7230,
      "ĠChild": 7231,
      "Ġsimult": 7232,
      "Ġartistic": 7233,
      "Ġextrem": 7234,
      "Ġbio": 7235,
      "Ġsettle": 7236,
      "Ġelections": 7237,
      "Ġ2006": 7238,
      "Ġglad": 7239,
      "ĠArch": 7240,
      "Ġspeakers": 7241,
      "Ġincludes": 7242,
      "Ġobserv": 7243,
      "Ġoriginally": 7244,
      "Ġfacility": 7245,
      "Ġultra": 7246,
      "Ġseparated": 7247,
      "Ġreminded": 7248,
      "Ġcryst": 7249,
      "yright": 7250,
      "Ġphysicist": 7251,
      "Ġadditional": 7252,
      "Ġrarely": 7253,
      "Ġecosystems": 7254,
      "Ġinformed": 7255,
      "Ġbriefly": 7256,
      "Ġlawyer": 7257,
      "Ġchimpanzees": 7258,
      "Ġmerely": 7259,
      "Ġbiodiversity": 7260,
      "Ġlinear": 7261,
      "Ġshrimp": 7262,
      "bed": 7263,
      "bits": 7264,
      "ixt": 7265,
      "iology": 7266,
      "tw": 7267,
      "uk": 7268,
      "wl": 7269,
      "Ġwing": 7270,
      "Ġbars": 7271,
      "Ġdump": 7272,
      "Ġinherent": 7273,
      "ams": 7274,
      "cap": 7275,
      "ĠMor": 7276,
      "ĠMRI": 7277,
      "Ġactor": 7278,
      "izer": 7279,
      "ĠEastern": 7280,
      "Ġpermission": 7281,
      "Ġrealm": 7282,
      "Ġconsult": 7283,
      "Ġeleg": 7284,
      "Ġbiologists": 7285,
      "ribly": 7286,
      "Ġrobust": 7287,
      "Ġphotographer": 7288,
      "Ġrestrict": 7289,
      "Ġfunded": 7290,
      "Ġpositions": 7291,
      "mingly": 7292,
      "Ġfailing": 7293,
      "Ġgrandchildren": 7294,
      "Ġpredicted": 7295,
      "Ġpulling": 7296,
      "Ġmarry": 7297,
      "Ġcrossing": 7298,
      "fficient": 7299,
      "Ġcatastroph": 7300,
      "Ġsouthern": 7301,
      "Ġethical": 7302,
      "Ġethnic": 7303,
      "Ġsymbols": 7304,
      "Ġinjury": 7305,
      "Ġdinosaur": 7306,
      "Ġtort": 7307,
      "ĠGeneral": 7308,
      "Ġelephants": 7309,
      "Ġreefs": 7310,
      "Ġflexible": 7311,
      "iatric": 7312,
      "Ġathlet": 7313,
      "Ġbegun": 7314,
      "Ch": 7315,
      "fess": 7316,
      "free": 7317,
      "field": 7318,
      "hal": 7319,
      "makers": 7320,
      "rey": 7321,
      "Ġsle": 7322,
      "erd": 7323,
      "isphere": 7324,
      "ete": 7325,
      "Ġstores": 7326,
      "Ġmeal": 7327,
      "Ġprosec": 7328,
      "ested": 7329,
      "ĠHum": 7330,
      "ĠMac": 7331,
      "Ġexped": 7332,
      "ĠGand": 7333,
      "Ġunderlying": 7334,
      "Ġadap": 7335,
      "Ġadoles": 7336,
      "Ġblame": 7337,
      "ocin": 7338,
      "obile": 7339,
      "Ġ191": 7340,
      "aze": 7341,
      "ahar": 7342,
      "Ġregret": 7343,
      "Ġwarning": 7344,
      "When": 7345,
      "Ġadventure": 7346,
      "Ġ95": 7347,
      "Ġexperimental": 7348,
      "Ġdepressed": 7349,
      "Ġbreaks": 7350,
      "Ġposter": 7351,
      "Ġcombat": 7352,
      "Ġphotography": 7353,
      "Ġballs": 7354,
      "Ġsuggested": 7355,
      "Ġpupp": 7356,
      "ĠJohns": 7357,
      "Ġheaven": 7358,
      "Ġdetermined": 7359,
      "Ġexpanding": 7360,
      "Ġtribes": 7361,
      "ĠObviously": 7362,
      "Ġmillenn": 7363,
      "Ġfrequency": 7364,
      "ĠFlor": 7365,
      "Ġensure": 7366,
      "Ġadjust": 7367,
      "Ġconclude": 7368,
      "Ġignorance": 7369,
      "ĠEthiopia": 7370,
      "ĠRwanda": 7371,
      "ĠSouthern": 7372,
      "onds": 7373,
      "Ġthresh": 7374,
      "Ġwise": 7375,
      "reens": 7376,
      "Ġsession": 7377,
      "Ġmate": 7378,
      "onic": 7379,
      "Ġpione": 7380,
      "arity": 7381,
      "Ġnets": 7382,
      "ĠThrough": 7383,
      "ĠSur": 7384,
      "ĠSund": 7385,
      "Ġsoap": 7386,
      "Ġdecent": 7387,
      "ĠNature": 7388,
      "Ġknee": 7389,
      "inder": 7390,
      "oding": 7391,
      "Ġpartly": 7392,
      "icks": 7393,
      "ĠHey": 7394,
      "Ġflour": 7395,
      "Ġhelpful": 7396,
      "Ġinterestingly": 7397,
      "Ġholds": 7398,
      "Ġsupported": 7399,
      "Ġoperations": 7400,
      "Ġdaughters": 7401,
      "ĠWithin": 7402,
      "Ġexperiencing": 7403,
      "Ġexception": 7404,
      "Ġimmediate": 7405,
      "Ġsignificantly": 7406,
      "Ġcollaborative": 7407,
      "ĠCarol": 7408,
      "Ġalgae": 7409,
      "Ġanalyze": 7410,
      "Ġteenagers": 7411,
      "Ġshopping": 7412,
      "Ġshelter": 7413,
      "Ġlawyers": 7414,
      "ĠCambr": 7415,
      "Ġinevitable": 7416,
      "Ġpasswords": 7417,
      "Ġreputation": 7418,
      "agh": 7419,
      "fe": 7420,
      "pond": 7421,
      "encing": 7422,
      "Ġfought": 7423,
      "Ġdim": 7424,
      "Ġlon": 7425,
      "Ġnerve": 7426,
      "Ġbears": 7427,
      "ĠTime": 7428,
      "ĠSix": 7429,
      "Ġstom": 7430,
      "ĠWal": 7431,
      "Ġabilities": 7432,
      "ilize": 7433,
      "Ġrivers": 7434,
      "ĠMod": 7435,
      "izoph": 7436,
      "apor": 7437,
      "ĠRos": 7438,
      "Ġreson": 7439,
      "Ġincident": 7440,
      "Ġsmarter": 7441,
      "ĠChildren": 7442,
      "Ġowner": 7443,
      "ĠVen": 7444,
      "Ġcaps": 7445,
      "Ġaccidents": 7446,
      "Ġ2003": 7447,
      "Ġassess": 7448,
      "Ġcraft": 7449,
      "Ġradically": 7450,
      "Ġsafer": 7451,
      "Ġorigami": 7452,
      "Ġarray": 7453,
      "Ġsleeping": 7454,
      "Ġdomain": 7455,
      "Ġtranslated": 7456,
      "Ġtargets": 7457,
      "Ġburied": 7458,
      "ĠQue": 7459,
      "Ġdocuments": 7460,
      "Ġskept": 7461,
      "Ġunlikely": 7462,
      "Ġnutrition": 7463,
      "Ġextended": 7464,
      "Ġscenario": 7465,
      "Ġastonishing": 7466,
      "Ġunbelievable": 7467,
      "ĠOxford": 7468,
      "Ġchromos": 7469,
      ".]": 7470,
      "Wow": 7471,
      "clock": 7472,
      "rome": 7473,
      "tocin": 7474,
      "Ġwaters": 7475,
      "erved": 7476,
      "Ġcats": 7477,
      "Ġmall": 7478,
      "ena": 7479,
      "Ġink": 7480,
      "icious": 7481,
      "Ġbeet": 7482,
      "ĠAug": 7483,
      "ĠTy": 7484,
      "ĠSom": 7485,
      "cember": 7486,
      "ifice": 7487,
      "opy": 7488,
      "Ġneck": 7489,
      "ulum": 7490,
      "Ġvent": 7491,
      "unction": 7492,
      "ĠCont": 7493,
      "ĠMove": 7494,
      "ideo": 7495,
      "Ġspots": 7496,
      "iece": 7497,
      "Ġcomprom": 7498,
      "ĠOut": 7499,
      "Ġenforce": 7500,
      "ĠGates": 7501,
      "ĠLG": 7502,
      "ĠLong": 7503,
      "Ġincl": 7504,
      "Ġgenoc": 7505,
      "Ġbasket": 7506,
      "Ġcaring": 7507,
      "Ġentering": 7508,
      "Ġanswered": 7509,
      "Ġfiguring": 7510,
      "Ġglobalization": 7511,
      "Ġkiller": 7512,
      "Ġinvested": 7513,
      "Ġ700": 7514,
      "Ġsensor": 7515,
      "Ġsentences": 7516,
      "Ġfastest": 7517,
      "Ġvolcan": 7518,
      "Ġbrave": 7519,
      "Ġprisoners": 7520,
      "Ġthrowing": 7521,
      "Ġpanels": 7522,
      "Ġmixed": 7523,
      "Ġsatellites": 7524,
      "Ġtuna": 7525,
      "Ġhackers": 7526,
      "Ġroutine": 7527,
      "Ġwheelch": 7528,
      "Ġconstructed": 7529,
      "Ġpursue": 7530,
      "ĠDesign": 7531,
      "Ġrevenue": 7532,
      "Ġdisgust": 7533,
      "Ġmysterious": 7534,
      "Ġexpansion": 7535,
      "ĠFlorida": 7536,
      "liam": 7537,
      "rich": 7538,
      "sc": 7539,
      "west": 7540,
      "itudes": 7541,
      "ician": 7542,
      "ĠAcc": 7543,
      "iment": 7544,
      "urse": 7545,
      "ĠBF": 7546,
      "umes": 7547,
      "Ġconvert": 7548,
      "ĠNone": 7549,
      "ĠMom": 7550,
      "Ġleverage": 7551,
      "ĠGab": 7552,
      "Ġcliff": 7553,
      "ĠRome": 7554,
      "Ġacid": 7555,
      "Ġprec": 7556,
      "ĠStar": 7557,
      "Ġimagery": 7558,
      "Ġsmallpox": 7559,
      "Ġcorrel": 7560,
      "Ġconnectivity": 7561,
      "inson": 7562,
      "Ġjoint": 7563,
      "Ġshaped": 7564,
      "Ġdeliber": 7565,
      "Ġprinter": 7566,
      "Ġproposed": 7567,
      "Ġimmense": 7568,
      "Ġfemales": 7569,
      "ĠDecember": 7570,
      "Ġprimarily": 7571,
      "Ġthreats": 7572,
      "ĠPrize": 7573,
      "Ġburst": 7574,
      "Ġshocked": 7575,
      "Ġtribe": 7576,
      "atrix": 7577,
      "Ġgradually": 7578,
      "Ġfragile": 7579,
      "Ġdialogue": 7580,
      "Ġprofessionals": 7581,
      "Ġarrested": 7582,
      "Ġdictionary": 7583,
      "Ġproportion": 7584,
      "Ġshrink": 7585,
      "Ġpyramid": 7586,
      "Ġmanifest": 7587,
      "ĠVirgin": 7588,
      "DA": 7589,
      "EC": 7590,
      "yard": 7591,
      "Ġain": 7592,
      "onia": 7593,
      "Ġfiber": 7594,
      "edge": 7595,
      "Ġwhis": 7596,
      "utch": 7597,
      "Ġhey": 7598,
      "Ġsharp": 7599,
      "Ġjelly": 7600,
      "Ġchron": 7601,
      "Ġdear": 7602,
      "istically": 7603,
      "ĠMother": 7604,
      "Ġcompos": 7605,
      "ĠPut": 7606,
      "ĠDuring": 7607,
      "Ġ28": 7608,
      "eller": 7609,
      "ĠUp": 7610,
      "Ġtrail": 7611,
      "Ġinvolve": 7612,
      "ĠKB": 7613,
      "Ġschizoph": 7614,
      "Ġfounded": 7615,
      "Ġmode": 7616,
      "Ġelite": 7617,
      "Ġdefe": 7618,
      "nocent": 7619,
      "Ġmagical": 7620,
      "Ġinvestors": 7621,
      "Ġmeasures": 7622,
      "Ġ800": 7623,
      "Ġobserve": 7624,
      "Ġobservation": 7625,
      "Ġsoldier": 7626,
      "Ġvacuum": 7627,
      "Ġnucle": 7628,
      "Ġmiser": 7629,
      "Ġdisappoint": 7630,
      "Ġwidely": 7631,
      "Ġskeleton": 7632,
      "Ġenterpr": 7633,
      "Ġtransmission": 7634,
      "Ġtrucks": 7635,
      "forestation": 7636,
      "Ġcategory": 7637,
      "Ġforgotten": 7638,
      "Ġenthus": 7639,
      "Ġalcohol": 7640,
      "ĠCourt": 7641,
      "MS": 7642,
      "Talk": 7643,
      "bru": 7644,
      "iens": 7645,
      "lishing": 7646,
      "Ġsulf": 7647,
      "atts": 7648,
      "Ġboo": 7649,
      "oning": 7650,
      "arre": 7651,
      "ason": 7652,
      "ĠSar": 7653,
      "Ġstab": 7654,
      "che": 7655,
      "amine": 7656,
      "Ġwhatso": 7657,
      "Ġchips": 7658,
      "mental": 7659,
      "ache": 7660,
      "Ġcontrad": 7661,
      "Ġdeserve": 7662,
      "ĠUnt": 7663,
      "athered": 7664,
      "ĠBeij": 7665,
      "Ġimaging": 7666,
      "Ġcapabilities": 7667,
      "Ġregime": 7668,
      "Ġconfused": 7669,
      "Ġcurric": 7670,
      "Ġcurren": 7671,
      "Ġweeke": 7672,
      "Ġsuccessfully": 7673,
      "Ġexplaining": 7674,
      "Ġincluded": 7675,
      "Ġapproaches": 7676,
      "Ġversions": 7677,
      "Ġindustries": 7678,
      "Ġmedication": 7679,
      "Ġarrive": 7680,
      "Ġprimitive": 7681,
      "Ġrepresentation": 7682,
      "Ġsticks": 7683,
      "Ġsurprisingly": 7684,
      "Ġclimbing": 7685,
      "market": 7686,
      "Ġadopted": 7687,
      "Ġfrustrated": 7688,
      "Ġintrig": 7689,
      "Ġtackle": 7690,
      "ĠSpanish": 7691,
      "ĠSoviet": 7692,
      "ĠAugust": 7693,
      "Ġwhatsoever": 7694,
      "MA": 7695,
      "OK": 7696,
      "half": 7697,
      "oly": 7698,
      "rants": 7699,
      "riger": 7700,
      "worth": 7701,
      "yal": 7702,
      "Ġwired": 7703,
      "Ġwider": 7704,
      "Ġsilly": 7705,
      "err": 7706,
      "Ġcas": 7707,
      "Ġcig": 7708,
      "Ġcott": 7709,
      "Ġbats": 7710,
      "Ġtone": 7711,
      "Ġtong": 7712,
      "Ġpairs": 7713,
      "ani": 7714,
      "ann": 7715,
      "Ġinches": 7716,
      "Ġlit": 7717,
      "ownt": 7718,
      "allow": 7719,
      "ĠSer": 7720,
      "ĠSquare": 7721,
      "Ġstake": 7722,
      "Ġsew": 7723,
      "adays": 7724,
      "Ġrice": 7725,
      "Ġbutt": 7726,
      "Ġspell": 7727,
      "ortion": 7728,
      "emen": 7729,
      "mented": 7730,
      "ĠOs": 7731,
      "agos": 7732,
      "ĠGive": 7733,
      "Ġchannels": 7734,
      "athan": 7735,
      "Ġbrut": 7736,
      "Ġsimulation": 7737,
      "Ġscrew": 7738,
      "Ġsciences": 7739,
      "Ġcrew": 7740,
      "ĠVideo": 7741,
      "Ġfarming": 7742,
      "Ġforming": 7743,
      "Ġelected": 7744,
      "Ġrefriger": 7745,
      "ĠSomebody": 7746,
      "ĠBrown": 7747,
      "Ġdifficulty": 7748,
      "gency": 7749,
      "Ġsurvived": 7750,
      "Ġstrongly": 7751,
      "Ġcivic": 7752,
      "Ġcopyright": 7753,
      "Ġemerged": 7754,
      "Ġleaf": 7755,
      "Ġfraction": 7756,
      "bola": 7757,
      "Ġaffects": 7758,
      "Ġburned": 7759,
      "Ġdemonstration": 7760,
      "Ġguns": 7761,
      "Ġliberal": 7762,
      "Ġbags": 7763,
      "Ġfabulous": 7764,
      "Ġgathering": 7765,
      "Ġconsistent": 7766,
      "Ġmosquito": 7767,
      "ĠTurkey": 7768,
      "semble": 7769,
      "Ġhypothesis": 7770,
      "Ġcorrespond": 7771,
      "Ġstroke": 7772,
      "Ġpharmaceutical": 7773,
      "Ġchoosing": 7774,
      "Ġelderly": 7775,
      "liament": 7776,
      "Ġschizophren": 7777,
      "\"]": 7778,
      "ET": 7779,
      "Ġbored": 7780,
      "Ġfile": 7781,
      "icient": 7782,
      "igen": 7783,
      "ĠSal": 7784,
      "ading": 7785,
      "Ġshout": 7786,
      "Ġchairs": 7787,
      "ĠCoun": 7788,
      "ĠMoo": 7789,
      "ĠMiss": 7790,
      "Ġplug": 7791,
      "elf": 7792,
      "Ġcompelling": 7793,
      "izarre": 7794,
      "Ġenables": 7795,
      "ĠDere": 7796,
      "rained": 7797,
      "ĠJud": 7798,
      "anged": 7799,
      "Ġbrib": 7800,
      "Ġasks": 7801,
      "Ġinstantly": 7802,
      "Ġstranger": 7803,
      "Ġarticles": 7804,
      "Ġhealthier": 7805,
      "Ġregener": 7806,
      "Ġcaves": 7807,
      "ĠIsn": 7808,
      "Ġ2001": 7809,
      "ĠTEDTalk": 7810,
      "Ġtraditions": 7811,
      "Ġarchitectural": 7812,
      "Ġreactions": 7813,
      "Ġclosing": 7814,
      "Ġtranslation": 7815,
      "Ġgraphic": 7816,
      "Ġwealthy": 7817,
      "Ġauthorities": 7818,
      "Ġoxytocin": 7819,
      "Ġcovering": 7820,
      "Ġtissues": 7821,
      "Ġphysician": 7822,
      "ĠArabic": 7823,
      "Ġattractive": 7824,
      "Ġinfection": 7825,
      "ĠNorway": 7826,
      "Ġnutrients": 7827,
      "Ġinitially": 7828,
      "Ġcolonies": 7829,
      "ĠSaturn": 7830,
      "Ġmiracle": 7831,
      "Ġautonomous": 7832,
      "Ġresilience": 7833,
      "Ġbubbles": 7834,
      "kin": 7835,
      "lings": 7836,
      "parents": 7837,
      "zero": 7838,
      "enh": 7839,
      "enly": 7840,
      "Ġhitting": 7841,
      "esthes": 7842,
      "Ġdies": 7843,
      "Ġduck": 7844,
      "Ġdrought": 7845,
      "ora": 7846,
      "Ġinnocent": 7847,
      "eday": 7848,
      "Ġgee": 7849,
      "Ġnurse": 7850,
      "ĠTim": 7851,
      "Ġrecept": 7852,
      "str": 7853,
      "road": 7854,
      "ĠWow": 7855,
      "opard": 7856,
      "Ġconvey": 7857,
      "ĠNic": 7858,
      "Ġplain": 7859,
      "ela": 7860,
      "ague": 7861,
      "ĠDen": 7862,
      "ĠDet": 7863,
      "ĠLou": 7864,
      "Ġuncle": 7865,
      "Ġdism": 7866,
      "Ġloan": 7867,
      "Ġdescription": 7868,
      "Ġwriters": 7869,
      "Ġlake": 7870,
      "play": 7871,
      "Ġformal": 7872,
      "Ġgrat": 7873,
      "Ġprotest": 7874,
      "otted": 7875,
      "Ġexcit": 7876,
      "Ġselfish": 7877,
      "Ġstructural": 7878,
      "Ġ85": 7879,
      "Ġdiscrim": 7880,
      "Ġkeyboard": 7881,
      "Ġreducing": 7882,
      "Ġfootage": 7883,
      "Ġcompetitive": 7884,
      "Ġsuffered": 7885,
      "Ġtracks": 7886,
      "Ġbarrel": 7887,
      "Ġaccounts": 7888,
      "Ġjumped": 7889,
      "Ġpanel": 7890,
      "Ġbroadcast": 7891,
      "Ġprepare": 7892,
      "Ġpige": 7893,
      "Ġqualities": 7894,
      "Ġdolphin": 7895,
      "Ġperceived": 7896,
      "ĠGreek": 7897,
      "ĠFebru": 7898,
      "Ġinstructions": 7899,
      "embered": 7900,
      "Ġstereoty": 7901,
      "Ġparalyzed": 7902,
      "Ġtrajectory": 7903,
      "Ġthreshold": 7904,
      "ĠCambridge": 7905,
      "Ġwheelchair": 7906,
      "ĠFebruary": 7907,
      "lar": 7908,
      "mod": 7909,
      "maker": 7910,
      "va": 7911,
      "ville": 7912,
      "inarily": 7913,
      "Ġcert": 7914,
      "Ġbizarre": 7915,
      "Ġpale": 7916,
      "Ġlamp": 7917,
      "omin": 7918,
      "usiness": 7919,
      "ĠTel": 7920,
      "ĠTitan": 7921,
      "stone": 7922,
      "changing": 7923,
      "illa": 7924,
      "Ġcong": 7925,
      "quarters": 7926,
      "ĠHen": 7927,
      "ĠMarch": 7928,
      "ĠMah": 7929,
      "Ġspray": 7930,
      "Ġupd": 7931,
      "Ġsuck": 7932,
      "ĠEbola": 7933,
      "Ġexport": 7934,
      "ĠLED": 7935,
      "Ġagent": 7936,
      "Ġunable": 7937,
      "Ġpride": 7938,
      "Ġending": 7939,
      "conf": 7940,
      "Ġserving": 7941,
      "Ġmetric": 7942,
      "cedented": 7943,
      "Ġstunt": 7944,
      "ĠAsian": 7945,
      "Ġdemands": 7946,
      "Ġsocially": 7947,
      "Ġvalid": 7948,
      "ĠOrgan": 7949,
      "ĠBrun": 7950,
      "Ġaudio": 7951,
      "Ġsupporting": 7952,
      "Ġimproving": 7953,
      "Ġimproved": 7954,
      "Ġtempt": 7955,
      "Ġsquee": 7956,
      "Ġdrawings": 7957,
      "engine": 7958,
      "Ġperiods": 7959,
      "ĠWithout": 7960,
      "Ġimmig": 7961,
      "Ġtendency": 7962,
      "Ġ2012": 7963,
      "Ġmethane": 7964,
      "Ġoptimism": 7965,
      "ĠBlue": 7966,
      "Ġinterviewed": 7967,
      "Ġjournalists": 7968,
      "Ġfortune": 7969,
      "ĠRussian": 7970,
      "Ġtumors": 7971,
      "Ġintuition": 7972,
      "Ġneurolog": 7973,
      "Ġgods": 7974,
      "Ġminimum": 7975,
      "Ġfortunate": 7976,
      "Ġnavigate": 7977,
      "ĠJesus": 7978,
      "fessor": 7979,
      "Ġcurriculum": 7980,
      "Ġexcitement": 7981,
      "LA": 7982,
      "ais": 7983,
      "kind": 7984,
      "viol": 7985,
      "ati": 7986,
      "Ġcable": 7987,
      "itating": 7988,
      "Ġdumb": 7989,
      "Ġgaps": 7990,
      "ĠTes": 7991,
      "Ġham": 7992,
      "ctu": 7993,
      "ĠSir": 7994,
      "ĠScient": 7995,
      "Ġwashing": 7996,
      "Ġanten": 7997,
      "Ġub": 7998,
      "aded": 7999,
      "Ġcham": 8000,
      "atever": 8001,
      "Ġalph": 8002,
      "Ġintim": 8003,
      "ĠMag": 8004,
      "Ġupside": 8005,
      "agen": 8006,
      "Ġclothing": 8007,
      "Ġbug": 8008,
      "ĠJon": 8009,
      "Ġincor": 8010,
      "Ġfactories": 8011,
      "angible": 8012,
      "ords": 8013,
      "Ġgenetically": 8014,
      "ĠChile": 8015,
      "Ġremained": 8016,
      "Ġremembered": 8017,
      "Ġowned": 8018,
      "Ġscores": 8019,
      "Ġ36": 8020,
      "ostic": 8021,
      "Ġextinction": 8022,
      "Ġmining": 8023,
      "Ġhomework": 8024,
      "Ġassets": 8025,
      "Ġkills": 8026,
      "ĠArctic": 8027,
      "ĠShould": 8028,
      "Ġdeli": 8029,
      "Ġstaying": 8030,
      "Ġexpectancy": 8031,
      "Ġprediction": 8032,
      "ĠComp": 8033,
      "puter": 8034,
      "Ġthreatened": 8035,
      "Ġdetailed": 8036,
      "Ġfraud": 8037,
      "ĠGovern": 8038,
      "Ġjudgment": 8039,
      "Ġapplying": 8040,
      "Ġprofoundly": 8041,
      "Ġmicrobial": 8042,
      "Ġhomeless": 8043,
      "ĠNorthern": 8044,
      "Ġparadox": 8045,
      "Ġunconscious": 8046,
      "Ġexpertise": 8047,
      "Ġgarage": 8048,
      "Ġgarbage": 8049,
      "Ġodds": 8050,
      "Ġticket": 8051,
      "Ġrenewable": 8052,
      "Ġreplicate": 8053,
      "Ġexponential": 8054,
      "Ġconservative": 8055,
      "employ": 8056,
      "Ġunprecedented": 8057,
      "Ġsimultaneously": 8058,
      "He": 8059,
      "kins": 8060,
      "mo": 8061,
      "sp": 8062,
      "sun": 8063,
      "working": 8064,
      "xual": 8065,
      "Ġcub": 8066,
      "itous": 8067,
      "Ġbinary": 8068,
      "Ġrehab": 8069,
      "urable": 8070,
      "Ġanonymous": 8071,
      "Ġsole": 8072,
      "Ġshots": 8073,
      "Ġships": 8074,
      "oli": 8075,
      "Ġtends": 8076,
      "Ġintended": 8077,
      "ĠCr": 8078,
      "andering": 8079,
      "ares": 8080,
      "ĠPower": 8081,
      "ĠGore": 8082,
      "ĠFBI": 8083,
      "Ġclay": 8084,
      "Ġbucks": 8085,
      "Ġdisability": 8086,
      "Ġgotta": 8087,
      "Ġphos": 8088,
      "ails": 8089,
      "Ġcompleted": 8090,
      "pled": 8091,
      "Ġopenness": 8092,
      "Ġreasonable": 8093,
      "Ġdistingu": 8094,
      "Ġrestore": 8095,
      "Ġbeautifully": 8096,
      "Ġfears": 8097,
      "Ġphotographed": 8098,
      "Ġwinning": 8099,
      "Ġbeneath": 8100,
      "Ġfacilities": 8101,
      "Ġcompete": 8102,
      "airo": 8103,
      "ĠSecondly": 8104,
      "Ġcollectively": 8105,
      "Ġirre": 8106,
      "Ġgentleman": 8107,
      "Ġgolden": 8108,
      "Ġremaining": 8109,
      "Ġsubstance": 8110,
      "Ġcorporations": 8111,
      "Ġinstitutional": 8112,
      "Ġpedest": 8113,
      "Ġestablished": 8114,
      "Ġbesides": 8115,
      "ĠSilicon": 8116,
      "Ġneutral": 8117,
      "Ġprosperity": 8118,
      "Ġpandemic": 8119,
      "100": 8120,
      "CA": 8121,
      "].": 8122,
      "away": 8123,
      "bar": 8124,
      "des": 8125,
      "lades": 8126,
      "Ġwedd": 8127,
      "Ġsin": 8128,
      "Ġhors": 8129,
      "Ġtooth": 8130,
      "aning": 8131,
      "Ġdownt": 8132,
      "Ġnative": 8133,
      "Ġbeating": 8134,
      "uty": 8135,
      "ĠAB": 8136,
      "see": 8137,
      "chool": 8138,
      "ĠBet": 8139,
      "Ġrh": 8140,
      "Ġorph": 8141,
      "umble": 8142,
      "Ġouter": 8143,
      "Ġtriv": 8144,
      "Ġtrash": 8145,
      "Ġsail": 8146,
      "active": 8147,
      "iban": 8148,
      "interest": 8149,
      "Ġrealizing": 8150,
      "irect": 8151,
      "heart": 8152,
      "arsh": 8153,
      "anges": 8154,
      "Ġtragic": 8155,
      "Ġcourses": 8156,
      "obs": 8157,
      "Ġcomputation": 8158,
      "Ġheaded": 8159,
      "Ġcake": 8160,
      "Ġpreserve": 8161,
      "Ġprofits": 8162,
      "Ġmembr": 8163,
      "Ġchallenged": 8164,
      "Ġlabs": 8165,
      "Who": 8166,
      "Ġcheese": 8167,
      "Ġsecrets": 8168,
      "iences": 8169,
      "Ġfriendly": 8170,
      "Ġresponses": 8171,
      "Ġharness": 8172,
      "Ġsteal": 8173,
      "Ġpeaceful": 8174,
      "Ġpurposes": 8175,
      "Ġdiagnosis": 8176,
      "ĠPlay": 8177,
      "Ġclaims": 8178,
      "ĠBanglades": 8179,
      "Ġaggreg": 8180,
      "Ġcontemporary": 8181,
      "Ġmathematicians": 8182,
      "Ġownership": 8183,
      "Ġstriking": 8184,
      "Ġhemisphere": 8185,
      "Ġgenocide": 8186,
      "ĠBeijing": 8187,
      "Ġdelivery": 8188,
      "cation": 8189,
      "fast": 8190,
      "ini": 8191,
      "Ġbold": 8192,
      "Ġhired": 8193,
      "Ġdating": 8194,
      "oral": 8195,
      "Ġinn": 8196,
      "Ġinhab": 8197,
      "eda": 8198,
      "eds": 8199,
      "Ġlone": 8200,
      "Ġgam": 8201,
      "Ġgate": 8202,
      "Ġnurt": 8203,
      "Ġislands": 8204,
      "ifer": 8205,
      "opath": 8206,
      "ĠBoth": 8207,
      "Ġrats": 8208,
      "Ġorient": 8209,
      "ĠMake": 8210,
      "Ġspont": 8211,
      "Ġengin": 8212,
      "Ġpercept": 8213,
      "udi": 8214,
      "ĠFar": 8215,
      "ĠRB": 8216,
      "Ġarmed": 8217,
      "ĠJoe": 8218,
      "cost": 8219,
      "otherap": 8220,
      "ĠUnder": 8221,
      "Ġprecious": 8222,
      "Ġoffices": 8223,
      "neys": 8224,
      "rowing": 8225,
      "Ġhumanitarian": 8226,
      "Ġpersist": 8227,
      "ĠChurch": 8228,
      "Ġstrike": 8229,
      "Ġextension": 8230,
      "Ġsett": 8231,
      "Ġbadly": 8232,
      "Ġcamps": 8233,
      "Ġcharges": 8234,
      "ĠAlthough": 8235,
      "Ġlistened": 8236,
      "Ġexplains": 8237,
      "Ġoccurs": 8238,
      "Ġapproaching": 8239,
      "Ġexpecting": 8240,
      "ĠDevelop": 8241,
      "Ġinfluenced": 8242,
      "Ġportion": 8243,
      "Ġachievement": 8244,
      "Ġwildlife": 8245,
      "Ġrolling": 8246,
      "Ġsoup": 8247,
      "Ġannual": 8248,
      "Ġparks": 8249,
      "Ġglasses": 8250,
      "Ġphysicists": 8251,
      "Ġbeaten": 8252,
      "Ġskelet": 8253,
      "Ġsubstant": 8254,
      "Ġtelescopes": 8255,
      "Ġconducted": 8256,
      "Ġperceive": 8257,
      "Ġnegoti": 8258,
      "Ġencouraged": 8259,
      "ĠMinister": 8260,
      "Ġcomparison": 8261,
      "Ġcolumn": 8262,
      "Ġuncertainty": 8263,
      "Ġluxury": 8264,
      "aharan": 8265,
      "ĠMoore": 8266,
      "ĠDerek": 8267,
      "Ġengines": 8268,
      "Saharan": 8269,
      "aa": 8270,
      "bling": 8271,
      "cro": 8272,
      "four": 8273,
      "gal": 8274,
      "gence": 8275,
      "human": 8276,
      "made": 8277,
      "ye": 8278,
      "inter": 8279,
      "Ġmurd": 8280,
      "Ġpound": 8281,
      "Ġfancy": 8282,
      "lla": 8283,
      "Ġlap": 8284,
      "erer": 8285,
      "Ġshore": 8286,
      "ilty": 8287,
      "Ġven": 8288,
      "ĠCra": 8289,
      "Ġspons": 8290,
      "Ġworkforce": 8291,
      "asty": 8292,
      "arest": 8293,
      "Ġmanager": 8294,
      "Ġclient": 8295,
      "Ġuniform": 8296,
      "ĠJuly": 8297,
      "Ġgenetics": 8298,
      "Ġ33": 8299,
      "Ġ2050": 8300,
      "Ġhardest": 8301,
      "Ġinfl": 8302,
      "Ġfoods": 8303,
      "Ġdemographic": 8304,
      "Ġeducate": 8305,
      "Ġlocated": 8306,
      "Ġmorality": 8307,
      "Ġcontinuous": 8308,
      "Ġterrifying": 8309,
      "Ġbottles": 8310,
      "Ġfailures": 8311,
      "apped": 8312,
      "Ġnearby": 8313,
      "Ġspreads": 8314,
      "Ġsilver": 8315,
      "Ġarrange": 8316,
      "Ġlifes": 8317,
      "Ġsafely": 8318,
      "Ġactivist": 8319,
      "Ġmindset": 8320,
      "Ġmagnitude": 8321,
      "ĠSpain": 8322,
      "Ġdetection": 8323,
      "ĠIslands": 8324,
      "Ġtunnel": 8325,
      "Ġvulnerability": 8326,
      "Ġurge": 8327,
      "Ġconcentration": 8328,
      "ĠTrans": 8329,
      "Ġagreement": 8330,
      "Ġnewspapers": 8331,
      "Ġcosmic": 8332,
      "Ġcategories": 8333,
      "Ġaggressive": 8334,
      "minute": 8335,
      "Ġanalogy": 8336,
      "burgh": 8337,
      "ĠBrook": 8338,
      "Ġhunting": 8339,
      "Ġmakers": 8340,
      "Ġtrigger": 8341,
      "Ġitems": 8342,
      "Ġexplosion": 8343,
      "Ġhelicopter": 8344,
      "ĠSunday": 8345,
      "Ġcigaret": 8346,
      "BM": 8347,
      "],": 8348,
      "bow": 8349,
      "cons": 8350,
      "efficient": 8351,
      "gu": 8352,
      "kward": 8353,
      "long": 8354,
      "Ġtut": 8355,
      "Ġtsun": 8356,
      "Ġwest": 8357,
      "itated": 8358,
      "Ġbind": 8359,
      "Ġmatrix": 8360,
      "Ġhiding": 8361,
      "Ġdressed": 8362,
      "Ġgathered": 8363,
      "Ġbell": 8364,
      "ĠAp": 8365,
      "ĠSame": 8366,
      "ĠSanta": 8367,
      "ĠWalk": 8368,
      "ĠBell": 8369,
      "ĠBron": 8370,
      "outs": 8371,
      "Ġmelt": 8372,
      "Ġproved": 8373,
      "Ġsomeday": 8374,
      "Ġdeforestation": 8375,
      "ĠItalian": 8376,
      "ĠExt": 8377,
      "ĠEconom": 8378,
      "aby": 8379,
      "agon": 8380,
      "ĠDra": 8381,
      "ĠLib": 8382,
      "ĠFore": 8383,
      "Ġunemploy": 8384,
      "Ġ29": 8385,
      "Ġimpressive": 8386,
      "Ġloans": 8387,
      "Ġloves": 8388,
      "Ġacoust": 8389,
      "Ġpref": 8390,
      "Ġgenu": 8391,
      "Ġbrid": 8392,
      "perform": 8393,
      "Ġguard": 8394,
      "ĠBeing": 8395,
      "Ġbelieves": 8396,
      "Ġcrimes": 8397,
      "Ġterribly": 8398,
      "Ġaddict": 8399,
      "Ġconnects": 8400,
      "Ġpassenger": 8401,
      "Ġprofile": 8402,
      "Ġmusician": 8403,
      "Ġnonprofit": 8404,
      "Ġtemporary": 8405,
      "ĠZeal": 8406,
      "Ġcampus": 8407,
      "Ġpropose": 8408,
      "Ġawkward": 8409,
      "Ġfluores": 8410,
      "Ġmobility": 8411,
      "ĠLeon": 8412,
      "Ġdamn": 8413,
      "Ġignored": 8414,
      "Ġpigs": 8415,
      "Ġhistoric": 8416,
      "Ġairplanes": 8417,
      "Ġrestaurants": 8418,
      "Ġvolunteer": 8419,
      "Ġinsights": 8420,
      "Ġrubber": 8421,
      "Ġassistance": 8422,
      "Ġhorizon": 8423,
      "Ġdiscipline": 8424,
      "Ġmetabol": 8425,
      "Ġobstacles": 8426,
      "Ġsacrifice": 8427,
      "Ġscholars": 8428,
      "ĠTaliban": 8429,
      "Ġenforcement": 8430,
      "ĠUntil": 8431,
      "Ġtongue": 8432,
      "aves": 8433,
      "iogen": 8434,
      "lan": 8435,
      "rian": 8436,
      "rats": 8437,
      "uke": 8438,
      "wind": 8439,
      "yan": 8440,
      "Ġtune": 8441,
      "atar": 8442,
      "Ġmild": 8443,
      "Ġdile": 8444,
      "oran": 8445,
      "orious": 8446,
      "Ġgear": 8447,
      "icial": 8448,
      "Ġnom": 8449,
      "Ġnerd": 8450,
      "Ġbend": 8451,
      "utan": 8452,
      "ĠSorry": 8453,
      "oos": 8454,
      "ĠBh": 8455,
      "ĠBo": 8456,
      "Ġcomet": 8457,
      "Ġexcess": 8458,
      "Ġmapping": 8459,
      "Ġbutter": 8460,
      "Ġalign": 8461,
      "ĠCD": 8462,
      "ĠCamp": 8463,
      "ĠHall": 8464,
      "ĠHill": 8465,
      "ĠMT": 8466,
      "Ġupload": 8467,
      "Ġenerg": 8468,
      "ĠEric": 8469,
      "Ġleather": 8470,
      "Ġmanner": 8471,
      "asses": 8472,
      "Ġloving": 8473,
      "ĠJose": 8474,
      "ĠUs": 8475,
      "Ġrac": 8476,
      "Ġtraits": 8477,
      "rence": 8478,
      "Ġscreens": 8479,
      "Ġreliable": 8480,
      "Ġpatents": 8481,
      "otechnology": 8482,
      "Ġgenerous": 8483,
      "Ġsubway": 8484,
      "Ġwoke": 8485,
      "Ġresearcher": 8486,
      "Ġcontinuing": 8487,
      "Ġnights": 8488,
      "Ġclassrooms": 8489,
      "Ġredesign": 8490,
      "Ġgrandparents": 8491,
      "Ġstepped": 8492,
      "Ġfunds": 8493,
      "Ġestate": 8494,
      "Ġclosest": 8495,
      "Ġdiscovering": 8496,
      "Ġstrategic": 8497,
      "Ġassumption": 8498,
      "Ġconcerns": 8499,
      "Ġburden": 8500,
      "Ġstraightforward": 8501,
      "Ġcartoons": 8502,
      "Ġcustomer": 8503,
      "ĠCharl": 8504,
      "Ġlimitations": 8505,
      "Ġaccomplish": 8506,
      "Ġbranch": 8507,
      "Ġbathroom": 8508,
      "ĠAlexander": 8509,
      "itzer": 8510,
      "Ġconstraints": 8511,
      "looking": 8512,
      "Ġlegislation": 8513,
      "Ġoccasionally": 8514,
      "ĠNGOs": 8515,
      "ĠPalestin": 8516,
      "Ġgenuine": 8517,
      "ĠZealand": 8518,
      "gram": 8519,
      "rial": 8520,
      "zee": 8521,
      "Ġtie": 8522,
      "inth": 8523,
      "Ġwrap": 8524,
      "itage": 8525,
      "Ġhal": 8526,
      "Ġpatch": 8527,
      "Ġfits": 8528,
      "Ġfires": 8529,
      "ania": 8530,
      "Ġdys": 8531,
      "Ġinher": 8532,
      "ĠId": 8533,
      "Ġles": 8534,
      "Ġlions": 8535,
      "ĠAut": 8536,
      "ĠTanz": 8537,
      "Ġrethink": 8538,
      "imal": 8539,
      "roach": 8540,
      "Ġstair": 8541,
      "iful": 8542,
      "Ġcomments": 8543,
      "Ġshipping": 8544,
      "Ġchains": 8545,
      "ĠNorm": 8546,
      "quis": 8547,
      "ĠHol": 8548,
      "ĠMach": 8549,
      "ĠMike": 8550,
      "Ġyourselves": 8551,
      "ĠEs": 8552,
      "ĠEdu": 8553,
      "Ġcoca": 8554,
      "ĠLin": 8555,
      "Ġprisons": 8556,
      "Ġpockets": 8557,
      "ensus": 8558,
      "ĠJosh": 8559,
      "Ġamate": 8560,
      "icked": 8561,
      "Ġincar": 8562,
      "Ġincom": 8563,
      "Ġcounting": 8564,
      "angered": 8565,
      "weight": 8566,
      "ĠKev": 8567,
      "Ġpointing": 8568,
      "Ġgrav": 8569,
      "Ġinterven": 8570,
      "Ġentry": 8571,
      "Ġplanes": 8572,
      "Ġdrone": 8573,
      "Ġdrones": 8574,
      "ĠVer": 8575,
      "Ġsupplies": 8576,
      "ĠIndians": 8577,
      "eady": 8578,
      "arrhe": 8579,
      "ashed": 8580,
      "Ġparach": 8581,
      "Ġwinds": 8582,
      "ĠArgent": 8583,
      "Ġopera": 8584,
      "elson": 8585,
      "Ġspecialized": 8586,
      "Ġflowing": 8587,
      "bye": 8588,
      "Ġpropag": 8589,
      "Ġfault": 8590,
      "Ġactivists": 8591,
      "Ġgraphics": 8592,
      "Ġexha": 8593,
      "yrus": 8594,
      "Ġgraduated": 8595,
      "Ġhonestly": 8596,
      "Ġsuspe": 8597,
      "Ġscanner": 8598,
      "Ġhalluc": 8599,
      "Ġingen": 8600,
      "Ġteenager": 8601,
      "Ġsucceeded": 8602,
      "Ġratio": 8603,
      "break": 8604,
      "ĠLadies": 8605,
      "Ġinevit": 8606,
      "Ġobserved": 8607,
      "Ġrecipe": 8608,
      "Ġqueen": 8609,
      "Ġdesperately": 8610,
      "Ġsubsid": 8611,
      "Ġstretch": 8612,
      "Ġglamorous": 8613,
      "Ġexcellent": 8614,
      "Ġreconstruct": 8615,
      "Ġmurder": 8616,
      "Ġubiqu": 8617,
      "Ġdowntown": 8618,
      "otherapy": 8619,
      "Ġdilem": 8620,
      "All": 8621,
      "fly": 8622,
      "fram": 8623,
      "ga": 8624,
      "gi": 8625,
      "mony": 8626,
      "Ġtatt": 8627,
      "itative": 8628,
      "Ġbure": 8629,
      "Ġblo": 8630,
      "Ġdung": 8631,
      "orage": 8632,
      "ĠAK": 8633,
      "Ġongoing": 8634,
      "ĠSure": 8635,
      "Ġstatic": 8636,
      "Ġstability": 8637,
      "chron": 8638,
      "ifty": 8639,
      "Ġdop": 8640,
      "oples": 8641,
      "Ġcanopy": 8642,
      "ĠSocial": 8643,
      "Ġheal": 8644,
      "Ġpeoples": 8645,
      "Ġvoting": 8646,
      "ĠMet": 8647,
      "ĠMoon": 8648,
      "ogram": 8649,
      "ĠWhatever": 8650,
      "ĠEight": 8651,
      "Ġmanual": 8652,
      "Ġmanagers": 8653,
      "ĠRay": 8654,
      "ellig": 8655,
      "Ġrose": 8656,
      "Ġcontrary": 8657,
      "Ġphant": 8658,
      "Ġresidents": 8659,
      "Ġsynd": 8660,
      "Ġambit": 8661,
      "Ġpreval": 8662,
      "Ġoffering": 8663,
      "Ġblah": 8664,
      "Ġbuilds": 8665,
      "Ġindigen": 8666,
      "Ġinsane": 8667,
      "Ġtranscend": 8668,
      "Ġnumer": 8669,
      "Ġdrown": 8670,
      "Ġdistances": 8671,
      "Ġproto": 8672,
      "Ġcontinents": 8673,
      "ĠAlmost": 8674,
      "Ġclassical": 8675,
      "Ġlanding": 8676,
      "Ġtrains": 8677,
      "ropy": 8678,
      "ĠArmy": 8679,
      "Ġspeaks": 8680,
      "Ġlowest": 8681,
      "Ġdawn": 8682,
      "Ġrobotics": 8683,
      "Ġencry": 8684,
      "Ġcircuits": 8685,
      "Ġerrors": 8686,
      "Ġcompassionate": 8687,
      "ĠWhereas": 8688,
      "Ġpause": 8689,
      "Ġearliest": 8690,
      "Ġtemperatures": 8691,
      "Ġmagnific": 8692,
      "Ġaffecting": 8693,
      "Ġlandscapes": 8694,
      "Ġreminds": 8695,
      "Ġdespair": 8696,
      "Ġorders": 8697,
      "Ġphilosopher": 8698,
      "ĠTechnology": 8699,
      "Ġpreviously": 8700,
      "Ġpoems": 8701,
      "Ġpursuit": 8702,
      "Ġkingdom": 8703,
      "Ġbullet": 8704,
      "Ġstimul": 8705,
      "Ġexecut": 8706,
      ".'\"": 8707,
      "Ġfortunately": 8708,
      "Ġhormone": 8709,
      "Ġinterpretation": 8710,
      "Ġadministration": 8711,
      "Ġacknowledge": 8712,
      "Ġstorytelling": 8713,
      "Ġprocedure": 8714,
      "ĠOpen": 8715,
      "Ġcabin": 8716,
      "ĠHomo": 8717,
      "Ġcurrency": 8718,
      "Ġcotton": 8719,
      "ĠCouncil": 8720,
      "ĠBronx": 8721,
      "Ġindigenous": 8722,
      "hot": 8723,
      "lers": 8724,
      "press": 8725,
      "Ġturb": 8726,
      "Ġtubes": 8727,
      "Ġaunt": 8728,
      "rection": 8729,
      "Ġcath": 8730,
      "ona": 8731,
      "Ġfate": 8732,
      "ĠAge": 8733,
      "enter": 8734,
      "ĠSS": 8735,
      "ĠSud": 8736,
      "Ġstorage": 8737,
      "ilized": 8738,
      "Ġjew": 8739,
      "Ġproven": 8740,
      "umin": 8741,
      "ĠNelson": 8742,
      "Ġmand": 8743,
      "Ġvia": 8744,
      "astics": 8745,
      "Ġcompound": 8746,
      "ghai": 8747,
      "Ġexposure": 8748,
      "ĠDutch": 8749,
      "ĠLT": 8750,
      "ĠFord": 8751,
      "elled": 8752,
      "Ġrape": 8753,
      "Ġinterconnected": 8754,
      "Ġcrick": 8755,
      "ĠHoward": 8756,
      "Ġsubt": 8757,
      "Ġinfant": 8758,
      "Ġpassive": 8759,
      "Ġdistract": 8760,
      "ĠNewton": 8761,
      "Ġ2002": 8762,
      "Ġlocations": 8763,
      "ĠBrian": 8764,
      "ĠYorker": 8765,
      "ĠShan": 8766,
      "Ġperformed": 8767,
      "ĠTwenty": 8768,
      "Ġeaten": 8769,
      "Ġsufficient": 8770,
      "Ġimmun": 8771,
      "Ġprincip": 8772,
      "Ġclinics": 8773,
      "Ġappearance": 8774,
      "Ġenjo": 8775,
      "Ġpackage": 8776,
      "ĠExcept": 8777,
      "Ġsurrounding": 8778,
      "Ġphysicians": 8779,
      "Ġmotivated": 8780,
      "iberia": 8781,
      "Ġblogs": 8782,
      "Ġcruel": 8783,
      "ĠiPod": 8784,
      "Ġfrog": 8785,
      "Ġincentive": 8786,
      "Ġillustrate": 8787,
      "Ġreinvent": 8788,
      "Ġreproduce": 8789,
      "Ġtower": 8790,
      "Ġencouraging": 8791,
      "Ġchimpanzee": 8792,
      "Ġcluster": 8793,
      "Ġrituals": 8794,
      "ĠSaudi": 8795,
      "Ġdecrease": 8796,
      "Ġguarantee": 8797,
      "ĠJohnson": 8798,
      "Ġstomach": 8799,
      "ĠHenry": 8800,
      "Ġambitious": 8801,
      "rint": 8802,
      "inery": 8803,
      "Ġwires": 8804,
      "Ġcrop": 8805,
      "Ġpiz": 8806,
      "Ġdiving": 8807,
      "ĠIM": 8808,
      "ĠIre": 8809,
      "arl": 8810,
      "asm": 8811,
      "lend": 8812,
      "uther": 8813,
      "Ġrecess": 8814,
      "Ġredef": 8815,
      "Ġhabits": 8816,
      "ĠSystem": 8817,
      "Ġshit": 8818,
      "Ġneoc": 8819,
      "ules": 8820,
      "Ġjet": 8821,
      "Ġvit": 8822,
      "ĠCath": 8823,
      "ĠHello": 8824,
      "cip": 8825,
      "Ġsauce": 8826,
      "Ġcompre": 8827,
      "ĠEmp": 8828,
      "Ġcoinc": 8829,
      "Ġagents": 8830,
      "ĠFort": 8831,
      "ĠFey": 8832,
      "Ġovernight": 8833,
      "Ġimpression": 8834,
      "Ġcommission": 8835,
      "fulness": 8836,
      "Ġappla": 8837,
      "Ġguilty": 8838,
      "ava": 8839,
      "Ġendangered": 8840,
      "Ġgram": 8841,
      "ĠStr": 8842,
      "Ġboats": 8843,
      "Ġrecall": 8844,
      "Ġcared": 8845,
      "Ġreaders": 8846,
      "Ġeconomist": 8847,
      "Ġski": 8848,
      "ĠIndones": 8849,
      "Ġwarr": 8850,
      "Ġsignature": 8851,
      "Ġsixth": 8852,
      "Ġmarketplace": 8853,
      "ĠFriday": 8854,
      "ushed": 8855,
      "Ġabsence": 8856,
      "Ġterritory": 8857,
      "aneous": 8858,
      "Ġaudiences": 8859,
      "Ġpsychologists": 8860,
      "Ġapproached": 8861,
      "Ġpersonalized": 8862,
      "Ġcycles": 8863,
      "Ġdestiny": 8864,
      "Ġpromised": 8865,
      "ĠCompan": 8866,
      "Ġreceiving": 8867,
      "Ġlogical": 8868,
      "Ġecological": 8869,
      "Ġphenomena": 8870,
      "Ġcatching": 8871,
      "Ġpreparing": 8872,
      "Ġnuts": 8873,
      "Ġalternatives": 8874,
      "Ġaltru": 8875,
      "Ġtransmit": 8876,
      "Ġepidem": 8877,
      "Ġflags": 8878,
      "grade": 8879,
      "Ġelementary": 8880,
      "Ġmanipulate": 8881,
      "Ġshifting": 8882,
      "controll": 8883,
      "Ġbranches": 8884,
      "Ġestimates": 8885,
      "standing": 8886,
      "ĠCounty": 8887,
      "Ġportrait": 8888,
      "Ġtrauma": 8889,
      "Ġgeometry": 8890,
      "ĠDelhi": 8891,
      "Ġmonitoring": 8892,
      "Ġmiserable": 8893,
      "esthesia": 8894,
      "ĠBangladesh": 8895,
      "SP": 8896,
      "col": 8897,
      "ege": 8898,
      "law": 8899,
      "produ": 8900,
      "rance": 8901,
      "sized": 8902,
      "tain": 8903,
      "vir": 8904,
      "Ġ.": 8905,
      "Ġtur": 8906,
      "inent": 8907,
      "inem": 8908,
      "Ġbin": 8909,
      "inger": 8910,
      "Ġhub": 8911,
      "esters": 8912,
      "arians": 8913,
      "uts": 8914,
      "ĠSudd": 8915,
      "ĠWatch": 8916,
      "Ġange": 8917,
      "Ġanno": 8918,
      "ĠBi": 8919,
      "Ġshirt": 8920,
      "Ġdeck": 8921,
      "isten": 8922,
      "Ġventure": 8923,
      "ĠMill": 8924,
      "ĠMel": 8925,
      "Ġseeking": 8926,
      "Ġseemingly": 8927,
      "ieve": 8928,
      "izers": 8929,
      "Ġenabled": 8930,
      "Ġexplicit": 8931,
      "ĠDad": 8932,
      "ĠGene": 8933,
      "Ġclue": 8934,
      "ipts": 8935,
      "Ġoverl": 8936,
      "ĠRand": 8937,
      "enses": 8938,
      "Ġampl": 8939,
      "phony": 8940,
      "Ġoffers": 8941,
      "Ġmayor": 8942,
      "Ġtrace": 8943,
      "Ġentropy": 8944,
      "Ġartwork": 8945,
      "Ġsmallest": 8946,
      "Ġcellular": 8947,
      "Ġfarms": 8948,
      "Ġgenerating": 8949,
      "Ġcorrupt": 8950,
      "Ġ42": 8951,
      "Ġheading": 8952,
      "Ġheadlines": 8953,
      "Ġmomentum": 8954,
      "Ġretreat": 8955,
      "Ġterrified": 8956,
      "Ġfreely": 8957,
      "ĠPeace": 8958,
      "Ġrevol": 8959,
      "Ġstays": 8960,
      "Ġtempor": 8961,
      "Ġrisky": 8962,
      "Ġmarvel": 8963,
      "ugal": 8964,
      "Ġdescribes": 8965,
      "Ġreligions": 8966,
      "Ġextraordinarily": 8967,
      "Ġdivor": 8968,
      "Ġreplaced": 8969,
      "Ġcounsel": 8970,
      "Ġintegr": 8971,
      "Ġtension": 8972,
      "Ġhydro": 8973,
      "ademy": 8974,
      "Ġteenage": 8975,
      "Ġconcentrated": 8976,
      "uilding": 8977,
      "Ġassignment": 8978,
      "Ġestimated": 8979,
      "Ġbarrier": 8980,
      "Ġretirement": 8981,
      "ĠMandela": 8982,
      "ĠCarolina": 8983,
      "Ġwedding": 8984,
      "Ġtsunami": 8985,
      "Ġdopamine": 8986,
      "ĠShanghai": 8987,
      "10": 8988,
      "40": 8989,
      "aid": 8990,
      "aware": 8991,
      "gments": 8992,
      "hist": 8993,
      "mn": 8994,
      "py": 8995,
      "vation": 8996,
      "Ġaward": 8997,
      "Ġsons": 8998,
      "eros": 8999,
      "Ġcree": 9000,
      "Ġhated": 9001,
      "Ġtoes": 9002,
      "Ġpit": 9003,
      "Ġfallen": 9004,
      "omics": 9005,
      "Ġgif": 9006,
      "Ġgained": 9007,
      "Ġrect": 9008,
      "ctive": 9009,
      "ĠAndrew": 9010,
      "stru": 9011,
      "Ġstaring": 9012,
      "erent": 9013,
      "racies": 9014,
      "Ġash": 9015,
      "ador": 9016,
      "Ġshine": 9017,
      "oln": 9018,
      "Ġproceed": 9019,
      "Ġknife": 9020,
      "Ġalb": 9021,
      "Ġintensive": 9022,
      "ĠHad": 9023,
      "ĠHist": 9024,
      "ournal": 9025,
      "ape": 9026,
      "ĠPenn": 9027,
      "Ġcovers": 9028,
      "ĠLittle": 9029,
      "ĠRock": 9030,
      "Ġrope": 9031,
      "Ġresolve": 9032,
      "Ġoffs": 9033,
      "neg": 9034,
      "Ġraped": 9035,
      "Ġrelation": 9036,
      "Ġrelief": 9037,
      "Ġgrave": 9038,
      "Ġinterior": 9039,
      "Ġintersection": 9040,
      "Ġslums": 9041,
      "ĠVal": 9042,
      "ĠVict": 9043,
      "cycl": 9044,
      "Ġbiologist": 9045,
      "Ġ55": 9046,
      "Ġformation": 9047,
      "ĠIndustrial": 9048,
      "Ġaddiction": 9049,
      "Ġstopping": 9050,
      "Ġreflection": 9051,
      "ĠSeattle": 9052,
      "Ġdevil": 9053,
      "Ġviral": 9054,
      "Ġzones": 9055,
      "Ġempowered": 9056,
      "ĠArist": 9057,
      "Ġhybr": 9058,
      "Ġbreakfast": 9059,
      "Ġimprov": 9060,
      "Ġpsychologist": 9061,
      "Ġmeasurements": 9062,
      "Ġpredictable": 9063,
      "Ġmainstream": 9064,
      "crim": 9065,
      "Ġproposition": 9066,
      "Ġsynchron": 9067,
      "ĠProfessor": 9068,
      "ĠProt": 9069,
      "ĠAnybody": 9070,
      "Ġcontributed": 9071,
      "Ġwheat": 9072,
      "Ġinterviews": 9073,
      "Ġbanking": 9074,
      "copic": 9075,
      "Ġpartnership": 9076,
      "Ġinfections": 9077,
      "ĠSupp": 9078,
      "incoln": 9079,
      "Ġprostate": 9080,
      "ĠNeander": 9081,
[...]
