{
  "version": "1.0",
  "truncation": null,
  "padding": null,
  "added_tokens": [
    {
      "id": 0,
      "content": "[PAD]",
      "single_word": false,
      "lstrip": false,
      "rstrip": false,
      "normalized": false,
      "special": true
    },
    {
      "id": 1,
      "content": "[UNK]",
      "single_word": false,
      "lstrip": false,
      "rstrip": false,
      "normalized": false,
      "special": true
    },
    {
      "id": 2,
      "content": "[BOS]",
      "single_word": false,
      "lstrip": false,
      "rstrip": false,
      "normalized": false,
      "special": true
    },
    {
      "id": 3,
      "content": "[EOS]",
      "single_word": false,
      "lstrip": false,
      "rstrip": false,
      "normalized": false,
      "special": true
    }
  ],
  "normalizer": null,
  "pre_tokenizer": {
    "type": "Whitespace"
  },
  "post_processor": {
    "type": "ByteLevel",
    "add_prefix_space": true,
    "trim_offsets": true,
    "use_regex": true
  },
  "decoder": {
    "type": "ByteLevel",
    "add_prefix_space": true,
    "trim_offsets": true,
    "use_regex": true
  },
  "model": {
    "type": "BPE",
    "dropout": null,
    "unk_token": null,
    "continuing_subword_prefix": null,
    "end_of_word_suffix": null,
    "fuse_unk": false,
    "byte_fallback": false,
    "ignore_merges": false,
    "vocab": {
      "[PAD]": 0,
      "[UNK]": 1,
      "[BOS]": 2,
      "[EOS]": 3,
      "!": 4,
      "\"": 5,
      "#": 6,
      "$": 7,
      "%": 8,
      "&": 9,
      "'": 10,
      "(": 11,
      ")": 12,
      "*": 13,
      "+": 14,
      ",": 15,
      "-": 16,
      ".": 17,
      "/": 18,
      "0": 19,
      "1": 20,
      "2": 21,
      "3": 22,
      "4": 23,
      "5": 24,
      "6": 25,
      "7": 26,
      "8": 27,
      "9": 28,
      ":": 29,
      ";": 30,
      "=": 31,
      "?": 32,
      "@": 33,
      "A": 34,
      "B": 35,
      "C": 36,
      "D": 37,
      "E": 38,
      "F": 39,
      "G": 40,
      "H": 41,
      "I": 42,
      "J": 43,
      "K": 44,
      "L": 45,
      "M": 46,
      "N": 47,
      "O": 48,
      "P": 49,
      "Q": 50,
      "R": 51,
      "S": 52,
      "T": 53,
      "U": 54,
      "V": 55,
      "W": 56,
      "X": 57,
      "Y": 58,
      "Z": 59,
      "[": 60,
      "]": 61,
      "^": 62,
      "_": 63,
      "`": 64,
      "a": 65,
      "b": 66,
      "c": 67,
      "d": 68,
      "e": 69,
      "f": 70,
      "g": 71,
      "h": 72,
      "i": 73,
      "j": 74,
      "k": 75,
      "l": 76,
      "m": 77,
      "n": 78,
      "o": 79,
      "p": 80,
      "q": 81,
      "r": 82,
      "s": 83,
      "t": 84,
      "u": 85,
      "v": 86,
      "w": 87,
      "x": 88,
      "y": 89,
      "z": 90,
      "{": 91,
      "~": 92,
      "£": 93,
      "¥": 94,
      "©": 95,
      "«": 96,
      "®": 97,
      "°": 98,
      "²": 99,
      "¶": 100,
      "·": 101,
      "»": 102,
      "¼": 103,
      "½": 104,
      "¾": 105,
      "Á": 106,
      "Å": 107,
      "×": 108,
      "à": 109,
      "á": 110,
      "ã": 111,
      "ä": 112,
      "ç": 113,
      "è": 114,
      "é": 115,
      "ê": 116,
      "ì": 117,
      "í": 118,
      "ï": 119,
      "ñ": 120,
      "ó": 121,
      "ö": 122,
      "÷": 123,
      "ø": 124,
      "ü": 125,
      "ā": 126,
      "ē": 127,
      "ě": 128,
      "š": 129,
      "ˎ": 130,
      "˙": 131,
      "·": 132,
      "Σ": 133,
      "α": 134,
      "β": 135,
      "γ": 136,
      "θ": 137,
      "φ": 138,
      "ω": 139,
      "а": 140,
      "к": 141,
      "л": 142,
      "ย": 143,
      "ร": 144,
      "อ": 145,
      "่": 146,
      "–": 147,
      "—": 148,
      "―": 149,
      "‘": 150,
      "’": 151,
      "“": 152,
      "”": 153,
      "•": 154,
      "…": 155,
      "‧": 156,
      "€": 157,
      "℃": 158,
      "™": 159,
      "Ⅱ": 160,
      "−": 161,
      "∙": 162,
      "⋯": 163,
      "─": 164,
      "▪": 165,
      "♡": 166,
      "♪": 167,
      "♫": 168,
      "✔": 169,
      "、": 170,
      "。": 171,
      "〈": 172,
      "〉": 173,
      "《": 174,
      "》": 175,
      "「": 176,
      "」": 177,
      "『": 178,
      "』": 179,
      "【": 180,
      "】": 181,
      "〔": 182,
      "〕": 183,
      "ム": 184,
      "・": 185,
      "ㄧ": 186,
      "一": 187,
      "丁": 188,
      "七": 189,
      "万": 190,
      "丈": 191,
      "三": 192,
      "上": 193,
      "下": 194,
      "不": 195,
      "与": 196,
      "丐": 197,
      "丑": 198,
      "专": 199,
      "且": 200,
      "世": 201,
      "丘": 202,
      "丙": 203,
      "业": 204,
      "丛": 205,
      "东": 206,
      "丝": 207,
      "丢": 208,
      "两": 209,
      "严": 210,
      "並": 211,
      "丧": 212,
      "个": 213,
      "丫": 214,
      "中": 215,
      "丰": 216,
      "串": 217,
      "临": 218,
      "丶": 219,
      "丸": 220,
      "丹": 221,
      "为": 222,
      "主": 223,
      "丽": 224,
      "举": 225,
      "乃": 226,
      "久": 227,
      "么": 228,
      "义": 229,
      "之": 230,
      "乌": 231,
      "乍": 232,
      "乎": 233,
      "乏": 234,
      "乐": 235,
      "乒": 236,
      "乓": 237,
      "乔": 238,
      "乖": 239,
      "乘": 240,
      "乙": 241,
      "九": 242,
      "乞": 243,
      "也": 244,
      "习": 245,
      "乡": 246,
      "书": 247,
      "买": 248,
      "乱": 249,
      "乳": 250,
      "乾": 251,
      "了": 252,
      "予": 253,
      "争": 254,
      "事": 255,
      "二": 256,
      "于": 257,
      "亏": 258,
      "云": 259,
      "互": 260,
      "五": 261,
      "井": 262,
      "亘": 263,
      "亚": 264,
      "些": 265,
      "亞": 266,
      "亟": 267,
      "亡": 268,
      "亢": 269,
      "交": 270,
      "亥": 271,
      "亦": 272,
      "产": 273,
      "亨": 274,
      "亩": 275,
      "享": 276,
      "京": 277,
      "亭": 278,
      "亮": 279,
      "亲": 280,
      "亵": 281,
      "人": 282,
      "亿": 283,
      "什": 284,
      "仁": 285,
      "仅": 286,
      "仆": 287,
      "仇": 288,
      "今": 289,
      "介": 290,
      "仍": 291,
      "从": 292,
      "仑": 293,
      "仓": 294,
      "仔": 295,
      "仕": 296,
      "他": 297,
      "仗": 298,
      "付": 299,
      "仙": 300,
      "代": 301,
      "令": 302,
      "以": 303,
      "仪": 304,
      "们": 305,
      "仰": 306,
      "仲": 307,
      "件": 308,
      "价": 309,
      "任": 310,
      "份": 311,
      "仿": 312,
      "企": 313,
      "伊": 314,
      "伍": 315,
      "伎": 316,
      "伏": 317,
      "伐": 318,
      "休": 319,
      "众": 320,
      "优": 321,
      "伙": 322,
      "会": 323,
      "伞": 324,
      "伟": 325,
      "传": 326,
      "伤": 327,
      "伦": 328,
      "伪": 329,
      "伫": 330,
      "伯": 331,
      "估": 332,
      "伴": 333,
      "伶": 334,
      "伸": 335,
      "伺": 336,
      "似": 337,
      "伽": 338,
      "佃": 339,
      "但": 340,
      "佈": 341,
      "位": 342,
      "低": 343,
      "住": 344,
      "佐": 345,
      "佑": 346,
      "体": 347,
      "何": 348,
      "佘": 349,
      "余": 350,
      "佛": 351,
      "作": 352,
      "佝": 353,
      "你": 354,
      "佣": 355,
      "佩": 356,
      "佬": 357,
      "佯": 358,
      "佰": 359,
      "佳": 360,
      "佷": 361,
      "佼": 362,
      "使": 363,
      "侃": 364,
      "侄": 365,
      "來": 366,
      "侈": 367,
      "例": 368,
      "侍": 369,
      "侏": 370,
      "侗": 371,
      "供": 372,
      "依": 373,
      "侠": 374,
      "侣": 375,
      "侥": 376,
      "侦": 377,
      "侧": 378,
      "侨": 379,
      "侩": 380,
      "侪": 381,
      "侬": 382,
      "侮": 383,
      "侯": 384,
      "侵": 385,
      "便": 386,
      "促": 387,
      "俄": 388,
      "俊": 389,
      "俏": 390,
      "俐": 391,
      "俑": 392,
      "俗": 393,
      "俘": 394,
      "俚": 395,
      "保": 396,
      "信": 397,
      "俢": 398,
      "俨": 399,
      "俩": 400,
      "俬": 401,
      "俭": 402,
      "修": 403,
      "俯": 404,
      "俱": 405,
      "俳": 406,
      "俺": 407,
      "俾": 408,
      "倆": 409,
      "個": 410,
      "倌": 411,
      "倍": 412,
      "們": 413,
      "倒": 414,
      "倔": 415,
      "倘": 416,
      "候": 417,
      "倚": 418,
      "借": 419,
      "倡": 420,
      "倦": 421,
      "倩": 422,
      "倪": 423,
      "倭": 424,
      "债": 425,
      "值": 426,
      "倾": 427,
      "假": 428,
      "偎": 429,
      "偏": 430,
      "偕": 431,
      "做": 432,
      "停": 433,
      "健": 434,
      "側": 435,
      "偶": 436,
      "偷": 437,
      "偻": 438,
      "偿": 439,
      "傀": 440,
      "傅": 441,
      "傍": 442,
      "傢": 443,
      "储": 444,
      "催": 445,
      "傲": 446,
      "傳": 447,
      "傻": 448,
      "像": 449,
      "僚": 450,
      "僧": 451,
      "僵": 452,
      "僻": 453,
      "儒": 454,
      "儘": 455,
      "儡": 456,
      "優": 457,
      "儿": 458,
      "兀": 459,
      "允": 460,
      "元": 461,
      "兄": 462,
      "充": 463,
      "兆": 464,
      "先": 465,
      "光": 466,
      "克": 467,
      "免": 468,
      "兑": 469,
      "兒": 470,
      "兔": 471,
      "党": 472,
      "兜": 473,
      "兢": 474,
      "入": 475,
      "內": 476,
      "全": 477,
      "八": 478,
      "公": 479,
      "六": 480,
      "兮": 481,
      "兰": 482,
      "共": 483,
      "关": 484,
      "兴": 485,
      "兵": 486,
      "其": 487,
      "具": 488,
      "典": 489,
      "兹": 490,
      "养": 491,
      "兼": 492,
      "兽": 493,
      "冀": 494,
      "内": 495,
      "冈": 496,
      "冉": 497,
      "册": 498,
      "再": 499,
      "冏": 500,
      "冒": 501,
      "冕": 502,
      "冗": 503,
      "写": 504,
      "军": 505,
      "农": 506,
      "冠": 507,
      "冤": 508,
      "冥": 509,
      "冪": 510,
      "冬": 511,
      "冯": 512,
      "冰": 513,
      "冲": 514,
      "决": 515,
      "况": 516,
      "冶": 517,
      "冷": 518,
      "冻": 519,
      "冽": 520,
      "净": 521,
      "凄": 522,
      "准": 523,
      "凉": 524,
      "凋": 525,
      "凌": 526,
      "减": 527,
      "凑": 528,
      "凖": 529,
      "凛": 530,
      "凝": 531,
      "几": 532,
      "凡": 533,
      "凤": 534,
      "凭": 535,
      "凯": 536,
      "凰": 537,
      "凱": 538,
      "凳": 539,
      "凶": 540,
      "凸": 541,
      "凹": 542,
      "出": 543,
      "击": 544,
      "函": 545,
      "凿": 546,
      "刀": 547,
      "刁": 548,
      "刃": 549,
      "分": 550,
      "切": 551,
      "刊": 552,
      "刋": 553,
      "刍": 554,
      "刑": 555,
      "划": 556,
      "列": 557,
      "刘": 558,
      "则": 559,
      "刚": 560,
      "创": 561,
      "初": 562,
      "删": 563,
      "判": 564,
      "別": 565,
      "刨": 566,
      "利": 567,
      "别": 568,
      "刮": 569,
      "到": 570,
      "制": 571,
      "刷": 572,
      "券": 573,
      "刹": 574,
      "刺": 575,
      "刻": 576,
      "刽": 577,
      "剀": 578,
      "剁": 579,
      "剂": 580,
      "剃": 581,
      "則": 582,
      "削": 583,
      "剌": 584,
      "前": 585,
      "剐": 586,
      "剑": 587,
      "剔": 588,
      "剖": 589,
      "剛": 590,
      "剥": 591,
      "剧": 592,
      "剩": 593,
      "剪": 594,
      "副": 595,
      "割": 596,
      "創": 597,
      "剽": 598,
      "剿": 599,
      "劈": 600,
      "力": 601,
      "劝": 602,
      "办": 603,
      "功": 604,
      "加": 605,
      "务": 606,
      "劣": 607,
      "动": 608,
      "助": 609,
      "努": 610,
      "劫": 611,
      "励": 612,
      "劲": 613,
      "劳": 614,
      "劾": 615,
      "势": 616,
      "勃": 617,
      "勇": 618,
      "勉": 619,
      "勋": 620,
      "勒": 621,
      "動": 622,
      "勘": 623,
      "勞": 624,
      "募": 625,
      "勢": 626,
      "勤": 627,
      "勺": 628,
      "勾": 629,
      "勿": 630,
      "匀": 631,
      "包": 632,
      "匆": 633,
      "匈": 634,
      "匍": 635,
      "匐": 636,
      "匕": 637,
      "化": 638,
      "北": 639,
      "匙": 640,
      "匝": 641,
      "匠": 642,
      "匣": 643,
      "匪": 644,
      "匮": 645,
      "匱": 646,
      "匹": 647,
      "区": 648,
      "医": 649,
      "匾": 650,
      "匿": 651,
      "區": 652,
      "十": 653,
      "千": 654,
      "升": 655,
      "午": 656,
      "卉": 657,
      "半": 658,
      "卍": 659,
      "华": 660,
      "协": 661,
      "卑": 662,
      "卒": 663,
      "卓": 664,
      "協": 665,
      "单": 666,
      "卖": 667,
      "南": 668,
      "博": 669,
      "卜": 670,
      "占": 671,
      "卡": 672,
      "卢": 673,
      "卤": 674,
      "卦": 675,
      "卧": 676,
      "卫": 677,
      "卯": 678,
      "印": 679,
      "危": 680,
      "即": 681,
      "却": 682,
      "卵": 683,
      "卷": 684,
      "卸": 685,
      "卻": 686,
      "卿": 687,
      "厂": 688,
      "厄": 689,
      "厅": 690,
      "历": 691,
      "厉": 692,
      "压": 693,
      "厌": 694,
      "厕": 695,
      "厘": 696,
      "厚": 697,
      "原": 698,
      "厢": 699,
      "厥": 700,
      "厦": 701,
      "厨": 702,
      "厩": 703,
      "厮": 704,
      "去": 705,
      "县": 706,
      "参": 707,
      "參": 708,
      "又": 709,
      "叉": 710,
      "及": 711,
      "友": 712,
      "双": 713,
      "反": 714,
      "发": 715,
      "叔": 716,
      "取": 717,
      "受": 718,
      "变": 719,
      "叙": 720,
      "叛": 721,
      "叟": 722,
      "叠": 723,
      "口": 724,
      "古": 725,
      "句": 726,
      "另": 727,
      "叨": 728,
      "叩": 729,
      "只": 730,
      "叫": 731,
      "召": 732,
      "叭": 733,
      "叮": 734,
      "可": 735,
      "台": 736,
      "史": 737,
      "右": 738,
      "叶": 739,
      "号": 740,
      "司": 741,
      "叹": 742,
      "叼": 743,
      "叽": 744,
      "吁": 745,
      "吃": 746,
      "各": 747,
      "吆": 748,
      "合": 749,
      "吉": 750,
      "吊": 751,
      "吋": 752,
      "同": 753,
      "名": 754,
      "后": 755,
      "吏": 756,
      "吐": 757,
      "向": 758,
      "吓": 759,
      "吕": 760,
      "吖": 761,
      "吗": 762,
      "君": 763,
      "吝": 764,
      "吞": 765,
      "吟": 766,
      "吠": 767,
      "否": 768,
      "吧": 769,
      "吨": 770,
      "吩": 771,
      "含": 772,
      "听": 773,
      "吭": 774,
      "吮": 775,
      "启": 776,
      "吱": 777,
      "吴": 778,
      "吵": 779,
      "吶": 780,
      "吸": 781,
      "吹": 782,
      "吻": 783,
      "吼": 784,
      "吽": 785,
      "吾": 786,
      "呀": 787,
      "呃": 788,
      "呆": 789,
      "呈": 790,
      "告": 791,
      "呎": 792,
      "呐": 793,
      "呕": 794,
      "呗": 795,
      "员": 796,
      "呛": 797,
      "呜": 798,
      "呢": 799,
      "呤": 800,
      "呦": 801,
      "周": 802,
      "呯": 803,
      "呱": 804,
      "味": 805,
      "呵": 806,
      "呻": 807,
      "呼": 808,
      "命": 809,
      "咀": 810,
      "咂": 811,
      "咄": 812,
      "咆": 813,
      "咋": 814,
      "和": 815,
      "咎": 816,
      "咏": 817,
      "咐": 818,
      "咒": 819,
      "咔": 820,
      "咕": 821,
      "咖": 822,
      "咙": 823,
      "咚": 824,
      "咝": 825,
      "咦": 826,
      "咧": 827,
      "咨": 828,
      "咪": 829,
      "咫": 830,
      "咬": 831,
      "咯": 832,
      "咱": 833,
      "咳": 834,
      "咸": 835,
      "咻": 836,
      "咽": 837,
      "哀": 838,
      "品": 839,
      "哄": 840,
      "哆": 841,
      "哇": 842,
      "哈": 843,
      "哉": 844,
      "哌": 845,
      "响": 846,
      "哎": 847,
      "哑": 848,
      "哒": 849,
      "哔": 850,
      "哗": 851,
      "哝": 852,
      "哞": 853,
      "哟": 854,
      "哥": 855,
      "哦": 856,
      "哧": 857,
      "哨": 858,
      "哩": 859,
      "哪": 860,
      "哭": 861,
      "哮": 862,
      "哲": 863,
      "哺": 864,
      "哼": 865,
      "哽": 866,
      "唁": 867,
      "唆": 868,
      "唇": 869,
      "唉": 870,
      "唏": 871,
      "唐": 872,
      "唑": 873,
      "唔": 874,
      "唛": 875,
      "唠": 876,
      "唤": 877,
      "唧": 878,
      "唬": 879,
      "售": 880,
      "唯": 881,
      "唰": 882,
      "唱": 883,
      "唵": 884,
      "唷": 885,
      "唾": 886,
      "啃": 887,
      "啄": 888,
      "商": 889,
      "啊": 890,
      "問": 891,
      "啐": 892,
      "啓": 893,
      "啕": 894,
      "啜": 895,
      "啡": 896,
      "啤": 897,
      "啥": 898,
      "啦": 899,
      "啧": 900,
      "啪": 901,
      "啬": 902,
      "啮": 903,
      "啰": 904,
      "啶": 905,
      "啷": 906,
      "啸": 907,
      "啼": 908,
      "喀": 909,
      "喂": 910,
      "喃": 911,
      "善": 912,
      "喇": 913,
      "喈": 914,
      "喉": 915,
      "喊": 916,
      "喋": 917,
      "喏": 918,
      "喑": 919,
      "喔": 920,
      "喘": 921,
      "喙": 922,
      "喜": 923,
      "喝": 924,
      "喧": 925,
      "喬": 926,
      "喱": 927,
      "喳": 928,
      "喵": 929,
      "喷": 930,
      "喹": 931,
      "喻": 932,
      "喽": 933,
      "嗅": 934,
      "嗎": 935,
      "嗐": 936,
      "嗑": 937,
      "嗒": 938,
      "嗓": 939,
      "嗔": 940,
      "嗖": 941,
      "嗜": 942,
      "嗝": 943,
      "嗞": 944,
      "嗡": 945,
      "嗤": 946,
      "嗦": 947,
      "嗨": 948,
      "嗪": 949,
      "嗬": 950,
      "嗯": 951,
      "嗳": 952,
      "嗷": 953,
      "嗽": 954,
      "嘀": 955,
      "嘈": 956,
      "嘉": 957,
      "嘌": 958,
      "嘎": 959,
      "嘗": 960,
      "嘘": 961,
      "嘛": 962,
      "嘞": 963,
      "嘟": 964,
      "嘣": 965,
      "嘤": 966,
      "嘧": 967,
      "嘭": 968,
      "嘱": 969,
      "嘲": 970,
      "嘴": 971,
      "嘶": 972,
      "嘻": 973,
      "嘿": 974,
      "噁": 975,
      "噎": 976,
      "噗": 977,
      "噘": 978,
      "噙": 979,
      "噜": 980,
      "噢": 981,
      "噤": 982,
      "器": 983,
      "噩": 984,
      "噪": 985,
      "噬": 986,
      "噱": 987,
      "噶": 988,
      "噻": 989,
      "噼": 990,
      "嚅": 991,
      "嚎": 992,
      "嚏": 993,
      "嚓": 994,
      "嚣": 995,
      "嚮": 996,
      "嚯": 997,
      "嚷": 998,
      "嚼": 999,
      "囊": 1000,
      "囔": 1001,
      "囗": 1002,
      "囚": 1003,
      "四": 1004,
      "回": 1005,
      "因": 1006,
      "团": 1007,
      "団": 1008,
      "囤": 1009,
      "囧": 1010,
      "囫": 1011,
      "园": 1012,
      "困": 1013,
      "囱": 1014,
      "围": 1015,
      "囵": 1016,
      "囹": 1017,
      "固": 1018,
      "国": 1019,
      "图": 1020,
      "囿": 1021,
      "圃": 1022,
      "圄": 1023,
      "圆": 1024,
      "圈": 1025,
      "國": 1026,
      "圍": 1027,
      "圜": 1028,
      "土": 1029,
      "圣": 1030,
      "在": 1031,
      "圭": 1032,
      "地": 1033,
      "圳": 1034,
      "场": 1035,
      "圾": 1036,
      "址": 1037,
      "均": 1038,
      "坊": 1039,
      "坍": 1040,
      "坎": 1041,
      "坏": 1042,
      "坐": 1043,
      "坑": 1044,
      "块": 1045,
      "坚": 1046,
      "坛": 1047,
      "坝": 1048,
      "坞": 1049,
      "坟": 1050,
      "坠": 1051,
      "坡": 1052,
      "坤": 1053,
      "坦": 1054,
      "坨": 1055,
      "坩": 1056,
      "坪": 1057,
      "坯": 1058,
      "坳": 1059,
      "坷": 1060,
      "坼": 1061,
      "垂": 1062,
      "垃": 1063,
      "垄": 1064,
      "型": 1065,
      "垒": 1066,
      "垛": 1067,
      "垠": 1068,
      "垢": 1069,
      "垣": 1070,
      "垦": 1071,
      "垩": 1072,
      "垫": 1073,
      "垮": 1074,
      "埂": 1075,
      "埃": 1076,
      "埋": 1077,
      "城": 1078,
      "埔": 1079,
      "埙": 1080,
      "埚": 1081,
      "域": 1082,
      "埸": 1083,
      "培": 1084,
      "基": 1085,
      "堂": 1086,
      "堆": 1087,
      "堊": 1088,
      "堑": 1089,
      "堕": 1090,
      "堡": 1091,
      "堤": 1092,
      "堪": 1093,
      "堰": 1094,
      "報": 1095,
      "場": 1096,
      "堵": 1097,
      "塌": 1098,
      "塑": 1099,
      "塔": 1100,
      "塘": 1101,
      "塚": 1102,
      "塞": 1103,
      "塩": 1104,
      "填": 1105,
      "境": 1106,
      "墅": 1107,
      "墓": 1108,
      "墙": 1109,
      "增": 1110,
      "墟": 1111,
      "墨": 1112,
      "墩": 1113,
      "壁": 1114,
      "壑": 1115,
      "壕": 1116,
      "壘": 1117,
      "壞": 1118,
      "壤": 1119,
      "士": 1120,
      "壬": 1121,
      "壮": 1122,
      "声": 1123,
      "壳": 1124,
      "壶": 1125,
      "壹": 1126,
      "处": 1127,
      "备": 1128,
      "复": 1129,
      "夏": 1130,
      "夕": 1131,
      "外": 1132,
      "夙": 1133,
      "多": 1134,
      "夜": 1135,
      "够": 1136,
      "夠": 1137,
      "夢": 1138,
      "大": 1139,
      "天": 1140,
      "太": 1141,
      "夫": 1142,
      "夭": 1143,
      "央": 1144,
      "失": 1145,
      "头": 1146,
      "夷": 1147,
      "夸": 1148,
      "夹": 1149,
      "夺": 1150,
      "奄": 1151,
      "奇": 1152,
      "奈": 1153,
      "奉": 1154,
      "奋": 1155,
      "奎": 1156,
      "奏": 1157,
      "契": 1158,
      "奔": 1159,
      "奕": 1160,
      "奖": 1161,
      "套": 1162,
      "奚": 1163,
      "奠": 1164,
      "奢": 1165,
      "奥": 1166,
      "奧": 1167,
      "奮": 1168,
      "女": 1169,
      "奴": 1170,
      "奶": 1171,
      "奸": 1172,
      "她": 1173,
      "好": 1174,
      "如": 1175,
      "妃": 1176,
      "妄": 1177,
      "妆": 1178,
      "妇": 1179,
      "妈": 1180,
      "妊": 1181,
      "妒": 1182,
      "妓": 1183,
      "妖": 1184,
      "妙": 1185,
      "妞": 1186,
      "妠": 1187,
      "妥": 1188,
      "妨": 1189,
      "妩": 1190,
      "妮": 1191,
      "妲": 1192,
      "妳": 1193,
      "妹": 1194,
      "妻": 1195,
      "姆": 1196,
      "姊": 1197,
      "始": 1198,
      "姐": 1199,
      "姑": 1200,
      "姓": 1201,
      "委": 1202,
      "姚": 1203,
      "姜": 1204,
      "姥": 1205,
      "姨": 1206,
      "姬": 1207,
      "姻": 1208,
      "姿": 1209,
      "威": 1210,
      "娃": 1211,
      "娄": 1212,
      "娅": 1213,
      "娆": 1214,
      "娇": 1215,
      "娓": 1216,
      "娘": 1217,
      "娜": 1218,
      "娠": 1219,
      "娣": 1220,
      "娥": 1221,
      "娩": 1222,
      "娱": 1223,
      "娴": 1224,
      "娶": 1225,
      "娼": 1226,
      "婆": 1227,
      "婉": 1228,
      "婊": 1229,
      "婚": 1230,
      "婪": 1231,
      "婭": 1232,
      "婴": 1233,
      "婶": 1234,
      "婷": 1235,
      "婿": 1236,
      "媒": 1237,
      "媚": 1238,
      "媛": 1239,
      "媞": 1240,
      "媲": 1241,
      "媳": 1242,
      "媾": 1243,
      "嫁": 1244,
      "嫂": 1245,
      "嫉": 1246,
      "嫌": 1247,
      "嫖": 1248,
      "嫩": 1249,
      "嬉": 1250,
      "嬴": 1251,
      "孀": 1252,
      "子": 1253,
      "孑": 1254,
      "孔": 1255,
      "孕": 1256,
      "字": 1257,
      "存": 1258,
      "孙": 1259,
      "孚": 1260,
      "孛": 1261,
      "孜": 1262,
      "孝": 1263,
      "孟": 1264,
      "孢": 1265,
      "季": 1266,
      "孤": 1267,
      "学": 1268,
      "孩": 1269,
      "孪": 1270,
      "孰": 1271,
      "孱": 1272,
      "孵": 1273,
      "學": 1274,
      "孺": 1275,
      "孽": 1276,
      "宁": 1277,
      "它": 1278,
      "宅": 1279,
      "宇": 1280,
      "守": 1281,
      "安": 1282,
      "宋": 1283,
      "完": 1284,
      "宏": 1285,
      "宕": 1286,
      "宗": 1287,
      "官": 1288,
      "宙": 1289,
      "定": 1290,
      "宛": 1291,
      "宜": 1292,
      "宝": 1293,
      "实": 1294,
      "宠": 1295,
      "审": 1296,
      "客": 1297,
      "宣": 1298,
      "室": 1299,
      "宪": 1300,
      "宫": 1301,
      "宮": 1302,
      "宰": 1303,
      "害": 1304,
      "宴": 1305,
      "宵": 1306,
      "家": 1307,
      "容": 1308,
      "宽": 1309,
      "宾": 1310,
      "宿": 1311,
      "寂": 1312,
      "寄": 1313,
      "密": 1314,
      "寇": 1315,
      "富": 1316,
      "寐": 1317,
      "寒": 1318,
      "寓": 1319,
      "寝": 1320,
      "寞": 1321,
      "察": 1322,
      "寡": 1323,
      "寢": 1324,
      "寥": 1325,
      "實": 1326,
      "寨": 1327,
      "寮": 1328,
      "寰": 1329,
      "寸": 1330,
      "对": 1331,
      "寺": 1332,
      "寻": 1333,
      "导": 1334,
      "寿": 1335,
      "封": 1336,
      "射": 1337,
      "将": 1338,
      "將": 1339,
      "尉": 1340,
      "尊": 1341,
      "對": 1342,
      "小": 1343,
      "少": 1344,
      "尔": 1345,
      "尖": 1346,
      "尘": 1347,
      "尙": 1348,
      "尚": 1349,
      "尝": 1350,
      "尤": 1351,
      "尧": 1352,
      "尬": 1353,
      "就": 1354,
      "尴": 1355,
      "尸": 1356,
      "尺": 1357,
      "尼": 1358,
      "尽": 1359,
      "尾": 1360,
      "尿": 1361,
      "局": 1362,
      "屁": 1363,
      "层": 1364,
      "居": 1365,
      "屈": 1366,
      "屉": 1367,
      "届": 1368,
      "屋": 1369,
      "屌": 1370,
      "屎": 1371,
      "屏": 1372,
      "屑": 1373,
      "展": 1374,
      "属": 1375,
      "屠": 1376,
      "屡": 1377,
      "層": 1378,
      "履": 1379,
      "屯": 1380,
      "山": 1381,
      "屹": 1382,
      "屿": 1383,
      "岀": 1384,
      "岁": 1385,
      "岂": 1386,
      "岌": 1387,
      "岐": 1388,
      "岑": 1389,
      "岔": 1390,
      "岖": 1391,
      "岗": 1392,
      "岚": 1393,
      "岛": 1394,
      "岩": 1395,
      "岬": 1396,
      "岭": 1397,
      "岳": 1398,
      "岸": 1399,
      "峋": 1400,
      "峙": 1401,
      "峡": 1402,
      "峦": 1403,
      "峨": 1404,
      "峭": 1405,
      "峰": 1406,
      "峻": 1407,
      "崇": 1408,
      "崎": 1409,
      "崔": 1410,
      "崖": 1411,
      "崛": 1412,
      "崩": 1413,
      "崭": 1414,
      "崴": 1415,
      "崽": 1416,
      "嵌": 1417,
      "嶙": 1418,
      "巅": 1419,
      "巍": 1420,
      "川": 1421,
      "州": 1422,
      "巡": 1423,
      "巢": 1424,
      "工": 1425,
      "左": 1426,
      "巧": 1427,
      "巨": 1428,
      "巩": 1429,
      "巫": 1430,
      "差": 1431,
      "己": 1432,
      "已": 1433,
      "巴": 1434,
      "巷": 1435,
      "巾": 1436,
      "巿": 1437,
      "币": 1438,
      "市": 1439,
      "布": 1440,
      "帅": 1441,
      "帆": 1442,
      "师": 1443,
      "希": 1444,
      "帐": 1445,
      "帑": 1446,
      "帕": 1447,
      "帖": 1448,
      "帘": 1449,
      "帚": 1450,
      "帛": 1451,
      "帜": 1452,
      "帝": 1453,
      "带": 1454,
      "帧": 1455,
      "師": 1456,
      "席": 1457,
      "帮": 1458,
      "帶": 1459,
      "帷": 1460,
      "常": 1461,
      "帼": 1462,
      "帽": 1463,
      "幂": 1464,
      "幄": 1465,
      "幅": 1466,
      "幌": 1467,
      "幕": 1468,
      "幡": 1469,
      "幢": 1470,
      "幫": 1471,
      "干": 1472,
      "平": 1473,
      "年": 1474,
      "并": 1475,
      "幸": 1476,
      "幹": 1477,
      "幺": 1478,
      "幻": 1479,
      "幼": 1480,
      "幽": 1481,
      "幾": 1482,
      "广": 1483,
      "庄": 1484,
      "庆": 1485,
      "庇": 1486,
      "床": 1487,
      "序": 1488,
      "庐": 1489,
      "库": 1490,
      "应": 1491,
      "底": 1492,
      "店": 1493,
      "庙": 1494,
      "庚": 1495,
      "府": 1496,
      "庞": 1497,
      "废": 1498,
      "度": 1499,
      "座": 1500,
      "庭": 1501,
      "庵": 1502,
      "庶": 1503,
      "康": 1504,
      "庸": 1505,
      "廉": 1506,
      "廊": 1507,
      "廓": 1508,
      "廖": 1509,
      "延": 1510,
      "廷": 1511,
      "建": 1512,
      "开": 1513,
      "异": 1514,
      "弃": 1515,
      "弄": 1516,
      "弈": 1517,
      "弊": 1518,
      "弋": 1519,
      "式": 1520,
      "弑": 1521,
      "弓": 1522,
      "引": 1523,
      "弗": 1524,
      "弘": 1525,
      "弛": 1526,
      "弟": 1527,
      "张": 1528,
      "弥": 1529,
      "弦": 1530,
      "弧": 1531,
      "弯": 1532,
      "弱": 1533,
      "張": 1534,
      "強": 1535,
      "弹": 1536,
      "强": 1537,
      "归": 1538,
      "当": 1539,
      "录": 1540,
      "彗": 1541,
      "形": 1542,
      "彦": 1543,
      "彩": 1544,
      "彪": 1545,
      "彬": 1546,
      "彭": 1547,
      "彰": 1548,
      "影": 1549,
      "彷": 1550,
      "役": 1551,
      "彻": 1552,
      "彼": 1553,
      "往": 1554,
      "征": 1555,
      "径": 1556,
      "待": 1557,
      "很": 1558,
      "徉": 1559,
      "徊": 1560,
      "律": 1561,
      "後": 1562,
      "徐": 1563,
      "徒": 1564,
      "得": 1565,
      "徘": 1566,
      "徙": 1567,
      "徜": 1568,
      "從": 1569,
      "御": 1570,
      "徤": 1571,
      "徨": 1572,
      "循": 1573,
      "微": 1574,
      "徳": 1575,
      "徵": 1576,
      "德": 1577,
      "徽": 1578,
      "心": 1579,
      "必": 1580,
      "忆": 1581,
      "忌": 1582,
      "忍": 1583,
      "忏": 1584,
      "忐": 1585,
      "忑": 1586,
      "忒": 1587,
      "忖": 1588,
      "志": 1589,
      "忘": 1590,
      "忙": 1591,
      "忠": 1592,
      "忡": 1593,
      "忧": 1594,
      "快": 1595,
      "忱": 1596,
      "念": 1597,
      "忽": 1598,
      "忿": 1599,
      "怀": 1600,
      "态": 1601,
      "怂": 1602,
      "怅": 1603,
      "怆": 1604,
      "怎": 1605,
      "怒": 1606,
      "怕": 1607,
      "怖": 1608,
      "怜": 1609,
      "思": 1610,
      "怠": 1611,
      "怡": 1612,
      "急": 1613,
      "怦": 1614,
      "性": 1615,
      "怨": 1616,
      "怪": 1617,
      "怯": 1618,
      "怵": 1619,
      "总": 1620,
      "恃": 1621,
      "恋": 1622,
      "恍": 1623,
      "恐": 1624,
      "恒": 1625,
      "恕": 1626,
      "恙": 1627,
      "恢": 1628,
      "恣": 1629,
      "恤": 1630,
      "恨": 1631,
      "恩": 1632,
      "恪": 1633,
      "恫": 1634,
      "恬": 1635,
      "恭": 1636,
      "息": 1637,
      "恰": 1638,
      "恳": 1639,
      "恶": 1640,
      "恸": 1641,
      "恻": 1642,
      "恼": 1643,
      "恿": 1644,
      "悄": 1645,
      "悉": 1646,
      "悍": 1647,
      "悔": 1648,
      "悖": 1649,
      "悚": 1650,
      "悟": 1651,
      "悠": 1652,
      "患": 1653,
      "悦": 1654,
      "您": 1655,
      "悬": 1656,
      "悯": 1657,
      "悲": 1658,
      "悴": 1659,
      "悸": 1660,
      "悼": 1661,
      "情": 1662,
      "惆": 1663,
      "惊": 1664,
      "惋": 1665,
      "惑": 1666,
      "惕": 1667,
      "惘": 1668,
      "惚": 1669,
      "惜": 1670,
      "惟": 1671,
      "惠": 1672,
      "惦": 1673,
      "惧": 1674,
      "惨": 1675,
      "惩": 1676,
      "惫": 1677,
      "惬": 1678,
      "惭": 1679,
      "惮": 1680,
      "惯": 1681,
      "惰": 1682,
      "想": 1683,
      "惴": 1684,
      "惶": 1685,
      "惹": 1686,
      "惺": 1687,
      "愁": 1688,
      "愄": 1689,
      "愈": 1690,
      "愉": 1691,
      "意": 1692,
      "愕": 1693,
      "愚": 1694,
      "愛": 1695,
      "感": 1696,
      "愣": 1697,
      "愤": 1698,
      "愧": 1699,
      "愫": 1700,
      "愿": 1701,
      "慈": 1702,
      "慌": 1703,
      "慎": 1704,
      "慑": 1705,
      "慕": 1706,
      "慢": 1707,
      "慧": 1708,
      "慨": 1709,
      "慰": 1710,
      "慵": 1711,
      "慷": 1712,
      "憋": 1713,
      "憎": 1714,
      "憔": 1715,
      "憧": 1716,
      "憨": 1717,
      "憩": 1718,
      "憬": 1719,
      "憾": 1720,
      "懂": 1721,
      "懈": 1722,
      "應": 1723,
      "懊": 1724,
      "懒": 1725,
      "懦": 1726,
      "懵": 1727,
      "戈": 1728,
      "戊": 1729,
      "戎": 1730,
      "戏": 1731,
      "成": 1732,
      "我": 1733,
      "戒": 1734,
      "戕": 1735,
      "或": 1736,
      "战": 1737,
      "戚": 1738,
      "戛": 1739,
      "戟": 1740,
      "截": 1741,
      "戮": 1742,
      "戰": 1743,
      "戲": 1744,
      "戳": 1745,
      "戴": 1746,
      "戶": 1747,
      "户": 1748,
      "戾": 1749,
      "房": 1750,
      "所": 1751,
      "扁": 1752,
      "扇": 1753,
      "扈": 1754,
      "扉": 1755,
      "手": 1756,
      "才": 1757,
      "扎": 1758,
      "扑": 1759,
      "扒": 1760,
      "打": 1761,
      "扔": 1762,
      "托": 1763,
      "扛": 1764,
      "扣": 1765,
      "执": 1766,
      "扩": 1767,
      "扪": 1768,
      "扫": 1769,
      "扬": 1770,
      "扭": 1771,
      "扮": 1772,
      "扯": 1773,
      "扰": 1774,
      "扳": 1775,
      "扶": 1776,
      "批": 1777,
      "扼": 1778,
      "找": 1779,
      "承": 1780,
      "技": 1781,
      "抄": 1782,
      "抉": 1783,
      "把": 1784,
      "抑": 1785,
      "抒": 1786,
      "抓": 1787,
      "投": 1788,
      "抖": 1789,
      "抗": 1790,
      "折": 1791,
      "抚": 1792,
      "抛": 1793,
      "抠": 1794,
      "抡": 1795,
      "抢": 1796,
      "护": 1797,
      "报": 1798,
      "抨": 1799,
      "披": 1800,
      "抬": 1801,
      "抱": 1802,
      "抵": 1803,
      "抹": 1804,
      "押": 1805,
      "抽": 1806,
      "拂": 1807,
      "拄": 1808,
      "担": 1809,
      "拆": 1810,
      "拇": 1811,
      "拈": 1812,
      "拉": 1813,
      "拋": 1814,
      "拌": 1815,
      "拍": 1816,
      "拎": 1817,
      "拐": 1818,
      "拒": 1819,
      "拓": 1820,
      "拔": 1821,
      "拖": 1822,
      "拗": 1823,
      "拘": 1824,
      "拙": 1825,
      "拚": 1826,
      "招": 1827,
      "拜": 1828,
      "拟": 1829,
      "拢": 1830,
      "拣": 1831,
      "拥": 1832,
      "拦": 1833,
      "拧": 1834,
      "拨": 1835,
      "择": 1836,
      "括": 1837,
      "拭": 1838,
      "拮": 1839,
      "拯": 1840,
      "拱": 1841,
      "拳": 1842,
      "拴": 1843,
      "拷": 1844,
      "拼": 1845,
      "拽": 1846,
      "拾": 1847,
      "拿": 1848,
      "持": 1849,
      "挂": 1850,
      "指": 1851,
      "按": 1852,
      "挐": 1853,
      "挑": 1854,
      "挖": 1855,
      "挚": 1856,
      "挛": 1857,
      "挝": 1858,
      "挞": 1859,
      "挟": 1860,
      "挠": 1861,
      "挡": 1862,
      "挣": 1863,
      "挤": 1864,
      "挥": 1865,
      "挨": 1866,
      "挪": 1867,
      "挫": 1868,
      "振": 1869,
      "挲": 1870,
      "挹": 1871,
      "挺": 1872,
      "挽": 1873,
      "捂": 1874,
      "捅": 1875,
      "捆": 1876,
      "捉": 1877,
      "捋": 1878,
      "捍": 1879,
      "捎": 1880,
      "捏": 1881,
      "捐": 1882,
      "捕": 1883,
      "捜": 1884,
      "捞": 1885,
      "损": 1886,
      "捡": 1887,
      "换": 1888,
      "捣": 1889,
      "捧": 1890,
      "据": 1891,
      "捱": 1892,
      "捶": 1893,
      "捷": 1894,
      "掀": 1895,
      "掂": 1896,
      "掇": 1897,
      "授": 1898,
      "掉": 1899,
      "掌": 1900,
      "掏": 1901,
      "掐": 1902,
      "排": 1903,
      "掖": 1904,
      "掘": 1905,
      "掠": 1906,
      "採": 1907,
      "探": 1908,
      "掣": 1909,
      "接": 1910,
      "控": 1911,
      "推": 1912,
      "掩": 1913,
      "措": 1914,
      "掬": 1915,
      "掰": 1916,
      "掳": 1917,
      "掷": 1918,
      "掸": 1919,
      "掺": 1920,
      "揉": 1921,
      "揍": 1922,
      "描": 1923,
      "提": 1924,
      "插": 1925,
      "握": 1926,
      "揣": 1927,
      "揩": 1928,
      "揪": 1929,
      "揭": 1930,
      "援": 1931,
      "揽": 1932,
      "搀": 1933,
      "搁": 1934,
      "搂": 1935,
      "搅": 1936,
      "搏": 1937,
      "搐": 1938,
      "搓": 1939,
      "搔": 1940,
      "搜": 1941,
      "搞": 1942,
      "搡": 1943,
      "搦": 1944,
      "搪": 1945,
      "搬": 1946,
      "搭": 1947,
      "携": 1948,
      "搽": 1949,
      "摁": 1950,
      "摄": 1951,
      "摆": 1952,
      "摇": 1953,
      "摈": 1954,
      "摊": 1955,
      "摒": 1956,
      "摔": 1957,
      "摘": 1958,
      "摞": 1959,
      "摟": 1960,
      "摧": 1961,
      "摩": 1962,
      "摰": 1963,
      "摸": 1964,
      "摹": 1965,
      "摺": 1966,
      "撂": 1967,
      "撅": 1968,
      "撇": 1969,
      "撑": 1970,
      "撒": 1971,
      "撕": 1972,
      "撞": 1973,
      "撤": 1974,
      "撩": 1975,
      "撫": 1976,
      "撬": 1977,
      "播": 1978,
      "撮": 1979,
      "撰": 1980,
      "撵": 1981,
      "撷": 1982,
      "撸": 1983,
      "撼": 1984,
      "擂": 1985,
      "擅": 1986,
      "操": 1987,
      "擎": 1988,
      "擒": 1989,
      "擘": 1990,
      "擞": 1991,
      "擤": 1992,
      "擦": 1993,
      "攀": 1994,
      "攒": 1995,
      "攘": 1996,
      "攥": 1997,
      "攫": 1998,
      "支": 1999,
      "收": 2000,
      "攸": 2001,
      "改": 2002,
      "攻": 2003,
      "放": 2004,
      "政": 2005,
      "故": 2006,
      "效": 2007,
      "敌": 2008,
      "敎": 2009,
      "敏": 2010,
      "救": 2011,
      "敖": 2012,
      "教": 2013,
      "敛": 2014,
      "敞": 2015,
      "敢": 2016,
      "散": 2017,
      "敦": 2018,
      "敬": 2019,
      "数": 2020,
      "敲": 2021,
      "整": 2022,
      "敷": 2023,
      "數": 2024,
      "文": 2025,
      "斋": 2026,
      "斐": 2027,
      "斑": 2028,
      "斓": 2029,
      "斗": 2030,
      "料": 2031,
      "斜": 2032,
      "斟": 2033,
      "斡": 2034,
      "斤": 2035,
      "斥": 2036,
      "斧": 2037,
      "斩": 2038,
      "断": 2039,
      "斯": 2040,
      "新": 2041,
      "方": 2042,
      "於": 2043,
      "施": 2044,
      "旁": 2045,
      "旅": 2046,
      "旋": 2047,
      "旎": 2048,
      "族": 2049,
      "旖": 2050,
      "旗": 2051,
      "无": 2052,
      "既": 2053,
      "日": 2054,
      "旦": 2055,
      "旧": 2056,
      "旨": 2057,
      "早": 2058,
      "旬": 2059,
      "旭": 2060,
      "旮": 2061,
      "旯": 2062,
      "旱": 2063,
      "时": 2064,
      "旷": 2065,
      "旺": 2066,
      "昂": 2067,
      "昆": 2068,
      "昇": 2069,
      "昌": 2070,
      "明": 2071,
      "昏": 2072,
      "易": 2073,
      "昔": 2074,
      "昙": 2075,
      "星": 2076,
      "映": 2077,
      "春": 2078,
      "昧": 2079,
      "昨": 2080,
      "昭": 2081,
      "是": 2082,
      "昰": 2083,
      "昴": 2084,
      "昵": 2085,
      "昼": 2086,
      "显": 2087,
      "時": 2088,
      "晃": 2089,
      "晋": 2090,
      "晒": 2091,
      "晓": 2092,
      "晕": 2093,
      "晖": 2094,
      "晚": 2095,
      "晤": 2096,
      "晦": 2097,
      "晨": 2098,
      "普": 2099,
      "景": 2100,
      "晰": 2101,
      "晴": 2102,
      "晶": 2103,
      "晷": 2104,
      "智": 2105,
      "晾": 2106,
      "暂": 2107,
      "暄": 2108,
      "暇": 2109,
      "暑": 2110,
      "暖": 2111,
      "暗": 2112,
      "暧": 2113,
      "暨": 2114,
      "暮": 2115,
      "暴": 2116,
      "暸": 2117,
      "曙": 2118,
      "曜": 2119,
      "曝": 2120,
      "曦": 2121,
      "曰": 2122,
      "曲": 2123,
      "曳": 2124,
      "更": 2125,
      "曹": 2126,
      "曼": 2127,
      "曾": 2128,
      "替": 2129,
      "最": 2130,
      "會": 2131,
      "月": 2132,
      "有": 2133,
      "朋": 2134,
      "服": 2135,
      "朔": 2136,
      "朗": 2137,
      "望": 2138,
      "朝": 2139,
      "期": 2140,
      "朦": 2141,
      "木": 2142,
      "未": 2143,
      "末": 2144,
      "本": 2145,
      "札": 2146,
      "术": 2147,
      "朱": 2148,
      "朴": 2149,
      "朵": 2150,
      "机": 2151,
      "朽": 2152,
      "杀": 2153,
      "杂": 2154,
      "权": 2155,
      "杆": 2156,
      "杉": 2157,
      "李": 2158,
      "杏": 2159,
      "材": 2160,
      "村": 2161,
      "杓": 2162,
      "杖": 2163,
      "杜": 2164,
      "杞": 2165,
      "束": 2166,
      "杠": 2167,
      "条": 2168,
      "来": 2169,
      "杨": 2170,
      "杭": 2171,
      "杯": 2172,
      "杰": 2173,
      "東": 2174,
      "杳": 2175,
      "杵": 2176,
      "松": 2177,
      "板": 2178,
      "极": 2179,
      "构": 2180,
      "枉": 2181,
      "析": 2182,
      "枕": 2183,
      "林": 2184,
      "枘": 2185,
      "枚": 2186,
      "果": 2187,
      "枝": 2188,
      "枢": 2189,
      "枣": 2190,
      "枪": 2191,
      "枫": 2192,
      "枭": 2193,
      "枯": 2194,
      "架": 2195,
      "枷": 2196,
      "柄": 2197,
      "柏": 2198,
      "某": 2199,
      "柑": 2200,
      "染": 2201,
      "柔": 2202,
      "柚": 2203,
      "柜": 2204,
      "柠": 2205,
      "柢": 2206,
      "查": 2207,
      "柩": 2208,
      "柬": 2209,
      "柯": 2210,
      "柱": 2211,
      "柳": 2212,
      "柴": 2213,
      "柿": 2214,
      "栅": 2215,
      "标": 2216,
      "栈": 2217,
      "栉": 2218,
      "栋": 2219,
      "栏": 2220,
      "树": 2221,
      "栓": 2222,
      "栖": 2223,
      "栗": 2224,
      "校": 2225,
      "栩": 2226,
      "株": 2227,
      "样": 2228,
      "核": 2229,
      "根": 2230,
      "格": 2231,
      "栽": 2232,
      "桁": 2233,
      "桂": 2234,
      "桃": 2235,
      "桅": 2236,
      "框": 2237,
      "案": 2238,
      "桉": 2239,
      "桌": 2240,
      "桎": 2241,
      "桑": 2242,
      "桓": 2243,
      "桔": 2244,
      "桠": 2245,
      "桡": 2246,
      "档": 2247,
      "桤": 2248,
      "桥": 2249,
      "桦": 2250,
      "桨": 2251,
      "桩": 2252,
      "桶": 2253,
      "梁": 2254,
      "梅": 2255,
      "梆": 2256,
      "梏": 2257,
      "梗": 2258,
      "梢": 2259,
      "梦": 2260,
      "梧": 2261,
      "梨": 2262,
      "梭": 2263,
      "梯": 2264,
      "械": 2265,
      "梳": 2266,
      "梵": 2267,
      "检": 2268,
      "棉": 2269,
      "棋": 2270,
      "棍": 2271,
      "棒": 2272,
      "棕": 2273,
      "棘": 2274,
      "棚": 2275,
      "棠": 2276,
      "森": 2277,
      "棱": 2278,
      "棵": 2279,
      "棺": 2280,
      "椅": 2281,
      "椋": 2282,
      "植": 2283,
      "椎": 2284,
      "椒": 2285,
      "椭": 2286,
      "椰": 2287,
      "椴": 2288,
      "椽": 2289,
      "楂": 2290,
      "楔": 2291,
      "楕": 2292,
      "楚": 2293,
      "楞": 2294,
      "楠": 2295,
      "楣": 2296,
      "楦": 2297,
      "業": 2298,
      "極": 2299,
      "楷": 2300,
      "楼": 2301,
      "概": 2302,
      "榄": 2303,
      "榆": 2304,
      "榈": 2305,
      "榉": 2306,
      "榔": 2307,
      "榕": 2308,
      "榛": 2309,
      "榜": 2310,
      "榨": 2311,
      "榭": 2312,
      "榴": 2313,
      "榷": 2314,
      "榻": 2315,
      "槃": 2316,
      "槌": 2317,
      "槐": 2318,
      "槛": 2319,
      "槟": 2320,
      "槽": 2321,
      "樊": 2322,
      "樑": 2323,
      "樟": 2324,
      "模": 2325,
      "樣": 2326,
      "横": 2327,
      "樱": 2328,
      "橄": 2329,
      "橇": 2330,
      "橘": 2331,
      "橙": 2332,
      "機": 2333,
      "橡": 2334,
      "橫": 2335,
      "橱": 2336,
      "檀": 2337,
      "檐": 2338,
      "檢": 2339,
      "檬": 2340,
      "櫃": 2341,
      "欠": 2342,
      "次": 2343,
      "欢": 2344,
      "欣": 2345,
      "欧": 2346,
      "欲": 2347,
      "欸": 2348,
      "欺": 2349,
      "款": 2350,
      "歇": 2351,
      "歉": 2352,
      "歌": 2353,
      "止": 2354,
      "正": 2355,
      "此": 2356,
      "步": 2357,
      "武": 2358,
      "歧": 2359,
      "歪": 2360,
      "歹": 2361,
      "死": 2362,
      "歼": 2363,
      "殁": 2364,
      "殃": 2365,
      "殆": 2366,
      "殇": 2367,
      "殉": 2368,
      "殊": 2369,
      "残": 2370,
      "殒": 2371,
      "殓": 2372,
      "殖": 2373,
      "殘": 2374,
      "殡": 2375,
      "殴": 2376,
      "段": 2377,
      "殷": 2378,
      "殿": 2379,
      "毀": 2380,
      "毁": 2381,
      "毂": 2382,
      "毅": 2383,
      "毋": 2384,
      "母": 2385,
      "每": 2386,
      "毒": 2387,
      "比": 2388,
      "毕": 2389,
      "毗": 2390,
      "毙": 2391,
      "毛": 2392,
      "毡": 2393,
      "毫": 2394,
      "毯": 2395,
      "毽": 2396,
      "氏": 2397,
      "民": 2398,
      "氓": 2399,
      "气": 2400,
      "氘": 2401,
      "氙": 2402,
      "氚": 2403,
      "氛": 2404,
      "氟": 2405,
      "氢": 2406,
      "氣": 2407,
      "氦": 2408,
      "氧": 2409,
      "氨": 2410,
      "氩": 2411,
      "氪": 2412,
      "氫": 2413,
      "氮": 2414,
      "氯": 2415,
      "氰": 2416,
      "水": 2417,
      "永": 2418,
      "汀": 2419,
      "汁": 2420,
      "求": 2421,
      "汇": 2422,
      "汉": 2423,
      "汐": 2424,
      "汗": 2425,
      "汙": 2426,
      "汛": 2427,
      "汝": 2428,
      "汞": 2429,
      "江": 2430,
      "池": 2431,
      "污": 2432,
      "汤": 2433,
      "汩": 2434,
      "汪": 2435,
      "汰": 2436,
      "汱": 2437,
      "汲": 2438,
      "汶": 2439,
      "汹": 2440,
      "決": 2441,
      "汽": 2442,
      "沁": 2443,
      "沃": 2444,
      "沈": 2445,
      "沉": 2446,
      "沌": 2447,
      "沐": 2448,
      "沒": 2449,
      "沓": 2450,
      "沙": 2451,
      "沛": 2452,
      "沟": 2453,
      "没": 2454,
      "沥": 2455,
      "沦": 2456,
      "沧": 2457,
      "沫": 2458,
      "沮": 2459,
      "河": 2460,
      "沸": 2461,
      "油": 2462,
      "治": 2463,
      "沼": 2464,
      "沾": 2465,
      "沿": 2466,
      "況": 2467,
      "泄": 2468,
      "泉": 2469,
      "泊": 2470,
      "泌": 2471,
      "法": 2472,
      "泗": 2473,
      "泛": 2474,
      "泞": 2475,
      "泡": 2476,
      "波": 2477,
      "泣": 2478,
      "泥": 2479,
      "注": 2480,
      "泪": 2481,
      "泮": 2482,
      "泯": 2483,
      "泰": 2484,
      "泱": 2485,
      "泳": 2486,
      "泵": 2487,
      "泻": 2488,
      "泼": 2489,
      "泽": 2490,
      "泾": 2491,
      "洁": 2492,
      "洋": 2493,
      "洒": 2494,
      "洗": 2495,
      "洛": 2496,
      "洞": 2497,
      "津": 2498,
      "洪": 2499,
      "洲": 2500,
      "活": 2501,
      "洼": 2502,
      "洽": 2503,
      "派": 2504,
      "流": 2505,
      "浃": 2506,
      "浅": 2507,
      "浆": 2508,
      "浇": 2509,
      "浊": 2510,
      "测": 2511,
      "济": 2512,
      "浏": 2513,
      "浑": 2514,
      "浓": 2515,
      "浚": 2516,
      "浣": 2517,
      "浦": 2518,
      "浩": 2519,
      "浪": 2520,
      "浬": 2521,
      "浮": 2522,
      "浴": 2523,
      "海": 2524,
      "浸": 2525,
      "涂": 2526,
      "涅": 2527,
      "消": 2528,
      "涉": 2529,
      "涌": 2530,
      "涎": 2531,
      "涓": 2532,
      "涕": 2533,
      "涛": 2534,
      "涝": 2535,
      "涟": 2536,
      "涡": 2537,
      "涣": 2538,
      "涤": 2539,
      "润": 2540,
      "涨": 2541,
      "涩": 2542,
      "涯": 2543,
      "液": 2544,
      "涵": 2545,
      "涸": 2546,
      "淀": 2547,
      "淆": 2548,
      "淇": 2549,
      "淋": 2550,
      "淌": 2551,
      "淑": 2552,
      "淘": 2553,
      "淙": 2554,
      "淡": 2555,
      "淤": 2556,
      "淨": 2557,
      "淫": 2558,
      "深": 2559,
      "淳": 2560,
      "混": 2561,
      "淸": 2562,
      "淹": 2563,
      "添": 2564,
      "淼": 2565,
      "清": 2566,
      "渉": 2567,
      "渊": 2568,
      "渍": 2569,
      "渎": 2570,
      "渐": 2571,
      "渔": 2572,
      "渗": 2573,
      "渝": 2574,
      "渠": 2575,
      "渡": 2576,
      "渣": 2577,
      "渤": 2578,
      "渥": 2579,
      "温": 2580,
      "渭": 2581,
      "港": 2582,
      "渲": 2583,
      "渴": 2584,
      "游": 2585,
      "渺": 2586,
      "湃": 2587,
      "湄": 2588,
      "湍": 2589,
      "湎": 2590,
      "湖": 2591,
      "湛": 2592,
      "湮": 2593,
      "湾": 2594,
      "湿": 2595,
      "溃": 2596,
      "溅": 2597,
      "溉": 2598,
      "源": 2599,
      "溜": 2600,
      "溢": 2601,
      "溥": 2602,
      "溪": 2603,
      "溯": 2604,
      "溴": 2605,
      "溶": 2606,
      "溺": 2607,
      "滋": 2608,
      "滑": 2609,
      "滓": 2610,
      "滔": 2611,
      "滕": 2612,
      "滚": 2613,
      "滞": 2614,
      "满": 2615,
      "滤": 2616,
      "滥": 2617,
      "滨": 2618,
      "滩": 2619,
      "滴": 2620,
      "滿": 2621,
      "漂": 2622,
      "漆": 2623,
      "漉": 2624,
      "漏": 2625,
      "漓": 2626,
      "演": 2627,
      "漕": 2628,
      "漠": 2629,
      "漩": 2630,
      "漪": 2631,
      "漫": 2632,
      "漱": 2633,
      "漾": 2634,
      "潘": 2635,
      "潜": 2636,
      "潢": 2637,
      "潦": 2638,
      "潭": 2639,
      "潮": 2640,
      "潺": 2641,
      "澄": 2642,
      "澈": 2643,
      "澎": 2644,
      "澜": 2645,
      "澡": 2646,
      "澳": 2647,
      "激": 2648,
      "濑": 2649,
      "濒": 2650,
      "濡": 2651,
      "濶": 2652,
      "瀑": 2653,
      "瀚": 2654,
      "灌": 2655,
      "火": 2656,
      "灭": 2657,
      "灯": 2658,
      "灰": 2659,
      "灵": 2660,
      "灶": 2661,
      "灸": 2662,
      "灼": 2663,
      "灾": 2664,
      "灿": 2665,
      "炉": 2666,
      "炊": 2667,
      "炎": 2668,
      "炒": 2669,
      "炖": 2670,
      "炙": 2671,
      "炫": 2672,
      "炬": 2673,
      "炭": 2674,
      "炮": 2675,
      "炸": 2676,
      "点": 2677,
      "為": 2678,
      "炼": 2679,
      "炽": 2680,
      "烁": 2681,
      "烂": 2682,
      "烃": 2683,
      "烈": 2684,
      "烊": 2685,
      "烘": 2686,
      "烙": 2687,
      "烛": 2688,
      "烟": 2689,
      "烤": 2690,
      "烦": 2691,
      "烧": 2692,
      "烩": 2693,
      "烫": 2694,
      "烬": 2695,
      "热": 2696,
      "烯": 2697,
      "烷": 2698,
      "烹": 2699,
      "烽": 2700,
      "焉": 2701,
      "焊": 2702,
      "焕": 2703,
      "焙": 2704,
      "焚": 2705,
      "無": 2706,
      "焦": 2707,
      "焰": 2708,
      "然": 2709,
      "煌": 2710,
      "煎": 2711,
      "煞": 2712,
      "煤": 2713,
      "煦": 2714,
      "照": 2715,
      "煮": 2716,
      "煽": 2717,
      "熄": 2718,
      "熊": 2719,
      "熏": 2720,
      "熔": 2721,
      "熙": 2722,
      "熟": 2723,
      "熠": 2724,
      "熨": 2725,
      "熬": 2726,
      "熵": 2727,
      "燃": 2728,
      "燎": 2729,
      "燕": 2730,
      "燥": 2731,
      "燧": 2732,
      "爆": 2733,
      "爛": 2734,
      "爪": 2735,
      "爬": 2736,
      "爱": 2737,
      "爲": 2738,
      "爵": 2739,
      "父": 2740,
      "爷": 2741,
      "爸": 2742,
      "爹": 2743,
      "爽": 2744,
      "爾": 2745,
      "牆": 2746,
      "片": 2747,
      "版": 2748,
      "牌": 2749,
      "牍": 2750,
      "牒": 2751,
      "牙": 2752,
      "牛": 2753,
      "牟": 2754,
      "牠": 2755,
      "牡": 2756,
      "牢": 2757,
      "牦": 2758,
      "牧": 2759,
      "物": 2760,
      "牲": 2761,
      "牵": 2762,
      "特": 2763,
      "牺": 2764,
      "犀": 2765,
      "犁": 2766,
      "犄": 2767,
      "犊": 2768,
      "犒": 2769,
      "犬": 2770,
      "犯": 2771,
      "状": 2772,
      "犷": 2773,
      "犸": 2774,
      "犹": 2775,
      "狀": 2776,
      "狂": 2777,
      "狄": 2778,
      "狈": 2779,
      "狐": 2780,
      "狒": 2781,
      "狓": 2782,
      "狗": 2783,
      "狙": 2784,
      "狞": 2785,
      "狠": 2786,
      "狡": 2787,
      "狩": 2788,
      "独": 2789,
      "狭": 2790,
      "狮": 2791,
      "狰": 2792,
      "狱": 2793,
      "狸": 2794,
      "狼": 2795,
      "猁": 2796,
      "猎": 2797,
      "猕": 2798,
      "猖": 2799,
      "猛": 2800,
      "猜": 2801,
      "猝": 2802,
      "猞": 2803,
      "猥": 2804,
      "猩": 2805,
      "猪": 2806,
      "猫": 2807,
      "猬": 2808,
      "献": 2809,
      "猴": 2810,
      "猾": 2811,
      "猿": 2812,
      "獒": 2813,
      "獗": 2814,
      "獠": 2815,
      "獭": 2816,
      "獲": 2817,
      "獾": 2818,
      "玄": 2819,
      "玆": 2820,
      "率": 2821,
      "玉": 2822,
      "王": 2823,
      "玎": 2824,
      "玑": 2825,
      "玖": 2826,
      "玛": 2827,
      "玩": 2828,
      "玫": 2829,
      "环": 2830,
      "现": 2831,
      "玲": 2832,
      "玳": 2833,
      "玷": 2834,
      "玺": 2835,
      "玻": 2836,
      "珀": 2837,
      "珂": 2838,
      "珈": 2839,
      "珉": 2840,
      "珊": 2841,
      "珍": 2842,
      "珐": 2843,
      "珑": 2844,
      "珞": 2845,
      "珠": 2846,
      "班": 2847,
      "現": 2848,
      "球": 2849,
      "琅": 2850,
      "理": 2851,
      "琉": 2852,
      "琐": 2853,
      "琢": 2854,
      "琥": 2855,
      "琦": 2856,
      "琪": 2857,
      "琳": 2858,
      "琴": 2859,
      "琵": 2860,
      "琶": 2861,
      "琼": 2862,
      "瑁": 2863,
      "瑕": 2864,
      "瑙": 2865,
      "瑚": 2866,
      "瑜": 2867,
      "瑞": 2868,
      "瑟": 2869,
      "瑰": 2870,
      "璀": 2871,
      "璃": 2872,
      "璐": 2873,
      "璜": 2874,
      "璞": 2875,
      "璧": 2876,
      "璨": 2877,
      "瓜": 2878,
      "瓢": 2879,
      "瓣": 2880,
      "瓦": 2881,
      "瓮": 2882,
      "瓶": 2883,
      "瓷": 2884,
      "甄": 2885,
      "甘": 2886,
      "甚": 2887,
      "甜": 2888,
      "生": 2889,
      "甥": 2890,
      "用": 2891,
      "甩": 2892,
      "甫": 2893,
      "甭": 2894,
      "田": 2895,
      "由": 2896,
      "甲": 2897,
      "申": 2898,
      "电": 2899,
      "男": 2900,
      "甸": 2901,
      "画": 2902,
      "甾": 2903,
      "畅": 2904,
      "界": 2905,
      "畏": 2906,
      "畔": 2907,
      "留": 2908,
      "畜": 2909,
      "略": 2910,
      "畦": 2911,
      "番": 2912,
      "畴": 2913,
      "當": 2914,
      "畸": 2915,
      "疆": 2916,
      "疏": 2917,
      "疑": 2918,
      "疗": 2919,
      "疙": 2920,
      "疚": 2921,
      "疝": 2922,
      "疟": 2923,
      "疡": 2924,
      "疣": 2925,
      "疤": 2926,
      "疥": 2927,
      "疫": 2928,
      "疮": 2929,
      "疯": 2930,
      "疱": 2931,
      "疲": 2932,
      "疵": 2933,
      "疸": 2934,
      "疹": 2935,
      "疼": 2936,
      "疽": 2937,
      "疾": 2938,
      "痂": 2939,
      "病": 2940,
      "症": 2941,
      "痉": 2942,
      "痊": 2943,
      "痍": 2944,
      "痒": 2945,
      "痕": 2946,
      "痘": 2947,
      "痛": 2948,
      "痢": 2949,
      "痣": 2950,
      "痤": 2951,
      "痨": 2952,
      "痪": 2953,
      "痫": 2954,
      "痰": 2955,
      "痴": 2956,
      "痹": 2957,
      "痼": 2958,
      "痿": 2959,
      "瘀": 2960,
      "瘁": 2961,
      "瘋": 2962,
      "瘘": 2963,
      "瘟": 2964,
      "瘠": 2965,
      "瘤": 2966,
      "瘦": 2967,
      "瘩": 2968,
      "瘪": 2969,
      "瘫": 2970,
      "瘸": 2971,
      "瘾": 2972,
      "療": 2973,
      "癌": 2974,
      "癖": 2975,
      "癢": 2976,
      "癣": 2977,
      "癫": 2978,
      "癮": 2979,
      "登": 2980,
      "發": 2981,
      "白": 2982,
      "百": 2983,
      "皂": 2984,
      "的": 2985,
      "皆": 2986,
      "皇": 2987,
      "皈": 2988,
      "皎": 2989,
      "皓": 2990,
      "皙": 2991,
      "皮": 2992,
      "皱": 2993,
      "皿": 2994,
      "盆": 2995,
      "盈": 2996,
      "益": 2997,
      "盎": 2998,
      "盏": 2999,
      "盐": 3000,
      "监": 3001,
      "盒": 3002,
      "盔": 3003,
      "盖": 3004,
      "盗": 3005,
      "盘": 3006,
      "盛": 3007,
      "盟": 3008,
      "盡": 3009,
      "盤": 3010,
      "盥": 3011,
      "目": 3012,
      "盯": 3013,
      "盲": 3014,
      "直": 3015,
      "相": 3016,
      "盹": 3017,
      "盼": 3018,
      "盾": 3019,
      "省": 3020,
      "眇": 3021,
      "眈": 3022,
      "眉": 3023,
      "看": 3024,
      "真": 3025,
      "眠": 3026,
      "眨": 3027,
      "眩": 3028,
      "眯": 3029,
      "眶": 3030,
      "眷": 3031,
      "眸": 3032,
      "眺": 3033,
      "眼": 3034,
      "着": 3035,
      "睁": 3036,
      "睐": 3037,
      "睑": 3038,
      "睛": 3039,
      "睡": 3040,
      "督": 3041,
      "睦": 3042,
      "睪": 3043,
      "睫": 3044,
      "睬": 3045,
      "睹": 3046,
      "睽": 3047,
      "睾": 3048,
      "睿": 3049,
      "瞄": 3050,
      "瞅": 3051,
      "瞌": 3052,
      "瞎": 3053,
      "瞒": 3054,
      "瞟": 3055,
      "瞠": 3056,
      "瞥": 3057,
      "瞧": 3058,
      "瞩": 3059,
      "瞪": 3060,
      "瞬": 3061,
      "瞭": 3062,
      "瞰": 3063,
      "瞳": 3064,
      "瞻": 3065,
      "矗": 3066,
      "矛": 3067,
      "矜": 3068,
      "矢": 3069,
      "知": 3070,
      "矩": 3071,
      "矫": 3072,
      "短": 3073,
      "矮": 3074,
      "石": 3075,
      "矶": 3076,
      "矽": 3077,
      "矿": 3078,
      "码": 3079,
      "砂": 3080,
      "砌": 3081,
      "砍": 3082,
      "砒": 3083,
      "研": 3084,
      "砖": 3085,
      "砜": 3086,
      "砝": 3087,
      "砥": 3088,
      "砧": 3089,
      "砭": 3090,
      "砰": 3091,
      "破": 3092,
      "砷": 3093,
      "砸": 3094,
      "砺": 3095,
      "砾": 3096,
      "础": 3097,
      "硅": 3098,
      "硌": 3099,
      "硒": 3100,
      "硕": 3101,
      "硝": 3102,
      "硫": 3103,
      "硬": 3104,
      "确": 3105,
      "硼": 3106,
      "碉": 3107,
      "碌": 3108,
      "碍": 3109,
      "碎": 3110,
      "碑": 3111,
      "碗": 3112,
      "碘": 3113,
      "碛": 3114,
      "碟": 3115,
      "碧": 3116,
      "碰": 3117,
      "碱": 3118,
      "碳": 3119,
      "碼": 3120,
      "碾": 3121,
      "磁": 3122,
      "磅": 3123,
      "磋": 3124,
      "磐": 3125,
      "磕": 3126,
      "磨": 3127,
      "磷": 3128,
      "磺": 3129,
      "礁": 3130,
      "礙": 3131,
      "礴": 3132,
      "示": 3133,
      "礼": 3134,
      "社": 3135,
      "祀": 3136,
      "祂": 3137,
      "祈": 3138,
      "祉": 3139,
      "祕": 3140,
      "祖": 3141,
      "祗": 3142,
      "祛": 3143,
      "祝": 3144,
      "神": 3145,
      "祟": 3146,
      "祥": 3147,
      "票": 3148,
      "祭": 3149,
      "祷": 3150,
      "祸": 3151,
      "禀": 3152,
      "禁": 3153,
      "禄": 3154,
      "禅": 3155,
      "福": 3156,
      "禧": 3157,
      "离": 3158,
      "禽": 3159,
      "禾": 3160,
      "秀": 3161,
      "私": 3162,
      "秃": 3163,
      "秆": 3164,
      "秉": 3165,
      "秋": 3166,
      "种": 3167,
      "科": 3168,
      "秒": 3169,
      "秘": 3170,
      "租": 3171,
      "秤": 3172,
      "秦": 3173,
      "秩": 3174,
      "积": 3175,
      "称": 3176,
      "秸": 3177,
      "移": 3178,
      "秽": 3179,
      "稀": 3180,
      "程": 3181,
      "稍": 3182,
      "税": 3183,
      "稔": 3184,
      "稚": 3185,
      "稠": 3186,
      "稣": 3187,
      "種": 3188,
      "稳": 3189,
      "稹": 3190,
      "稻": 3191,
      "稼": 3192,
      "稽": 3193,
      "稿": 3194,
      "穆": 3195,
      "穗": 3196,
      "穴": 3197,
      "究": 3198,
      "穷": 3199,
      "穹": 3200,
      "空": 3201,
      "穿": 3202,
      "突": 3203,
      "窃": 3204,
      "窄": 3205,
      "窍": 3206,
      "窑": 3207,
      "窒": 3208,
      "窖": 3209,
      "窗": 3210,
      "窘": 3211,
      "窜": 3212,
      "窝": 3213,
      "窟": 3214,
      "窣": 3215,
      "窥": 3216,
      "窦": 3217,
      "窪": 3218,
      "窸": 3219,
      "窿": 3220,
      "立": 3221,
      "竖": 3222,
      "站": 3223,
      "竞": 3224,
      "竟": 3225,
      "章": 3226,
      "竣": 3227,
      "童": 3228,
      "竭": 3229,
      "端": 3230,
      "竹": 3231,
      "竺": 3232,
      "竽": 3233,
      "竿": 3234,
      "笃": 3235,
      "笆": 3236,
      "笋": 3237,
      "笑": 3238,
      "笔": 3239,
      "笙": 3240,
      "笛": 3241,
      "符": 3242,
      "笨": 3243,
      "第": 3244,
      "笺": 3245,
      "笼": 3246,
      "等": 3247,
      "筋": 3248,
      "筏": 3249,
      "筐": 3250,
      "筑": 3251,
      "筒": 3252,
      "答": 3253,
      "策": 3254,
      "筛": 3255,
      "筝": 3256,
      "筵": 3257,
      "筷": 3258,
      "筹": 3259,
      "签": 3260,
      "简": 3261,
      "箍": 3262,
      "箔": 3263,
      "算": 3264,
      "管": 3265,
      "箩": 3266,
      "箭": 3267,
      "箱": 3268,
      "箴": 3269,
      "箸": 3270,
      "篆": 3271,
      "篇": 3272,
      "篓": 3273,
      "篝": 3274,
      "篡": 3275,
      "篮": 3276,
      "篱": 3277,
      "篷": 3278,
      "簇": 3279,
      "簟": 3280,
      "簧": 3281,
      "簪": 3282,
      "簸": 3283,
      "簿": 3284,
      "籁": 3285,
      "籍": 3286,
      "米": 3287,
      "类": 3288,
      "籽": 3289,
      "粉": 3290,
      "粒": 3291,
      "粕": 3292,
      "粗": 3293,
      "粘": 3294,
      "粝": 3295,
      "粟": 3296,
      "粥": 3297,
      "粪": 3298,
      "粮": 3299,
      "粱": 3300,
      "粹": 3301,
      "粽": 3302,
      "精": 3303,
      "糅": 3304,
      "糊": 3305,
      "糕": 3306,
      "糖": 3307,
      "糗": 3308,
      "糙": 3309,
      "糜": 3310,
      "糟": 3311,
      "糠": 3312,
      "系": 3313,
      "紀": 3314,
      "約": 3315,
      "紅": 3316,
      "紊": 3317,
      "納": 3318,
      "級": 3319,
      "素": 3320,
      "索": 3321,
      "紧": 3322,
      "紫": 3323,
      "累": 3324,
      "細": 3325,
      "紹": 3326,
      "終": 3327,
      "組": 3328,
      "絡": 3329,
      "給": 3330,
      "絮": 3331,
      "統": 3332,
      "維": 3333,
      "縮": 3334,
      "繁": 3335,
      "織": 3336,
      "纂": 3337,
      "纠": 3338,
      "红": 3339,
      "纣": 3340,
      "纤": 3341,
      "约": 3342,
      "级": 3343,
      "纨": 3344,
      "纪": 3345,
      "纫": 3346,
      "纬": 3347,
      "纭": 3348,
      "纯": 3349,
      "纰": 3350,
      "纱": 3351,
      "纲": 3352,
      "纳": 3353,
      "纵": 3354,
      "纶": 3355,
      "纷": 3356,
      "纸": 3357,
      "纹": 3358,
      "纺": 3359,
      "纽": 3360,
      "纾": 3361,
      "线": 3362,
      "练": 3363,
      "组": 3364,
      "绅": 3365,
      "细": 3366,
      "织": 3367,
      "终": 3368,
      "绉": 3369,
      "绊": 3370,
      "绌": 3371,
      "绍": 3372,
      "绎": 3373,
      "经": 3374,
      "绑": 3375,
      "绒": 3376,
      "结": 3377,
      "绔": 3378,
      "绕": 3379,
      "绘": 3380,
      "给": 3381,
      "绚": 3382,
      "络": 3383,
      "绝": 3384,
      "绞": 3385,
      "统": 3386,
      "绢": 3387,
      "绣": 3388,
      "绦": 3389,
      "继": 3390,
      "绩": 3391,
      "绪": 3392,
      "续": 3393,
      "绮": 3394,
      "绯": 3395,
      "绰": 3396,
      "绳": 3397,
      "维": 3398,
      "绵": 3399,
      "绷": 3400,
      "绸": 3401,
      "绻": 3402,
      "综": 3403,
      "绽": 3404,
      "绿": 3405,
      "缀": 3406,
      "缄": 3407,
      "缅": 3408,
      "缆": 3409,
      "缇": 3410,
      "缈": 3411,
      "缉": 3412,
      "缎": 3413,
      "缓": 3414,
      "缔": 3415,
      "缕": 3416,
      "编": 3417,
      "缘": 3418,
      "缚": 3419,
      "缛": 3420,
      "缜": 3421,
      "缝": 3422,
      "缠": 3423,
      "缤": 3424,
      "缥": 3425,
      "缦": 3426,
      "缧": 3427,
      "缨": 3428,
      "缩": 3429,
      "缪": 3430,
      "缭": 3431,
      "缮": 3432,
      "缰": 3433,
      "缴": 3434,
      "缸": 3435,
      "缺": 3436,
      "罂": 3437,
      "罄": 3438,
      "罅": 3439,
      "罐": 3440,
      "网": 3441,
      "罔": 3442,
      "罕": 3443,
      "罗": 3444,
      "罚": 3445,
      "罢": 3446,
      "罩": 3447,
      "罪": 3448,
      "置": 3449,
      "署": 3450,
      "罹": 3451,
      "羁": 3452,
      "羅": 3453,
      "羊": 3454,
      "羌": 3455,
      "美": 3456,
      "羔": 3457,
      "羚": 3458,
      "羞": 3459,
      "羟": 3460,
      "羡": 3461,
      "群": 3462,
      "羧": 3463,
      "羯": 3464,
      "羸": 3465,
      "羹": 3466,
      "羽": 3467,
      "翁": 3468,
      "翅": 3469,
      "翌": 3470,
      "翔": 3471,
      "翘": 3472,
      "翠": 3473,
      "翡": 3474,
      "翩": 3475,
      "翰": 3476,
      "翱": 3477,
      "翳": 3478,
      "翻": 3479,
      "翼": 3480,
      "耀": 3481,
      "老": 3482,
      "考": 3483,
      "者": 3484,
      "耆": 3485,
      "而": 3486,
      "耍": 3487,
      "耐": 3488,
      "耕": 3489,
      "耗": 3490,
      "耘": 3491,
      "耙": 3492,
      "耦": 3493,
      "耨": 3494,
      "耳": 3495,
      "耶": 3496,
      "耷": 3497,
      "耸": 3498,
      "耻": 3499,
      "耽": 3500,
      "耿": 3501,
      "聆": 3502,
      "聊": 3503,
      "聋": 3504,
      "职": 3505,
      "联": 3506,
      "聖": 3507,
      "聘": 3508,
      "聚": 3509,
      "聪": 3510,
      "聿": 3511,
      "肃": 3512,
      "肆": 3513,
      "肇": 3514,
      "肉": 3515,
      "肋": 3516,
      "肌": 3517,
      "肓": 3518,
      "肖": 3519,
      "肘": 3520,
      "肚": 3521,
      "肛": 3522,
      "肝": 3523,
      "肠": 3524,
      "股": 3525,
      "肢": 3526,
      "肤": 3527,
      "肥": 3528,
      "肩": 3529,
      "肪": 3530,
      "肮": 3531,
      "肯": 3532,
      "肱": 3533,
      "育": 3534,
      "肴": 3535,
      "肺": 3536,
      "肽": 3537,
      "肾": 3538,
      "肿": 3539,
      "胀": 3540,
      "胁": 3541,
      "胃": 3542,
      "胆": 3543,
      "背": 3544,
      "胍": 3545,
      "胎": 3546,
      "胖": 3547,
      "胚": 3548,
      "胜": 3549,
      "胝": 3550,
      "胞": 3551,
      "胡": 3552,
      "胥": 3553,
      "胧": 3554,
      "胭": 3555,
      "胰": 3556,
      "胱": 3557,
      "胳": 3558,
      "胶": 3559,
      "胸": 3560,
      "胺": 3561,
      "胼": 3562,
      "能": 3563,
      "脂": 3564,
      "脆": 3565,
      "脉": 3566,
      "脊": 3567,
      "脏": 3568,
      "脐": 3569,
      "脑": 3570,
      "脓": 3571,
      "脖": 3572,
      "脚": 3573,
      "脯": 3574,
      "脱": 3575,
      "脸": 3576,
      "脾": 3577,
      "腆": 3578,
      "腈": 3579,
      "腊": 3580,
      "腋": 3581,
      "腌": 3582,
      "腐": 3583,
      "腑": 3584,
      "腓": 3585,
      "腔": 3586,
      "腕": 3587,
      "腥": 3588,
      "腭": 3589,
      "腮": 3590,
      "腰": 3591,
      "腱": 3592,
      "腹": 3593,
      "腺": 3594,
      "腻": 3595,
      "腼": 3596,
      "腾": 3597,
      "腿": 3598,
      "膀": 3599,
      "膈": 3600,
      "膊": 3601,
      "膏": 3602,
      "膛": 3603,
      "膜": 3604,
      "膝": 3605,
      "膦": 3606,
      "膨": 3607,
      "膳": 3608,
      "膺": 3609,
      "臀": 3610,
      "臂": 3611,
      "臃": 3612,
      "臆": 3613,
      "臊": 3614,
      "臌": 3615,
      "臣": 3616,
      "自": 3617,
      "臭": 3618,
      "至": 3619,
      "致": 3620,
      "臻": 3621,
      "臼": 3622,
      "舀": 3623,
      "舅": 3624,
      "舆": 3625,
      "與": 3626,
      "興": 3627,
      "舌": 3628,
      "舍": 3629,
      "舒": 3630,
      "舔": 3631,
      "舛": 3632,
      "舜": 3633,
      "舞": 3634,
      "舟": 3635,
      "航": 3636,
      "般": 3637,
      "舰": 3638,
      "舱": 3639,
      "舵": 3640,
      "舶": 3641,
      "舷": 3642,
      "船": 3643,
      "艄": 3644,
      "艇": 3645,
      "艘": 3646,
      "艮": 3647,
      "良": 3648,
      "艰": 3649,
      "色": 3650,
      "艳": 3651,
      "艺": 3652,
      "艾": 3653,
      "节": 3654,
      "芋": 3655,
      "芒": 3656,
      "芙": 3657,
      "芜": 3658,
      "芝": 3659,
      "芥": 3660,
      "芦": 3661,
      "芫": 3662,
      "芬": 3663,
      "芭": 3664,
      "芯": 3665,
      "花": 3666,
      "芳": 3667,
      "芸": 3668,
      "芹": 3669,
      "芽": 3670,
      "苇": 3671,
      "苍": 3672,
      "苏": 3673,
      "苑": 3674,
      "苒": 3675,
      "苔": 3676,
      "苗": 3677,
      "苛": 3678,
      "苜": 3679,
      "苞": 3680,
      "苟": 3681,
      "苣": 3682,
      "若": 3683,
      "苦": 3684,
      "苪": 3685,
      "苯": 3686,
      "英": 3687,
      "苷": 3688,
      "苹": 3689,
      "茁": 3690,
      "茂": 3691,
      "范": 3692,
      "茄": 3693,
      "茅": 3694,
      "茉": 3695,
      "茎": 3696,
      "茏": 3697,
      "茛": 3698,
      "茜": 3699,
      "茧": 3700,
      "茨": 3701,
      "茫": 3702,
      "茬": 3703,
      "茱": 3704,
      "茲": 3705,
      "茴": 3706,
      "茵": 3707,
      "茶": 3708,
      "茸": 3709,
      "荆": 3710,
      "草": 3711,
      "荏": 3712,
      "荐": 3713,
      "荑": 3714,
      "荒": 3715,
      "荚": 3716,
      "荞": 3717,
      "荟": 3718,
      "荡": 3719,
      "荣": 3720,
      "荧": 3721,
      "荨": 3722,
      "荫": 3723,
      "药": 3724,
      "荷": 3725,
      "荼": 3726,
      "荽": 3727,
      "莅": 3728,
      "莉": 3729,
      "莊": 3730,
      "莎": 3731,
      "莓": 3732,
      "莞": 3733,
      "莫": 3734,
      "莱": 3735,
      "莲": 3736,
      "莴": 3737,
      "获": 3738,
      "莺": 3739,
      "莽": 3740,
      "菁": 3741,
      "菅": 3742,
      "菇": 3743,
      "菊": 3744,
      "菌": 3745,
      "菜": 3746,
      "菠": 3747,
      "菡": 3748,
      "菩": 3749,
      "菱": 3750,
      "菲": 3751,
      "萃": 3752,
      "萄": 3753,
      "萌": 3754,
      "萍": 3755,
      "萎": 3756,
      "萝": 3757,
      "萡": 3758,
      "萤": 3759,
      "营": 3760,
      "萦": 3761,
      "萧": 3762,
      "萨": 3763,
      "萬": 3764,
      "萸": 3765,
      "落": 3766,
      "葆": 3767,
      "葉": 3768,
      "著": 3769,
      "葛": 3770,
      "葡": 3771,
      "董": 3772,
      "葩": 3773,
      "葫": 3774,
      "葬": 3775,
      "葱": 3776,
      "葵": 3777,
      "葺": 3778,
      "蒂": 3779,
      "蒙": 3780,
      "蒜": 3781,
      "蒲": 3782,
      "蒸": 3783,
      "蒿": 3784,
      "蓄": 3785,
      "蓉": 3786,
      "蓋": 3787,
      "蓓": 3788,
      "蓝": 3789,
      "蓬": 3790,
      "蓭": 3791,
      "蓿": 3792,
      "蔑": 3793,
      "蔓": 3794,
      "蔗": 3795,
      "蔚": 3796,
      "蔡": 3797,
      "蔫": 3798,
      "蔬": 3799,
      "蔷": 3800,
      "蔻": 3801,
      "蔼": 3802,
      "蔽": 3803,
      "蕃": 3804,
      "蕈": 3805,
      "蕉": 3806,
      "蕊": 3807,
      "蕙": 3808,
      "蕨": 3809,
      "蕴": 3810,
      "蕾": 3811,
      "薄": 3812,
      "薇": 3813,
      "薛": 3814,
      "薪": 3815,
      "薮": 3816,
      "薯": 3817,
      "藉": 3818,
      "藏": 3819,
      "藐": 3820,
      "藓": 3821,
      "藕": 3822,
      "藜": 3823,
      "藝": 3824,
      "藤": 3825,
      "藩": 3826,
      "藻": 3827,
      "蘑": 3828,
      "蘭": 3829,
      "蘸": 3830,
      "虎": 3831,
      "虏": 3832,
      "虐": 3833,
      "虑": 3834,
      "虔": 3835,
      "虚": 3836,
      "虫": 3837,
      "虱": 3838,
      "虹": 3839,
      "虽": 3840,
      "虾": 3841,
      "蚀": 3842,
      "蚁": 3843,
      "蚂": 3844,
      "蚊": 3845,
      "蚌": 3846,
      "蚓": 3847,
      "蚕": 3848,
      "蚜": 3849,
      "蚣": 3850,
      "蚤": 3851,
      "蚪": 3852,
      "蚯": 3853,
      "蚱": 3854,
      "蛀": 3855,
      "蛄": 3856,
      "蛆": 3857,
      "蛇": 3858,
      "蛊": 3859,
      "蛋": 3860,
      "蛎": 3861,
      "蛔": 3862,
      "蛙": 3863,
      "蛛": 3864,
      "蛞": 3865,
      "蛟": 3866,
      "蛤": 3867,
      "蛭": 3868,
      "蛮": 3869,
      "蛰": 3870,
      "蛹": 3871,
      "蛾": 3872,
      "蜀": 3873,
      "蜂": 3874,
      "蜃": 3875,
      "蜇": 3876,
      "蜈": 3877,
      "蜊": 3878,
      "蜍": 3879,
      "蜒": 3880,
      "蜓": 3881,
      "蜕": 3882,
      "蜗": 3883,
      "蜘": 3884,
      "蜚": 3885,
      "蜜": 3886,
      "蜡": 3887,
      "蜢": 3888,
      "蜣": 3889,
      "蜥": 3890,
      "蜴": 3891,
      "蜷": 3892,
      "蜻": 3893,
      "蜿": 3894,
      "蝇": 3895,
      "蝉": 3896,
      "蝌": 3897,
      "蝎": 3898,
      "蝓": 3899,
      "蝗": 3900,
      "蝙": 3901,
      "蝠": 3902,
      "蝮": 3903,
      "蝴": 3904,
      "蝶": 3905,
      "蝾": 3906,
      "螂": 3907,
      "螃": 3908,
      "螅": 3909,
      "螈": 3910,
      "螋": 3911,
      "融": 3912,
      "螟": 3913,
      "螨": 3914,
      "螫": 3915,
      "螯": 3916,
      "螳": 3917,
      "螺": 3918,
      "螽": 3919,
      "蟀": 3920,
      "蟋": 3921,
      "蟎": 3922,
      "蟑": 3923,
      "蟒": 3924,
      "蟹": 3925,
      "蟾": 3926,
      "蠕": 3927,
      "蠢": 3928,
      "蠼": 3929,
      "血": 3930,
      "衅": 3931,
      "行": 3932,
      "衍": 3933,
      "術": 3934,
      "衔": 3935,
      "街": 3936,
      "衝": 3937,
      "衡": 3938,
      "衣": 3939,
      "补": 3940,
      "表": 3941,
      "衫": 3942,
      "衬": 3943,
      "衰": 3944,
      "衷": 3945,
      "衾": 3946,
      "袁": 3947,
      "袂": 3948,
      "袄": 3949,
      "袋": 3950,
      "袍": 3951,
      "袒": 3952,
      "袖": 3953,
      "袜": 3954,
      "袤": 3955,
      "被": 3956,
      "袭": 3957,
      "袱": 3958,
      "裁": 3959,
      "裂": 3960,
      "装": 3961,
      "裆": 3962,
      "裔": 3963,
      "裕": 3964,
      "裘": 3965,
      "裙": 3966,
      "裝": 3967,
      "裡": 3968,
      "裤": 3969,
      "裨": 3970,
      "裱": 3971,
      "裳": 3972,
      "裸": 3973,
      "裹": 3974,
      "褂": 3975,
      "複": 3976,
      "褐": 3977,
      "褒": 3978,
      "褓": 3979,
      "褛": 3980,
      "褥": 3981,
      "褪": 3982,
      "褴": 3983,
      "褶": 3984,
      "襁": 3985,
      "襟": 3986,
      "西": 3987,
      "要": 3988,
      "覆": 3989,
      "見": 3990,
      "視": 3991,
      "覺": 3992,
      "见": 3993,
      "观": 3994,
      "规": 3995,
      "觅": 3996,
      "视": 3997,
      "览": 3998,
      "觉": 3999,
      "觊": 4000,
      "觎": 4001,
      "觑": 4002,
      "角": 4003,
      "觜": 4004,
      "解": 4005,
      "触": 4006,
      "觸": 4007,
      "言": 4008,
      "訇": 4009,
      "計": 4010,
      "訊": 4011,
      "託": 4012,
      "設": 4013,
      "許": 4014,
      "訴": 4015,
      "詈": 4016,
      "試": 4017,
      "話": 4018,
      "該": 4019,
      "詹": 4020,
      "詺": 4021,
      "誉": 4022,
      "誊": 4023,
      "誌": 4024,
      "認": 4025,
      "誓": 4026,
      "說": 4027,
      "請": 4028,
      "論": 4029,
      "諾": 4030,
      "謝": 4031,
      "警": 4032,
      "譬": 4033,
      "讃": 4034,
      "计": 4035,
      "订": 4036,
      "讣": 4037,
      "认": 4038,
      "讥": 4039,
      "讧": 4040,
      "讨": 4041,
      "让": 4042,
      "讪": 4043,
      "训": 4044,
      "议": 4045,
      "讯": 4046,
      "记": 4047,
      "讲": 4048,
      "讳": 4049,
      "讶": 4050,
      "讷": 4051,
      "许": 4052,
      "讹": 4053,
      "论": 4054,
      "讼": 4055,
      "讽": 4056,
      "设": 4057,
      "访": 4058,
      "诀": 4059,
      "证": 4060,
      "诃": 4061,
      "评": 4062,
      "诅": 4063,
      "识": 4064,
      "诈": 4065,
      "诉": 4066,
      "诊": 4067,
      "诋": 4068,
      "诌": 4069,
      "词": 4070,
      "译": 4071,
      "试": 4072,
      "诗": 4073,
      "诘": 4074,
      "诙": 4075,
      "诚": 4076,
      "话": 4077,
      "诞": 4078,
      "诟": 4079,
      "诠": 4080,
      "诡": 4081,
      "询": 4082,
      "诣": 4083,
      "该": 4084,
      "详": 4085,
      "诧": 4086,
      "诨": 4087,
      "诫": 4088,
      "诬": 4089,
      "语": 4090,
      "误": 4091,
      "诱": 4092,
      "诲": 4093,
      "说": 4094,
      "诵": 4095,
      "诶": 4096,
      "请": 4097,
      "诸": 4098,
      "诺": 4099,
      "读": 4100,
      "诽": 4101,
      "课": 4102,
      "诿": 4103,
      "谁": 4104,
      "调": 4105,
      "谄": 4106,
      "谅": 4107,
      "谈": 4108,
      "谊": 4109,
      "谋": 4110,
      "谍": 4111,
      "谎": 4112,
      "谏": 4113,
      "谐": 4114,
      "谑": 4115,
      "谓": 4116,
      "谔": 4117,
      "谕": 4118,
      "谙": 4119,
      "谚": 4120,
      "谛": 4121,
      "谜": 4122,
      "谟": 4123,
      "谢": 4124,
      "谣": 4125,
      "谤": 4126,
      "谦": 4127,
      "谧": 4128,
      "谨": 4129,
      "谩": 4130,
      "谬": 4131,
      "谭": 4132,
      "谱": 4133,
      "谲": 4134,
      "谴": 4135,
      "谷": 4136,
      "豁": 4137,
      "豆": 4138,
      "豌": 4139,
      "豔": 4140,
      "豚": 4141,
      "象": 4142,
      "豢": 4143,
      "豪": 4144,
      "豫": 4145,
      "豹": 4146,
      "豺": 4147,
      "貂": 4148,
      "貉": 4149,
      "貌": 4150,
      "貘": 4151,
      "貝": 4152,
      "貴": 4153,
      "貼": 4154,
      "資": 4155,
      "賈": 4156,
      "贝": 4157,
      "贞": 4158,
      "负": 4159,
      "贡": 4160,
      "财": 4161,
      "责": 4162,
      "贤": 4163,
      "败": 4164,
      "账": 4165,
      "货": 4166,
      "质": 4167,
      "贩": 4168,
      "贪": 4169,
      "贫": 4170,
      "贬": 4171,
      "购": 4172,
      "贮": 4173,
      "贯": 4174,
      "贱": 4175,
      "贴": 4176,
      "贵": 4177,
      "贷": 4178,
      "贸": 4179,
      "费": 4180,
      "贺": 4181,
      "贻": 4182,
      "贼": 4183,
      "贾": 4184,
      "贿": 4185,
      "赀": 4186,
      "赁": 4187,
      "赂": 4188,
      "赃": 4189,
      "资": 4190,
      "赈": 4191,
      "赊": 4192,
      "赋": 4193,
      "赌": 4194,
      "赎": 4195,
      "赏": 4196,
      "赐": 4197,
      "赔": 4198,
      "赖": 4199,
      "赘": 4200,
      "赚": 4201,
      "赛": 4202,
      "赝": 4203,
      "赞": 4204,
      "赠": 4205,
      "赡": 4206,
      "赢": 4207,
      "赤": 4208,
      "赦": 4209,
      "赫": 4210,
      "赭": 4211,
      "走": 4212,
      "赴": 4213,
      "赶": 4214,
      "起": 4215,
      "趁": 4216,
      "趄": 4217,
      "超": 4218,
      "越": 4219,
      "趋": 4220,
      "趔": 4221,
      "趟": 4222,
      "趣": 4223,
      "足": 4224,
      "趴": 4225,
      "趸": 4226,
      "趾": 4227,
      "跃": 4228,
      "跄": 4229,
      "跋": 4230,
      "跌": 4231,
      "跎": 4232,
      "跑": 4233,
      "跚": 4234,
      "跛": 4235,
      "距": 4236,
      "跟": 4237,
      "跤": 4238,
      "跨": 4239,
      "跪": 4240,
      "路": 4241,
      "跳": 4242,
      "践": 4243,
      "跷": 4244,
      "跺": 4245,
      "跻": 4246,
      "踉": 4247,
      "踊": 4248,
      "踌": 4249,
      "踏": 4250,
      "踝": 4251,
      "踞": 4252,
      "踢": 4253,
      "踩": 4254,
      "踪": 4255,
      "踮": 4256,
      "踱": 4257,
      "踵": 4258,
      "踹": 4259,
      "蹂": 4260,
      "蹄": 4261,
      "蹈": 4262,
      "蹉": 4263,
      "蹊": 4264,
      "蹋": 4265,
      "蹒": 4266,
      "蹚": 4267,
      "蹦": 4268,
      "蹩": 4269,
      "蹬": 4270,
      "蹭": 4271,
      "蹲": 4272,
      "蹴": 4273,
      "蹶": 4274,
      "蹼": 4275,
      "蹿": 4276,
      "躁": 4277,
      "躇": 4278,
      "躏": 4279,
      "身": 4280,
      "躬": 4281,
      "躯": 4282,
      "躲": 4283,
      "躶": 4284,
      "躹": 4285,
      "躺": 4286,
      "車": 4287,
      "輕": 4288,
      "轉": 4289,
      "车": 4290,
      "轧": 4291,
      "轨": 4292,
      "轩": 4293,
      "转": 4294,
      "轮": 4295,
      "软": 4296,
      "轰": 4297,
      "轴": 4298,
      "轶": 4299,
      "轻": 4300,
      "载": 4301,
      "轾": 4302,
      "轿": 4303,
      "较": 4304,
      "辄": 4305,
      "辅": 4306,
      "辆": 4307,
      "辈": 4308,
      "辉": 4309,
      "辊": 4310,
      "辍": 4311,
      "辐": 4312,
      "辑": 4313,
      "输": 4314,
      "辕": 4315,
      "辖": 4316,
      "辗": 4317,
      "辘": 4318,
      "辙": 4319,
      "辛": 4320,
      "辜": 4321,
      "辞": 4322,
      "辟": 4323,
      "辣": 4324,
      "辦": 4325,
      "辨": 4326,
      "辩": 4327,
      "辫": 4328,
      "辰": 4329,
      "辱": 4330,
      "边": 4331,
      "辽": 4332,
      "达": 4333,
      "迁": 4334,
      "迂": 4335,
      "迄": 4336,
      "迅": 4337,
      "过": 4338,
      "迈": 4339,
      "迎": 4340,
      "运": 4341,
      "近": 4342,
      "返": 4343,
      "还": 4344,
      "这": 4345,
      "进": 4346,
      "远": 4347,
      "违": 4348,
      "连": 4349,
      "迟": 4350,
      "迢": 4351,
      "迥": 4352,
      "迦": 4353,
      "迪": 4354,
      "迫": 4355,
      "迭": 4356,
      "述": 4357,
      "迳": 4358,
      "迷": 4359,
      "迸": 4360,
      "迹": 4361,
      "追": 4362,
      "退": 4363,
      "送": 4364,
      "适": 4365,
      "逃": 4366,
      "逅": 4367,
      "逆": 4368,
      "选": 4369,
      "逊": 4370,
      "逍": 4371,
      "透": 4372,
      "逐": 4373,
      "递": 4374,
      "途": 4375,
      "逗": 4376,
      "這": 4377,
      "通": 4378,
      "逛": 4379,
      "逝": 4380,
      "逞": 4381,
      "速": 4382,
      "造": 4383,
      "逢": 4384,
      "連": 4385,
      "逮": 4386,
      "進": 4387,
      "逸": 4388,
      "逻": 4389,
      "逼": 4390,
      "逾": 4391,
      "遁": 4392,
      "遂": 4393,
      "遇": 4394,
      "遊": 4395,
      "運": 4396,
      "遍": 4397,
      "過": 4398,
      "遏": 4399,
      "遐": 4400,
      "道": 4401,
      "達": 4402,
      "遗": 4403,
      "遛": 4404,
      "遠": 4405,
      "遢": 4406,
      "遣": 4407,
      "遥": 4408,
      "遨": 4409,
      "適": 4410,
      "遭": 4411,
      "遮": 4412,
      "遴": 4413,
      "遵": 4414,
      "遽": 4415,
      "避": 4416,
      "邀": 4417,
      "邂": 4418,
      "邃": 4419,
      "還": 4420,
      "邓": 4421,
      "邗": 4422,
      "邝": 4423,
      "那": 4424,
      "邦": 4425,
      "邪": 4426,
      "邮": 4427,
      "邱": 4428,
      "邸": 4429,
      "邻": 4430,
      "郁": 4431,
      "郊": 4432,
      "郎": 4433,
      "郑": 4434,
      "郝": 4435,
      "郞": 4436,
      "郡": 4437,
      "部": 4438,
      "郭": 4439,
      "都": 4440,
      "鄂": 4441,
      "鄙": 4442,
      "酊": 4443,
      "酋": 4444,
      "酌": 4445,
      "配": 4446,
      "酐": 4447,
      "酒": 4448,
      "酗": 4449,
      "酚": 4450,
      "酝": 4451,
      "酣": 4452,
      "酥": 4453,
      "酩": 4454,
      "酪": 4455,
      "酬": 4456,
      "酮": 4457,
      "酯": 4458,
      "酰": 4459,
      "酱": 4460,
      "酵": 4461,
      "酶": 4462,
      "酷": 4463,
      "酸": 4464,
      "酿": 4465,
      "醇": 4466,
      "醉": 4467,
      "醋": 4468,
      "醍": 4469,
      "醐": 4470,
      "醒": 4471,
      "醚": 4472,
      "醛": 4473,
      "醣": 4474,
      "醫": 4475,
      "醺": 4476,
      "釆": 4477,
      "采": 4478,
      "釉": 4479,
      "释": 4480,
      "釋": 4481,
      "里": 4482,
      "重": 4483,
      "野": 4484,
      "量": 4485,
      "釐": 4486,
      "金": 4487,
      "釜": 4488,
      "鉄": 4489,
      "鉴": 4490,
      "銥": 4491,
      "鋶": 4492,
      "錫": 4493,
      "錯": 4494,
      "鐘": 4495,
      "鐡": 4496,
      "针": 4497,
      "钉": 4498,
      "钍": 4499,
      "钒": 4500,
      "钓": 4501,
      "钙": 4502,
      "钚": 4503,
      "钛": 4504,
      "钝": 4505,
      "钞": 4506,
      "钟": 4507,
      "钠": 4508,
      "钡": 4509,
      "钢": 4510,
      "钣": 4511,
      "钥": 4512,
      "钦": 4513,
      "钧": 4514,
      "钨": 4515,
      "钩": 4516,
      "钮": 4517,
      "钱": 4518,
      "钳": 4519,
      "钴": 4520,
      "钵": 4521,
      "钶": 4522,
      "钸": 4523,
      "钻": 4524,
      "钼": 4525,
      "钽": 4526,
      "钾": 4527,
      "铀": 4528,
      "铁": 4529,
      "铂": 4530,
      "铃": 4531,
      "铅": 4532,
      "铆": 4533,
      "铇": 4534,
      "铉": 4535,
      "铊": 4536,
      "铋": 4537,
      "铍": 4538,
      "铎": 4539,
      "铐": 4540,
      "铒": 4541,
      "铛": 4542,
      "铜": 4543,
      "铝": 4544,
      "铠": 4545,
      "铣": 4546,
      "铤": 4547,
      "铬": 4548,
      "铭": 4549,
      "铰": 4550,
      "铱": 4551,
      "铲": 4552,
      "银": 4553,
      "铸": 4554,
      "铺": 4555,
      "链": 4556,
      "销": 4557,
      "锁": 4558,
      "锂": 4559,
      "锃": 4560,
      "锄": 4561,
      "锅": 4562,
      "锆": 4563,
      "锇": 4564,
      "锈": 4565,
      "锋": 4566,
      "锌": 4567,
      "锏": 4568,
      "锐": 4569,
      "锑": 4570,
      "锒": 4571,
      "错": 4572,
      "锚": 4573,
      "锝": 4574,
      "锡": 4575,
      "锢": 4576,
      "锣": 4577,
      "锤": 4578,
      "锥": 4579,
      "锦": 4580,
      "锭": 4581,
      "键": 4582,
      "锯": 4583,
      "锰": 4584,
      "锲": 4585,
      "锹": 4586,
      "锻": 4587,
      "镀": 4588,
      "镁": 4589,
      "镂": 4590,
      "镇": 4591,
      "镉": 4592,
      "镊": 4593,
      "镌": 4594,
      "镍": 4595,
      "镐": 4596,
      "镑": 4597,
      "镖": 4598,
      "镜": 4599,
      "镣": 4600,
      "镫": 4601,
      "镭": 4602,
      "镯": 4603,
      "镰": 4604,
      "镳": 4605,
      "镶": 4606,
      "長": 4607,
      "长": 4608,
      "門": 4609,
      "開": 4610,
      "間": 4611,
      "關": 4612,
      "门": 4613,
      "闩": 4614,
      "闪": 4615,
      "闭": 4616,
      "问": 4617,
      "闯": 4618,
      "闰": 4619,
      "闲": 4620,
      "闳": 4621,
      "间": 4622,
      "闵": 4623,
      "闷": 4624,
      "闸": 4625,
      "闹": 4626,
      "闺": 4627,
      "闻": 4628,
      "闽": 4629,
      "阀": 4630,
      "阁": 4631,
      "阂": 4632,
      "阅": 4633,
      "阈": 4634,
      "阉": 4635,
      "阎": 4636,
      "阐": 4637,
      "阑": 4638,
      "阔": 4639,
      "阙": 4640,
      "队": 4641,
      "阪": 4642,
      "阮": 4643,
      "阱": 4644,
      "防": 4645,
      "阳": 4646,
      "阴": 4647,
      "阵": 4648,
      "阶": 4649,
      "阻": 4650,
      "阿": 4651,
      "陀": 4652,
      "附": 4653,
      "际": 4654,
      "陆": 4655,
      "陈": 4656,
      "陋": 4657,
      "陌": 4658,
      "降": 4659,
      "限": 4660,
      "陕": 4661,
      "陛": 4662,
      "陡": 4663,
      "院": 4664,
      "除": 4665,
      "陨": 4666,
      "险": 4667,
      "陪": 4668,
      "陲": 4669,
      "陵": 4670,
      "陶": 4671,
      "陷": 4672,
      "隅": 4673,
      "隆": 4674,
      "随": 4675,
      "隐": 4676,
      "隔": 4677,
      "隘": 4678,
      "隙": 4679,
      "障": 4680,
      "隧": 4681,
      "隨": 4682,
      "隳": 4683,
      "隶": 4684,
      "隻": 4685,
      "隼": 4686,
      "隽": 4687,
      "难": 4688,
      "雀": 4689,
      "雁": 4690,
      "雄": 4691,
      "雅": 4692,
      "集": 4693,
      "雇": 4694,
      "雌": 4695,
      "雍": 4696,
      "雏": 4697,
      "雕": 4698,
      "離": 4699,
      "難": 4700,
      "雨": 4701,
      "雪": 4702,
      "雯": 4703,
      "雳": 4704,
      "零": 4705,
      "雷": 4706,
      "雹": 4707,
      "電": 4708,
      "雾": 4709,
      "需": 4710,
      "霄": 4711,
      "霆": 4712,
      "震": 4713,
      "霉": 4714,
      "霍": 4715,
      "霎": 4716,
      "霓": 4717,
      "霖": 4718,
      "霜": 4719,
      "霞": 4720,
      "露": 4721,
      "霸": 4722,
      "霹": 4723,
      "霾": 4724,
      "青": 4725,
      "靓": 4726,
      "靖": 4727,
      "静": 4728,
      "靛": 4729,
      "非": 4730,
      "靠": 4731,
      "靡": 4732,
      "面": 4733,
      "革": 4734,
      "靴": 4735,
      "靶": 4736,
      "鞋": 4737,
      "鞍": 4738,
      "鞘": 4739,
      "鞠": 4740,
      "鞣": 4741,
      "鞭": 4742,
      "韦": 4743,
      "韧": 4744,
      "韩": 4745,
      "音": 4746,
      "韵": 4747,
      "須": 4748,
      "頸": 4749,
      "顏": 4750,
      "類": 4751,
      "页": 4752,
      "顶": 4753,
      "顷": 4754,
      "项": 4755,
      "顺": 4756,
      "须": 4757,
      "顽": 4758,
      "顾": 4759,
      "顿": 4760,
      "颁": 4761,
      "颂": 4762,
      "预": 4763,
      "颅": 4764,
      "领": 4765,
      "颇": 4766,
      "颈": 4767,
      "颊": 4768,
      "颌": 4769,
      "颏": 4770,
      "颐": 4771,
      "频": 4772,
      "颓": 4773,
      "颖": 4774,
      "颗": 4775,
      "题": 4776,
      "颚": 4777,
      "颜": 4778,
      "额": 4779,
      "颞": 4780,
      "颠": 4781,
      "颤": 4782,
      "颧": 4783,
      "风": 4784,
      "飓": 4785,
      "飕": 4786,
      "飘": 4787,
      "飙": 4788,
      "飚": 4789,
      "飛": 4790,
      "飞": 4791,
      "食": 4792,
      "餐": 4793,
      "餘": 4794,
      "館": 4795,
      "餮": 4796,
      "饕": 4797,
      "饥": 4798,
      "饪": 4799,
      "饭": 4800,
      "饮": 4801,
      "饰": 4802,
      "饱": 4803,
      "饲": 4804,
      "饵": 4805,
      "饶": 4806,
      "饺": 4807,
      "饼": 4808,
      "饿": 4809,
      "馁": 4810,
      "馅": 4811,
      "馆": 4812,
      "馈": 4813,
      "馋": 4814,
      "馏": 4815,
      "馔": 4816,
      "首": 4817,
      "香": 4818,
      "馥": 4819,
      "馨": 4820,
      "馬": 4821,
      "馮": 4822,
      "驗": 4823,
      "驚": 4824,
      "马": 4825,
      "驭": 4826,
      "驮": 4827,
      "驯": 4828,
      "驰": 4829,
      "驱": 4830,
      "驳": 4831,
      "驴": 4832,
      "驶": 4833,
      "驹": 4834,
      "驻": 4835,
      "驼": 4836,
      "驾": 4837,
      "骁": 4838,
      "骂": 4839,
      "骄": 4840,
      "骆": 4841,
      "骇": 4842,
      "骋": 4843,
      "验": 4844,
      "骑": 4845,
      "骗": 4846,
      "骚": 4847,
      "骛": 4848,
      "骡": 4849,
      "骤": 4850,
      "骨": 4851,
      "骰": 4852,
      "骶": 4853,
      "骷": 4854,
      "骸": 4855,
      "骼": 4856,
      "髂": 4857,
      "髅": 4858,
      "髋": 4859,
      "髓": 4860,
      "髖": 4861,
      "高": 4862,
      "髦": 4863,
      "髻": 4864,
      "鬃": 4865,
      "鬣": 4866,
      "鬼": 4867,
      "魁": 4868,
      "魂": 4869,
      "魄": 4870,
      "魅": 4871,
      "魇": 4872,
      "魏": 4873,
      "魔": 4874,
      "魚": 4875,
      "魟": 4876,
      "魨": 4877,
      "魯": 4878,
      "鮮": 4879,
      "鯊": 4880,
      "鯨": 4881,
      "鰺": 4882,
      "鱼": 4883,
      "鱿": 4884,
      "鲁": 4885,
      "鲈": 4886,
      "鲍": 4887,
      "鲎": 4888,
      "鲑": 4889,
      "鲔": 4890,
      "鲛": 4891,
      "鲜": 4892,
      "鲟": 4893,
      "鲤": 4894,
      "鲦": 4895,
      "鲨": 4896,
      "鲭": 4897,
      "鲯": 4898,
      "鲱": 4899,
      "鲶": 4900,
      "鲷": 4901,
      "鲸": 4902,
      "鲹": 4903,
      "鲼": 4904,
      "鲾": 4905,
      "鳀": 4906,
      "鳃": 4907,
      "鳄": 4908,
      "鳅": 4909,
      "鳊": 4910,
      "鳌": 4911,
      "鳍": 4912,
      "鳏": 4913,
      "鳐": 4914,
      "鳕": 4915,
      "鳖": 4916,
      "鳗": 4917,
      "鳝": 4918,
      "鳞": 4919,
      "鳟": 4920,
      "鷉": 4921,
      "鸟": 4922,
      "鸠": 4923,
      "鸡": 4924,
      "鸢": 4925,
      "鸣": 4926,
      "鸥": 4927,
      "鸦": 4928,
      "鸨": 4929,
      "鸩": 4930,
      "鸫": 4931,
      "鸭": 4932,
      "鸯": 4933,
      "鸳": 4934,
      "鸵": 4935,
      "鸸": 4936,
      "鸽": 4937,
      "鸿": 4938,
      "鹃": 4939,
      "鹅": 4940,
      "鹈": 4941,
      "鹉": 4942,
      "鹊": 4943,
      "鹋": 4944,
      "鹏": 4945,
      "鹓": 4946,
      "鹕": 4947,
      "鹜": 4948,
      "鹞": 4949,
      "鹤": 4950,
      "鹦": 4951,
      "鹫": 4952,
      "鹬": 4953,
      "鹭": 4954,
      "鹰": 4955,
      "鹱": 4956,
      "鹳": 4957,
      "鹿": 4958,
      "麋": 4959,
      "麒": 4960,
      "麓": 4961,
      "麝": 4962,
      "麟": 4963,
      "麦": 4964,
      "麸": 4965,
      "麻": 4966,
      "麼": 4967,
      "麽": 4968,
      "黃": 4969,
      "黄": 4970,
      "黍": 4971,
      "黎": 4972,
      "黏": 4973,
      "黑": 4974,
      "黔": 4975,
      "默": 4976,
      "黛": 4977,
      "黝": 4978,
      "點": 4979,
      "黯": 4980,
      "黾": 4981,
      "鼎": 4982,
      "鼓": 4983,
      "鼠": 4984,
      "鼩": 4985,
      "鼬": 4986,
      "鼯": 4987,
      "鼹": 4988,
      "鼻": 4989,
      "鼾": 4990,
      "齐": 4991,
      "齿": 4992,
      "龄": 4993,
      "龅": 4994,
      "龈": 4995,
      "龊": 4996,
      "龌": 4997,
      "龙": 4998,
      "龚": 4999,
      "龛": 5000,
      "龟": 5001,
      "﹐": 5002,
      "﹔": 5003,
      "﹕": 5004,
      "﹖": 5005,
      "﹣": 5006,
      "﻿": 5007,
      "！": 5008,
      "＂": 5009,
      "％": 5010,
      "（": 5011,
      "）": 5012,
      "＋": 5013,
      "，": 5014,
      "－": 5015,
      "．": 5016,
      "／": 5017,
      "０": 5018,
      "１": 5019,
      "２": 5020,
      "３": 5021,
      "５": 5022,
      "６": 5023,
      "７": 5024,
      "８": 5025,
      "９": 5026,
      "：": 5027,
      "；": 5028,
      "＝": 5029,
      "？": 5030,
      "＠": 5031,
      "Ｃ": 5032,
      "Ｍ": 5033,
      "Ｕ": 5034,
      "［": 5035,
      "］": 5036,
      "｀": 5037,
      "｛": 5038,
      "｝": 5039,
      "～": 5040,
      "｡": 5041,
      "｢": 5042,
      "｣": 5043,
      "･": 5044,
      "￥": 5045,
      "￼": 5046,
      "我们": 5047,
      "一个": 5048,
      "他们": 5049,
      "这个": 5050,
      "可以": 5051,
      "这些": 5052,
      "就是": 5053,
      "什么": 5054,
      "因为": 5055,
      "如果": 5056,
      "没有": 5057,
      "所以": 5058,
      "现在": 5059,
      "知道": 5060,
      "这样": 5061,
      "问题": 5062,
      "但是": 5063,
      "不是": 5064,
      "你们": 5065,
      "这是": 5066,
      "世界": 5067,
      "自己": 5068,
      "它们": 5069,
      "非常": 5070,
      "开始": 5071,
      "一些": 5072,
      "需要": 5073,
      "时候": 5074,
      "看到": 5075,
      "可能": 5076,
      "然后": 5077,
      "00": 5078,
      "人们": 5079,
      "那些": 5080,
      "所有": 5081,
      "--": 5082,
      "一种": 5083,
      "已经": 5084,
      "工作": 5085,
      "东西": 5086,
      "很多": 5087,
      "这种": 5088,
      "认为": 5089,
      "发现": 5090,
      "事情": 5091,
      "或者": 5092,
      "研究": 5093,
      "发生": 5094,
      "这里": 5095,
      "不同": 5096,
      "时间": 5097,
      "一样": 5098,
      "国家": 5099,
      "孩子": 5100,
      "如何": 5101,
      "其他": 5102,
      "生活": 5103,
      "重要": 5104,
      "还有": 5105,
      "大家": 5106,
      "那么": 5107,
      "地方": 5108,
      "而且": 5109,
      "美国": 5110,
      "起来": 5111,
      "通过": 5112,
      "告诉": 5113,
      "改变": 5114,
      "设计": 5115,
      "部分": 5116,
      "能够": 5117,
      "方式": 5118,
      "人类": 5119,
      "任何": 5120,
      "事实": 5121,
      "使用": 5122,
      "为什么": 5123,
      "并且": 5124,
      "不会": 5125,
      "关于": 5126,
      "以及": 5127,
      "只是": 5128,
      "系统": 5129,
      "故事": 5130,
      "怎么": 5131,
      "一起": 5132,
      "进行": 5133,
      "一下": 5134,
      "应该": 5135,
      "技术": 5136,
      "数据": 5137,
      "因此": 5138,
      "希望": 5139,
      "社会": 5140,
      "觉得": 5141,
      "那个": 5142,
      "得到": 5143,
      "不能": 5144,
      "必须": 5145,
      "科学": 5146,
      "一次": 5147,
      "成为": 5148,
      "实际": 5149,
      "来说": 5150,
      "正在": 5151,
      "还是": 5152,
      "信息": 5153,
      "真的": 5154,
      "一点": 5155,
      "其中": 5156,
      "方法": 5157,
      "生物": 5158,
      "创造": 5159,
      "对于": 5160,
      "今天": 5161,
      "当然": 5162,
      "喜欢": 5163,
      "公司": 5164,
      "这么": 5165,
      "发展": 5166,
      "完全": 5167,
      "那里": 5168,
      "每个": 5169,
      "20": 5170,
      "谢谢": 5171,
      "甚至": 5172,
      "同时": 5173,
      "存在": 5174,
      "生命": 5175,
      "大脑": 5176,
      "之后": 5177,
      "最后": 5178,
      "事实上": 5179,
      "影响": 5180,
      "一直": 5181,
      "解决": 5182,
      "出来": 5183,
      "想要": 5184,
      "真正": 5185,
      "作为": 5186,
      "经济": 5187,
      "实际上": 5188,
      "帮助": 5189,
      "来自": 5190,
      "找到": 5191,
      "也许": 5192,
      "决定": 5193,
      "情况": 5194,
      "比如": 5195,
      "为了": 5196,
      "了解": 5197,
      "城市": 5198,
      "结果": 5199,
      "机器": 5200,
      "其实": 5201,
      "实验": 5202,
      "简单": 5203,
      "两个": 5204,
      "下来": 5205,
      "只有": 5206,
      "如此": 5207,
      "看看": 5208,
      "选择": 5209,
      "过去": 5210,
      "想法": 5211,
      "意识": 5212,
      "许多": 5213,
      "组织": 5214,
      "动物": 5215,
      "一切": 5216,
      "相信": 5217,
      "19": 5218,
      "整个": 5219,
      "仅仅": 5220,
      "有些": 5221,
      "环境": 5222,
      "过程": 5223,
      "的话": 5224,
      "之前": 5225,
      "当时": 5226,
      "同样": 5227,
      "拥有": 5228,
      "项目": 5229,
      "产生": 5230,
      "政府": 5231,
      "照片": 5232,
      "感觉": 5233,
      "变得": 5234,
      "想象": 5235,
      "原因": 5236,
      "细胞": 5237,
      "于是": 5238,
      "方面": 5239,
      "10": 5240,
      "地球": 5241,
      "未来": 5242,
      "艺术": 5243,
      "全球": 5244,
      "之间": 5245,
      "自然": 5246,
      "无法": 5247,
      "之一": 5248,
      "出现": 5249,
      "朋友": 5250,
      "不过": 5251,
      "理解": 5252,
      "例子": 5253,
      "er": 5254,
      "网络": 5255,
      "能力": 5256,
      "变化": 5257,
      "展示": 5258,
      "教育": 5259,
      "第一": 5260,
      "怎样": 5261,
      "提供": 5262,
      "而是": 5263,
      "学习": 5264,
      "运动": 5265,
      "变成": 5266,
      "建筑": 5267,
      "200": 5268,
      "行为": 5269,
      "第二": 5270,
      "非洲": 5271,
      "学生": 5272,
      "成功": 5273,
      "an": 5274,
      "关系": 5275,
      "..": 5276,
      "计算": 5277,
      "是否": 5278,
      "音乐": 5279,
      "基本": 5280,
      "女性": 5281,
      "意思": 5282,
      "有趣": 5283,
      "基因": 5284,
      "我要": 5285,
      "有人": 5286,
      "思考": 5287,
      "电脑": 5288,
      "美元": 5289,
      "学校": 5290,
      "学家": 5291,
      "科技": 5292,
      "一位": 5293,
      "安全": 5294,
      "经历": 5295,
      "声音": 5296,
      "历史": 5297,
      "空间": 5298,
      "意义": 5299,
      "控制": 5300,
      "意味": 5301,
      "50": 5302,
      "利用": 5303,
      "演讲": 5304,
      "机会": 5305,
      "身体": 5306,
      "更好": 5307,
      "是因为": 5308,
      "我会": 5309,
      "那样": 5310,
      "一天": 5311,
      "建立": 5312,
      "印度": 5313,
      "各种": 5314,
      "她们": 5315,
      "世纪": 5316,
      "令人": 5317,
      "特别": 5318,
      "意味着": 5319,
      "复杂": 5320,
      "健康": 5321,
      "巨大": 5322,
      "带来": 5323,
      "完成": 5324,
      "感到": 5325,
      "制造": 5326,
      "尝试": 5327,
      "确实": 5328,
      "最终": 5329,
      "保护": 5330,
      "宇宙": 5331,
      "游戏": 5332,
      "多少": 5333,
      "主义": 5334,
      "文化": 5335,
      "一件": 5336,
      "几个": 5337,
      "医生": 5338,
      "神经": 5339,
      "参与": 5340,
      "合作": 5341,
      "一定": 5342,
      "活动": 5343,
      "语言": 5344,
      "进入": 5345,
      "个人": 5346,
      "地区": 5347,
      "食物": 5348,
      "目标": 5349,
      "多数": 5350,
      "大学": 5351,
      "获得": 5352,
      "计划": 5353,
      "继续": 5354,
      "中国": 5355,
      "注意": 5356,
      "小时": 5357,
      "政治": 5358,
      "ar": 5359,
      "做到": 5360,
      "中心": 5361,
      "回到": 5362,
      "另外": 5363,
      "模式": 5364,
      "机器人": 5365,
      "大概": 5366,
      "市场": 5367,
      "接受": 5368,
      "解释": 5369,
      "第一个": 5370,
      "联系": 5371,
      "三个": 5372,
      "才能": 5373,
      "听到": 5374,
      "更加": 5375,
      "有点": 5376,
      "看起来": 5377,
      "作用": 5378,
      "家庭": 5379,
      "治疗": 5380,
      "里面": 5381,
      "叫做": 5382,
      "in": 5383,
      "疾病": 5384,
      "然而": 5385,
      "努力": 5386,
      "大约": 5387,
      "工具": 5388,
      "价值": 5389,
      "几乎": 5390,
      "年轻": 5391,
      "重新": 5392,
      "不到": 5393,
      "ED": 5394,
      "000": 5395,
      "首先": 5396,
      "领域": 5397,
      "一部分": 5398,
      "实现": 5399,
      "电影": 5400,
      "on": 5401,
      "生产": 5402,
      "死亡": 5403,
      "十分": 5404,
      "十年": 5405,
      "关注": 5406,
      "反应": 5407,
      "社区": 5408,
      "答案": 5409,
      "数字": 5410,
      "包括": 5411,
      "讨论": 5412,
      "曾经": 5413,
      "作品": 5414,
      "观察": 5415,
      "大多数": 5416,
      "处理": 5417,
      "最大": 5418,
      "每天": 5419,
      "30": 5420,
      "想到": 5421,
      "产品": 5422,
      "TED": 5423,
      "太阳": 5424,
      "总是": 5425,
      "持续": 5426,
      "感谢": 5427,
      "人口": 5428,
      "分享": 5429,
      "力量": 5430,
      "现实": 5431,
      "分钟": 5432,
      "做出": 5433,
      "挑战": 5434,
      "最好": 5435,
      "相当": 5436,
      "自由": 5437,
      "区域": 5438,
      "容易": 5439,
      "或是": 5440,
      "结构": 5441,
      "准备": 5442,
      "不断": 5443,
      "病人": 5444,
      "汽车": 5445,
      "即使": 5446,
      "认识": 5447,
      "大量": 5448,
      "超过": 5449,
      "正是": 5450,
      "不要": 5451,
      "服务": 5452,
      "制作": 5453,
      "某种": 5454,
      "资源": 5455,
      "有关": 5456,
      "观众": 5457,
      "事物": 5458,
      "显示": 5459,
      "比较": 5460,
      "别人": 5461,
      "行动": 5462,
      "一张": 5463,
      "主要": 5464,
      "15": 5465,
      "视频": 5466,
      "这一": 5467,
      "代表": 5468,
      "兴趣": 5469,
      "战争": 5470,
      "时代": 5471,
      "以前": 5472,
      "不可": 5473,
      "将会": 5474,
      "模型": 5475,
      "根本": 5476,
      "那时": 5477,
      "唯一": 5478,
      "一年": 5479,
      "像是": 5480,
      "程度": 5481,
      "第一次": 5482,
      "接下来": 5483,
      "百万": 5484,
      "分子": 5485,
      "身上": 5486,
      "寻找": 5487,
      "支持": 5488,
      "增长": 5489,
      "明白": 5490,
      "大部分": 5491,
      "越来": 5492,
      "不仅仅": 5493,
      "理论": 5494,
      "真实": 5495,
      "越来越": 5496,
      "一段": 5497,
      "精神": 5498,
      "类似": 5499,
      "男人": 5500,
      "考虑": 5501,
      "海洋": 5502,
      "自我": 5503,
      "基础": 5504,
      "知识": 5505,
      "科学家": 5506,
      "发明": 5507,
      "很大": 5508,
      "病毒": 5509,
      "目前": 5510,
      "直到": 5511,
      "观点": 5512,
      "年代": 5513,
      "虽然": 5514,
      "用来": 5515,
      "工程": 5516,
      "或许": 5517,
      "一条": 5518,
      "办法": 5519,
      "女孩": 5520,
      "放在": 5521,
      "电话": 5522,
      "通常": 5523,
      "其它": 5524,
      "机构": 5525,
      "能源": 5526,
      "形成": 5527,
      "纽约": 5528,
      "无论": 5529,
      "上面": 5530,
      "尽管": 5531,
      "达到": 5532,
      "结束": 5533,
      "一只": 5534,
      "投资": 5535,
      "只要": 5536,
      "一名": 5537,
      "哪里": 5538,
      "传统": 5539,
      "计算机": 5540,
      "概念": 5541,
      "女人": 5542,
      "母亲": 5543,
      "创新": 5544,
      "材料": 5545,
      "有着": 5546,
      "en": 5547,
      "记录": 5548,
      "清楚": 5549,
      "看着": 5550,
      "不管": 5551,
      "不再": 5552,
      "不仅": 5553,
      "离开": 5554,
      "测试": 5555,
      "到底": 5556,
      "愿意": 5557,
      "百分": 5558,
      "NA": 5559,
      "手机": 5560,
      "来到": 5561,
      "媒体": 5562,
      "最近": 5563,
      "英国": 5564,
      "角度": 5565,
      "进化": 5566,
      "100": 5567,
      "医疗": 5568,
      "实验室": 5569,
      "应用": 5570,
      "正确": 5571,
      "记得": 5572,
      "速度": 5573,
      "几年": 5574,
      "后来": 5575,
      "年前": 5576,
      "坐在": 5577,
      "物质": 5578,
      "仍然": 5579,
      "关键": 5580,
      "移动": 5581,
      "有效": 5582,
      "领导": 5583,
      "充满": 5584,
      "错误": 5585,
      "谈论": 5586,
      "看见": 5587,
      "等等": 5588,
      "飞行": 5589,
      "名字": 5590,
      "感受": 5591,
      "回答": 5592,
      "不得": 5593,
      "试图": 5594,
      "图片": 5595,
      "导致": 5596,
      "能量": 5597,
      "证明": 5598,
      "数学": 5599,
      "所有人": 5600,
      "电视": 5601,
      "接着": 5602,
      "在于": 5603,
      "具有": 5604,
      "而言": 5605,
      "这张": 5606,
      "父母": 5607,
      "管理": 5608,
      "设备": 5609,
      "保持": 5610,
      "相关": 5611,
      "数量": 5612,
      "一步": 5613,
      "植物": 5614,
      "这件": 5615,
      "伟大": 5616,
      "足够": 5617,
      "连接": 5618,
      "电子": 5619,
      "直接": 5620,
      "面对": 5621,
      "父亲": 5622,
      "增加": 5623,
      "至少": 5624,
      "or": 5625,
      "全世界": 5626,
      "12": 5627,
      "样子": 5628,
      "le": 5629,
      "内容": 5630,
      "那种": 5631,
      "的确": 5632,
      "探索": 5633,
      "民主": 5634,
      "利亚": 5635,
      "交流": 5636,
      "物种": 5637,
      "例如": 5638,
      "共同": 5639,
      "气候": 5640,
      "老师": 5641,
      "建造": 5642,
      "儿童": 5643,
      "现象": 5644,
      "18": 5645,
      "物理": 5646,
      "不想": 5647,
      "药物": 5648,
      "互联": 5649,
      "表现": 5650,
      "范围": 5651,
      "减少": 5652,
      "方向": 5653,
      "本身": 5654,
      "网站": 5655,
      "要求": 5656,
      "癌症": 5657,
      "人员": 5658,
      "功能": 5659,
      "只能": 5660,
      "事件": 5661,
      "40": 5662,
      "好像": 5663,
      "明显": 5664,
      "受到": 5665,
      "当地": 5666,
      "企业": 5667,
      "团队": 5668,
      "这儿": 5669,
      "形式": 5670,
      "某些": 5671,
      "每年": 5672,
      "刚刚": 5673,
      "这项": 5674,
      "造成": 5675,
      "危险": 5676,
      "突然": 5677,
      "不得不": 5678,
      "分析": 5679,
      "欧洲": 5680,
      "永远": 5681,
      "基本上": 5682,
      "人生": 5683,
      "上去": 5684,
      "很快": 5685,
      "斯坦": 5686,
      "飞机": 5687,
      "一项": 5688,
      "如今": 5689,
      "提出": 5690,
      "60": 5691,
      "以后": 5692,
      "其他人": 5693,
      "商业": 5694,
      "过来": 5695,
      "公共": 5696,
      "开发": 5697,
      "是从": 5698,
      "从来": 5699,
      "经常": 5700,
      "肯定": 5701,
      "规模": 5702,
      "互联网": 5703,
      "周围": 5704,
      "困难": 5705,
      "ic": 5706,
      "心理": 5707,
      "时刻": 5708,
      "不用": 5709,
      "确定": 5710,
      "百分之": 5711,
      "位置": 5712,
      "下面": 5713,
      "难以": 5714,
      "使得": 5715,
      "地图": 5716,
      "暴力": 5717,
      "相同": 5718,
      "失去": 5719,
      "正如": 5720,
      "预测": 5721,
      "表达": 5722,
      "DNA": 5723,
      "一般": 5724,
      "一场": 5725,
      "消息": 5726,
      "11": 5727,
      "严重": 5728,
      "方案": 5729,
      "手术": 5730,
      "由于": 5731,
      "尼亚": 5732,
      "组成": 5733,
      "调查": 5734,
      "来看": 5735,
      "真是": 5736,
      "程序": 5737,
      "加入": 5738,
      "梦想": 5739,
      "有个": 5740,
      "上帝": 5741,
      "快乐": 5742,
      "根据": 5743,
      "收入": 5744,
      "正常": 5745,
      "随着": 5746,
      "体验": 5747,
      "各位": 5748,
      "除了": 5749,
      "可是": 5750,
      "眼睛": 5751,
      "另一": 5752,
      "经过": 5753,
      "遇到": 5754,
      "拍摄": 5755,
      "担心": 5756,
      "传播": 5757,
      "国际": 5758,
      "el": 5759,
      "at": 5760,
      "是不是": 5761,
      "状态": 5762,
      "石油": 5763,
      "妈妈": 5764,
      "定义": 5765,
      "现代": 5766,
      "说明": 5767,
      "道德": 5768,
      "英里": 5769,
      "医院": 5770,
      "提高": 5771,
      "软件": 5772,
      "法律": 5773,
      "参加": 5774,
      "面临": 5775,
      "生存": 5776,
      "目的": 5777,
      "系列": 5778,
      "任务": 5779,
      "宗教": 5780,
      "有时": 5781,
      "25": 5782,
      "似乎": 5783,
      "信号": 5784,
      "回来": 5785,
      "相互": 5786,
      "化学": 5787,
      "所说": 5788,
      "那儿": 5789,
      "不错": 5790,
      "描述": 5791,
      "is": 5792,
      "称为": 5793,
      "平均": 5794,
      "思想": 5795,
      "我能": 5796,
      "非常感谢": 5797,
      "想想": 5798,
      "多么": 5799,
      "尤其": 5800,
      "感兴趣": 5801,
      "提到": 5802,
      "幸福": 5803,
      "第三": 5804,
      "风险": 5805,
      "it": 5806,
      "阶段": 5807,
      "收集": 5808,
      "效果": 5809,
      "奇怪": 5810,
      "以来": 5811,
      "全部": 5812,
      "值得": 5813,
      "他人": 5814,
      "某个": 5815,
      "聪明": 5816,
      "标准": 5817,
      "完美": 5818,
      "一旦": 5819,
      "行星": 5820,
      "下去": 5821,
      "新闻": 5822,
      "以为": 5823,
      "一家": 5824,
      "房间": 5825,
      "森林": 5826,
      "生态": 5827,
      "普通": 5828,
      "本书": 5829,
      "训练": 5830,
      "试验": 5831,
      "革命": 5832,
      "美丽": 5833,
      "到达": 5834,
      "强大": 5835,
      "兴奋": 5836,
      "因素": 5837,
      "失败": 5838,
      "还要": 5839,
      "80": 5840,
      "专家": 5841,
      "打开": 5842,
      "水平": 5843,
      "表演": 5844,
      "经验": 5845,
      "各地": 5846,
      "会议": 5847,
      "绿色": 5848,
      "自身": 5849,
      "用于": 5850,
      "...": 5851,
      "妇女": 5852,
      "恐怖": 5853,
      "里斯": 5854,
      "一半": 5855,
      "吸引": 5856,
      "恐惧": 5857,
      "房子": 5858,
      "政策": 5859,
      "假设": 5860,
      "它会": 5861,
      "时期": 5862,
      "图像": 5863,
      "视觉": 5864,
      "记忆": 5865,
      "这次": 5866,
      "绝对": 5867,
      "英尺": 5868,
      "糟糕": 5869,
      "表面": 5870,
      "需求": 5871,
      "小孩": 5872,
      "星期": 5873,
      "oo": 5874,
      "土地": 5875,
      "银行": 5876,
      "不起": 5877,
      "开放": 5878,
      "消失": 5879,
      "质量": 5880,
      "运作": 5881,
      "运用": 5882,
      "显然": 5883,
      "人民": 5884,
      "介绍": 5885,
      "去年": 5886,
      "危机": 5887,
      "两种": 5888,
      "al": 5889,
      "允许": 5890,
      "表明": 5891,
      "鼓掌": 5892,
      "接触": 5893,
      "星球": 5894,
      "am": 5895,
      "别的": 5896,
      "结合": 5897,
      "神奇": 5898,
      "基于": 5899,
      "什么样": 5900,
      "男性": 5901,
      "美好": 5902,
      "es": 5903,
      "压力": 5904,
      "中间": 5905,
      "患者": 5906,
      "所谓": 5907,
      "比如说": 5908,
      "对此": 5909,
      "先生": 5910,
      "空气": 5911,
      "成本": 5912,
      "细菌": 5913,
      "距离": 5914,
      "70": 5915,
      "90": 5916,
      "进步": 5917,
      "一系列": 5918,
      "男孩": 5919,
      "当中": 5920,
      "平等": 5921,
      "心脏": 5922,
      "权利": 5923,
      "之中": 5924,
      "联合": 5925,
      "从而": 5926,
      "动作": 5927,
      "创作": 5928,
      "一代": 5929,
      "医学": 5930,
      "不多": 5931,
      "动力": 5932,
      "角色": 5933,
      "之为": 5934,
      "颜色": 5935,
      "艺术家": 5936,
      "感染": 5937,
      "规则": 5938,
      "四个": 5939,
      "消费": 5940,
      "il": 5941,
      "所在": 5942,
      "话题": 5943,
      "称之为": 5944,
      "工业": 5945,
      "责任": 5946,
      "种族": 5947,
      "一群": 5948,
      "婴儿": 5949,
      "监狱": 5950,
      "就是说": 5951,
      "从未": 5952,
      "办公": 5953,
      "女士": 5954,
      "幸运": 5955,
      "投入": 5956,
      "智慧": 5957,
      "关心": 5958,
      "并非": 5959,
      "花费": 5960,
      "西方": 5961,
      "有时候": 5962,
      "状况": 5963,
      "转变": 5964,
      "体系": 5965,
      "处于": 5966,
      "ac": 5967,
      "建议": 5968,
      "条件": 5969,
      "相反": 5970,
      "艾滋": 5971,
      "装置": 5972,
      "取得": 5973,
      "成长": 5974,
      "特殊": 5975,
      "一份": 5976,
      "公民": 5977,
      "威胁": 5978,
      "形状": 5979,
      "一块": 5980,
      "在座": 5981,
      "彼此": 5982,
      "晚上": 5983,
      "见到": 5984,
      "年轻人": 5985,
      "发出": 5986,
      "同事": 5987,
      "出生": 5988,
      "第二个": 5989,
      "克里斯": 5990,
      "大小": 5991,
      "情绪": 5992,
      "学到": 5993,
      "出去": 5994,
      "表示": 5995,
      "降低": 5996,
      "ou": 5997,
      "和平": 5998,
      "测量": 5999,
      "痛苦": 6000,
      "专业": 6001,
      "对话": 6002,
      "总统": 6003,
      "有意思": 6004,
      "特定": 6005,
      "听说": 6006,
      "不好": 6007,
      "交通": 6008,
      "再次": 6009,
      "多年": 6010,
      "思维": 6011,
      "每次": 6012,
      "高兴": 6013,
      "内部": 6014,
      "刚才": 6015,
      "怎么样": 6016,
      "as": 6017,
      "人会": 6018,
      "塑料": 6019,
      "差不多": 6020,
      "互动": 6021,
      "相似": 6022,
      "负责": 6023,
      "避免": 6024,
      "看来": 6025,
      "很难": 6026,
      "下降": 6027,
      "可怕": 6028,
      "害怕": 6029,
      "属于": 6030,
      "物体": 6031,
      "相对": 6032,
      "看上去": 6033,
      "生长": 6034,
      "很棒": 6035,
      "蛋白": 6036,
      "冲突": 6037,
      "互相": 6038,
      "儿子": 6039,
      "讲述": 6040,
      "独立": 6041,
      "积极": 6042,
      "资金": 6043,
      "家里": 6044,
      "回家": 6045,
      "学会": 6046,
      "居住": 6047,
      "竞争": 6048,
      "假如": 6049,
      "屏幕": 6050,
      "设计师": 6051,
      "保证": 6052,
      "博物": 6053,
      "文章": 6054,
      "疯狂": 6055,
      "蓝色": 6056,
      "两年": 6057,
      "基金": 6058,
      "快速": 6059,
      "博物馆": 6060,
      "et": 6061,
      "阅读": 6062,
      "价格": 6063,
      "收到": 6064,
      "长大": 6065,
      "适应": 6066,
      "停止": 6067,
      "毫无": 6068,
      "群体": 6069,
      "太空": 6070,
      "早期": 6071,
      "职业": 6072,
      "家伙": 6073,
      "接近": 6074,
      "运行": 6075,
      "限制": 6076,
      "集中": 6077,
      "世界各地": 6078,
      "操作": 6079,
      "可能性": 6080,
      "之外": 6081,
      "警察": 6082,
      "多样": 6083,
      "广告": 6084,
      "看待": 6085,
      "发表": 6086,
      "杂志": 6087,
      "阿拉": 6088,
      "证据": 6089,
      "这位": 6090,
      "信仰": 6091,
      "设施": 6092,
      "说话": 6093,
      "逐渐": 6094,
      "哪些": 6095,
      "引起": 6096,
      "一生": 6097,
      "火星": 6098,
      "邀请": 6099,
      "阻止": 6100,
      "不够": 6101,
      "同意": 6102,
      "珊瑚": 6103,
      "本质": 6104,
      "行业": 6105,
      "不幸": 6106,
      "模拟": 6107,
      "武器": 6108,
      "理由": 6109,
      "破坏": 6110,
      "背景": 6111,
      "利益": 6112,
      "红色": 6113,
      "任何人": 6114,
      "神经元": 6115,
      "大型": 6116,
      "年龄": 6117,
      "漂亮": 6118,
      "教授": 6119,
      "课程": 6120,
      "呼吸": 6121,
      "办公室": 6122,
      "惊人": 6123,
      "有没有": 6124,
      "财富": 6125,
      "卫生": 6126,
      "就要": 6127,
      "二十": 6128,
      "垃圾": 6129,
      "情感": 6130,
      "老鼠": 6131,
      "同情": 6132,
      "统计": 6133,
      "实在": 6134,
      "社交": 6135,
      "将要": 6136,
      "旅行": 6137,
      "来源": 6138,
      "成员": 6139,
      "惊讶": 6140,
      "做些": 6141,
      "拯救": 6142,
      "相比": 6143,
      "认知": 6144,
      "习惯": 6145,
      "比亚": 6146,
      "结论": 6147,
      "一边": 6148,
      "温度": 6149,
      "部门": 6150,
      "re": 6151,
      "差异": 6152,
      "搜索": 6153,
      "恢复": 6154,
      "节目": 6155,
      "人群": 6156,
      "疫苗": 6157,
      "针对": 6158,
      "仔细": 6159,
      "自动": 6160,
      "面前": 6161,
      "公开": 6162,
      "平衡": 6163,
      "智能": 6164,
      "犯罪": 6165,
      "常常": 6166,
      "思议": 6167,
      "鼓励": 6168,
      "14": 6169,
      "亿美元": 6170,
      "马上": 6171,
      "不可思议": 6172,
      "工程师": 6173,
      "爆炸": 6174,
      "蚂蚁": 6175,
      "16": 6176,
      "文字": 6177,
      "放弃": 6178,
      "核心": 6179,
      "身边": 6180,
      "上升": 6181,
      "不了": 6182,
      "今年": 6183,
      "有所": 6184,
      "英语": 6185,
      "身份": 6186,
      "199": 6187,
      "享受": 6188,
      "报道": 6189,
      "排放": 6190,
      "网上": 6191,
      "记住": 6192,
      "改善": 6193,
      "放到": 6194,
      "日本": 6195,
      "权力": 6196,
      "氧化": 6197,
      "稳定": 6198,
      "内心": 6199,
      "分之一": 6200,
      "星系": 6201,
      "太阳能": 6202,
      "主题": 6203,
      "依赖": 6204,
      "卫星": 6205,
      "建设": 6206,
      "循环": 6207,
      "摄影": 6208,
      "燃料": 6209,
      "给予": 6210,
      "诊断": 6211,
      "艾滋病": 6212,
      "一片": 6213,
      "中有": 6214,
      "文明": 6215,
      "理念": 6216,
      "要是": 6217,
      "公园": 6218,
      "将来": 6219,
      "om": 6220,
      "原始": 6221,
      "层面": 6222,
      "承认": 6223,
      "最高": 6224,
      "演奏": 6225,
      "成果": 6226,
      "打算": 6227,
      "资本": 6228,
      "千万": 6229,
      "ha": 6230,
      "免费": 6231,
      "女儿": 6232,
      "学院": 6233,
      "试着": 6234,
      "一台": 6235,
      "妻子": 6236,
      "找出": 6237,
      "熟悉": 6238,
      "终于": 6239,
      "贫困": 6240,
      "驾驶": 6241,
      "500": 6242,
      "原子": 6243,
      "必要": 6244,
      "个体": 6245,
      "富汗": 6246,
      "对待": 6247,
      "猩猩": 6248,
      "阿富汗": 6249,
      "食品": 6250,
      "检测": 6251,
      "谈谈": 6252,
      "信任": 6253,
      "包含": 6254,
      "各个": 6255,
      "培养": 6256,
      "贫穷": 6257,
      "交易": 6258,
      "原则": 6259,
      "报告": 6260,
      "13": 6261,
      "ed": 6262,
      "比赛": 6263,
      "观念": 6264,
      "2000": 6265,
      "污染": 6266,
      "重复": 6267,
      "具体": 6268,
      "流行": 6269,
      "谷歌": 6270,
      "博士": 6271,
      "小小": 6272,
      "确保": 6273,
      "障碍": 6274,
      "面包": 6275,
      "安德": 6276,
      "巴西": 6277,
      "采取": 6278,
      "也就是说": 6279,
      "家人": 6280,
      "左右": 6281,
      "17": 6282,
      "创建": 6283,
      "扫描": 6284,
      "长期": 6285,
      "气候变化": 6286,
      "好处": 6287,
      "看法": 6288,
      "究竟": 6289,
      "置信": 6290,
      "之所以": 6291,
      "后面": 6292,
      "咖啡": 6293,
      "坚持": 6294,
      "左边": 6295,
      "人物": 6296,
      "位于": 6297,
      "体内": 6298,
      "到处": 6299,
      "拉克": 6300,
      "电池": 6301,
      "区别": 6302,
      "好奇": 6303,
      "理想": 6304,
      "重大": 6305,
      "制度": 6306,
      "器官": 6307,
      "消耗": 6308,
      "元素": 6309,
      "农业": 6310,
      "反对": 6311,
      "很少": 6312,
      "肿瘤": 6313,
      "那天": 6314,
      "采用": 6315,
      "os": 6316,
      "从事": 6317,
      "工厂": 6318,
      "早上": 6319,
      "he": 6320,
      "一句": 6321,
      "创意": 6322,
      "留下": 6323,
      "至于": 6324,
      "生物学": 6325,
      "复制": 6326,
      "比例": 6327,
      "全新": 6328,
      "最初": 6329,
      "自行": 6330,
      "记者": 6331,
      "走进": 6332,
      "有用": 6333,
      "用户": 6334,
      "笑声": 6335,
      "而已": 6336,
      "超级": 6337,
      "成就": 6338,
      "满足": 6339,
      "展现": 6340,
      "往往": 6341,
      "援助": 6342,
      "事业": 6343,
      "漫画": 6344,
      "细节": 6345,
      "这点": 6346,
      "一刻": 6347,
      "昆虫": 6348,
      "创造力": 6349,
      "难以置信": 6350,
      "变革": 6351,
      "右边": 6352,
      "各样": 6353,
      "打印": 6354,
      "背后": 6355,
      "附近": 6356,
      "CA": 6357,
      "得以": 6358,
      "贡献": 6359,
      "ter": 6360,
      "一百": 6361,
      "并不": 6362,
      "沟通": 6363,
      "激动": 6364,
      "上万": 6365,
      "准确": 6366,
      "所知": 6367,
      "英雄": 6368,
      "罗斯": 6369,
      "一段时间": 6370,
      "人工": 6371,
      "大气": 6372,
      "皮肤": 6373,
      "获取": 6374,
      "进一步": 6375,
      "高度": 6376,
      "阿拉伯": 6377,
      "一部": 6378,
      "伦敦": 6379,
      "德国": 6380,
      "性恋": 6381,
      "约翰": 6382,
      "道路": 6383,
      "21": 6384,
      "人性": 6385,
      "成千": 6386,
      "资料": 6387,
      "这场": 6388,
      "平台": 6389,
      "深入": 6390,
      "穿过": 6391,
      "追求": 6392,
      "一小": 6393,
      "带到": 6394,
      "联合国": 6395,
      "恐龙": 6396,
      "进去": 6397,
      "释放": 6398,
      "依然": 6399,
      "团体": 6400,
      "密码": 6401,
      "执行": 6402,
      "摄像": 6403,
      "攻击": 6404,
      "这会": 6405,
      "邮件": 6406,
      "或者说": 6407,
      "ol": 6408,
      "伤害": 6409,
      "很小": 6410,
      "得出": 6411,
      "态度": 6412,
      "美金": 6413,
      "蛋白质": 6414,
      "微生物": 6415,
      "性别": 6416,
      "ad": 6417,
      "ch": 6418,
      "不见": 6419,
      "主意": 6420,
      "如同": 6421,
      "完整": 6422,
      "慢慢": 6423,
      "普遍": 6424,
      "秘密": 6425,
      "说服": 6426,
      "斯特": 6427,
      "检查": 6428,
      "现场": 6429,
      "迅速": 6430,
      "激励": 6431,
      "独特": 6432,
      "购买": 6433,
      "五年": 6434,
      "灭绝": 6435,
      "粒子": 6436,
      "彻底": 6437,
      "途径": 6438,
      "不久": 6439,
      "毕业": 6440,
      "没什么": 6441,
      "特征": 6442,
      "二氧化": 6443,
      "以上": 6444,
      "兄弟": 6445,
      "员工": 6446,
      "法国": 6447,
      "灾难": 6448,
      "进来": 6449,
      "us": 6450,
      "太多": 6451,
      "日常": 6452,
      "翻译": 6453,
      "蜜蜂": 6454,
      "24": 6455,
      "ot": 6456,
      "一致": 6457,
      "原理": 6458,
      "广泛": 6459,
      "旁边": 6460,
      "机制": 6461,
      "著名": 6462,
      "爸爸": 6463,
      "说法": 6464,
      "前面": 6465,
      "大众": 6466,
      "旅程": 6467,
      "趋势": 6468,
      "人体": 6469,
      "全国": 6470,
      "基因组": 6471,
      "富有": 6472,
      "相机": 6473,
      "类型": 6474,
      "组合": 6475,
      "金融": 6476,
      "成千上万": 6477,
      "加上": 6478,
      "墨西": 6479,
      "应对": 6480,
      "技能": 6481,
      "黑人": 6482,
      "墨西哥": 6483,
      "一辆": 6484,
      "博客": 6485,
      "呈现": 6486,
      "图书": 6487,
      "我来": 6488,
      "提醒": 6489,
      "虚拟": 6490,
      "谈到": 6491,
      "高中": 6492,
      "丰富": 6493,
      "克斯": 6494,
      "公众": 6495,
      "分布": 6496,
      "二氧化碳": 6497,
      "1000": 6498,
      "一座": 6499,
      "为止": 6500,
      "开心": 6501,
      "案例": 6502,
      "一大": 6503,
      "怀疑": 6504,
      "掌握": 6505,
      "浪费": 6506,
      "辩论": 6507,
      "外面": 6508,
      "不停": 6509,
      "刺激": 6510,
      "机械": 6511,
      "欢迎": 6512,
      "之类": 6513,
      "强烈": 6514,
      "无线": 6515,
      "极端": 6516,
      "为此": 6517,
      "伊斯": 6518,
      "启发": 6519,
      "拒绝": 6520,
      "播放": 6521,
      "气体": 6522,
      "缺乏": 6523,
      "衣服": 6524,
      "某种程度": 6525,
      "Ch": 6526,
      "却是": 6527,
      "期间": 6528,
      "要说": 6529,
      "两者": 6530,
      "优秀": 6531,
      "取决": 6532,
      "拿到": 6533,
      "等待": 6534,
      "简直": 6535,
      "重点": 6536,
      "剩下": 6537,
      "选举": 6538,
      "难民": 6539,
      "小小的": 6540,
      "St": 6541,
      "中国家": 6542,
      "可行": 6543,
      "适合": 6544,
      "发展中国家": 6545,
      "恒星": 6546,
      "期待": 6547,
      "热情": 6548,
      "聚集": 6549,
      "长时间": 6550,
      "解决方案": 6551,
      "伊拉克": 6552,
      "作出": 6553,
      "合理": 6554,
      "改革": 6555,
      "玩具": 6556,
      "舞台": 6557,
      "输入": 6558,
      "不知": 6559,
      "为何": 6560,
      "以下": 6561,
      "发挥": 6562,
      "很长": 6563,
      "看过": 6564,
      "部落": 6565,
      "各种各样": 6566,
      "军队": 6567,
      "判断": 6568,
      "按照": 6569,
      "画面": 6570,
      "一本": 6571,
      "从中": 6572,
      "哪个": 6573,
      "处在": 6574,
      "大规模": 6575,
      "奇妙": 6576,
      "感知": 6577,
      "伊斯兰": 6578,
      "ra": 6579,
      "传递": 6580,
      "更大": 6581,
      "望远": 6582,
      "电力": 6583,
      "血管": 6584,
      "要么": 6585,
      "黑暗": 6586,
      "取决于": 6587,
      "望远镜": 6588,
      "一面": 6589,
      "伊朗": 6590,
      "原来": 6591,
      "苹果": 6592,
      "面积": 6593,
      "相当于": 6594,
      "合适": 6595,
      "回去": 6596,
      "维持": 6597,
      "麻烦": 6598,
      "三年": 6599,
      "便宜": 6600,
      "六个": 6601,
      "寿命": 6602,
      "教学": 6603,
      "没错": 6604,
      "海岸": 6605,
      "脆弱": 6606,
      "走向": 6607,
      "路上": 6608,
      "不太": 6609,
      "好消息": 6610,
      "想像": 6611,
      "手段": 6612,
      "报纸": 6613,
      "涉及": 6614,
      "看不到": 6615,
      "注意力": 6616,
      "典型": 6617,
      "出版": 6618,
      "同性恋": 6619,
      "以色": 6620,
      "对象": 6621,
      "版本": 6622,
      "玻璃": 6623,
      "识别": 6624,
      "他会": 6625,
      "做法": 6626,
      "加州": 6627,
      "地下": 6628,
      "我用": 6629,
      "期望": 6630,
      "遗传": 6631,
      "id": 6632,
      "供应": 6633,
      "关联": 6634,
      "幻灯": 6635,
      "总结": 6636,
      "极其": 6637,
      "一点点": 6638,
      "以色列": 6639,
      "士兵": 6640,
      "居民": 6641,
      "渴望": 6642,
      "顺便": 6643,
      "解决问题": 6644,
      "自行车": 6645,
      "不足": 6646,
      "同一个": 6647,
      "慈善": 6648,
      "沙漠": 6649,
      "超越": 6650,
      "大自然": 6651,
      "潜水": 6652,
      "穆斯": 6653,
      "自闭": 6654,
      "袭击": 6655,
      "多样性": 6656,
      "回事": 6657,
      "混合": 6658,
      "物品": 6659,
      "穆斯林": 6660,
      "当今": 6661,
      "指出": 6662,
      "曲线": 6663,
      "有机": 6664,
      "理性": 6665,
      "能否": 6666,
      "丈夫": 6667,
      "了不起": 6668,
      "探测": 6669,
      "隐藏": 6670,
      "农民": 6671,
      "无人": 6672,
      "标志": 6673,
      "症状": 6674,
      "私人": 6675,
      "行走": 6676,
      "设想": 6677,
      "评论": 6678,
      "自闭症": 6679,
      "乐观": 6680,
      "字母": 6681,
      "美妙": 6682,
      "逻辑": 6683,
      "不论": 6684,
      "举个": 6685,
      "人数": 6686,
      "古老": 6687,
      "图表": 6688,
      "工人": 6689,
      "忘记": 6690,
      "死去": 6691,
      "一幅": 6692,
      "万人": 6693,
      "临床": 6694,
      "即将": 6695,
      "后果": 6696,
      "瞬间": 6697,
      "种类": 6698,
      "调整": 6699,
      "生态系统": 6700,
      "共享": 6701,
      "毒品": 6702,
      "致力": 6703,
      "估计": 6704,
      "角落": 6705,
      "除非": 6706,
      "做成": 6707,
      "公里": 6708,
      "发布": 6709,
      "技巧": 6710,
      "第三个": 6711,
      "还会": 6712,
      "黑猩猩": 6713,
      "一套": 6714,
      "启动": 6715,
      "放大": 6716,
      "生意": 6717,
      "纳米": 6718,
      "哪儿": 6719,
      "地面": 6720,
      "客户": 6721,
      "少年": 6722,
      "效率": 6723,
      "没法": 6724,
      "演示": 6725,
      "策略": 6726,
      "覆盖": 6727,
      "ing": 6728,
      "基金会": 6729,
      "300": 6730,
      "一遍": 6731,
      "公平": 6732,
      "再也": 6733,
      "名叫": 6734,
      "固定": 6735,
      "照顾": 6736,
      "矛盾": 6737,
      "交谈": 6738,
      "句话": 6739,
      "指数": 6740,
      "疑问": 6741,
      "边缘": 6742,
      "透明": 6743,
      "驱动": 6744,
      "---": 6745,
      "ur": 6746,
      "人士": 6747,
      "伙伴": 6748,
      "依靠": 6749,
      "前进": 6750,
      "实践": 6751,
      "年里": 6752,
      "开车": 6753,
      "推动": 6754,
      "提升": 6755,
      "流动": 6756,
      "震惊": 6757,
      "件事": 6758,
      "倾向": 6759,
      "回应": 6760,
      "猴子": 6761,
      "综合": 6762,
      "地位": 6763,
      "小说": 6764,
      "整体": 6765,
      "标记": 6766,
      "深刻": 6767,
      "转移": 6768,
      "达成": 6769,
      "198": 6770,
      "五个": 6771,
      "代码": 6772,
      "合法": 6773,
      "成年": 6774,
      "改进": 6775,
      "教堂": 6776,
      "斗争": 6777,
      "陌生": 6778,
      "无论是": 6779,
      "上学": 6780,
      "专利": 6781,
      "投票": 6782,
      "穿着": 6783,
      "谈话": 6784,
      "转化": 6785,
      "印象": 6786,
      "赋予": 6787,
      "基础设施": 6788,
      "决策": 6789,
      "几天": 6790,
      "教师": 6791,
      "构成": 6792,
      "穷人": 6793,
      "艰难": 6794,
      "街道": 6795,
      "象征": 6796,
      "便是": 6797,
      "做好": 6798,
      "受害": 6799,
      "多种": 6800,
      "婚姻": 6801,
      "强调": 6802,
      "形态": 6803,
      "改造": 6804,
      "样本": 6805,
      "盒子": 6806,
      "紧张": 6807,
      "随后": 6808,
      "领袖": 6809,
      "幻灯片": 6810,
      "ay": 6811,
      "不在": 6812,
      "再生": 6813,
      "十亿": 6814,
      "商品": 6815,
      "尊重": 6816,
      "带给": 6817,
      "文件": 6818,
      "种植": 6819,
      "良好": 6820,
      "规划": 6821,
      "千年": 6822,
      "合成": 6823,
      "埃及": 6824,
      "当作": 6825,
      "活跃": 6826,
      "真相": 6827,
      "衡量": 6828,
      "致力于": 6829,
      "即便": 6830,
      "地点": 6831,
      "对方": 6832,
      "寻常": 6833,
      "就算": 6834,
      "意见": 6835,
      "措施": 6836,
      "玩耍": 6837,
      "可见": 6838,
      "大陆": 6839,
      "成立": 6840,
      "本来": 6841,
      "演员": 6842,
      "肌肉": 6843,
      "费用": 6844,
      "重建": 6845,
      "im": 6846,
      "传染": 6847,
      "制定": 6848,
      "化石": 6849,
      "南非": 6850,
      "奖励": 6851,
      "录像": 6852,
      "想起": 6853,
      "愤怒": 6854,
      "效应": 6855,
      "明确": 6856,
      "移民": 6857,
      "这条": 6858,
      "送到": 6859,
      "非常简单": 6860,
      "寻求": 6861,
      "手指": 6862,
      "流感": 6863,
      "视角": 6864,
      "认真": 6865,
      "进展": 6866,
      "邻居": 6867,
      "严肃": 6868,
      "动机": 6869,
      "围绕": 6870,
      "地理": 6871,
      "现有": 6872,
      "观看": 6873,
      "诞生": 6874,
      "集体": 6875,
      "一无": 6876,
      "付出": 6877,
      "天然": 6878,
      "更为": 6879,
      "轨道": 6880,
      "消费者": 6881,
      "会儿": 6882,
      "华盛": 6883,
      "存活": 6884,
      "常见": 6885,
      "打电话": 6886,
      "精确": 6887,
      "金属": 6888,
      "华盛顿": 6889,
      "ub": 6890,
      "一篇": 6891,
      "特性": 6892,
      "睡眠": 6893,
      "舞蹈": 6894,
      "血液": 6895,
      "预防": 6896,
      "怎么办": 6897,
      "安德森": 6898,
      "专注": 6899,
      "以至于": 6900,
      "因斯坦": 6901,
      "意外": 6902,
      "最佳": 6903,
      "灵感": 6904,
      "爱因斯坦": 6905,
      "美洲": 6906,
      "重要性": 6907,
      "ill": 6908,
      "45": 6909,
      "un": 6910,
      "万美元": 6911,
      "作家": 6912,
      "单词": 6913,
      "同一": 6914,
      "杉矶": 6915,
      "洛杉矶": 6916,
      "环保": 6917,
      "算法": 6918,
      "这方面": 6919,
      "抑郁": 6920,
      "村庄": 6921,
      "gle": 6922,
      "保存": 6923,
      "培训": 6924,
      "尼日": 6925,
      "德里": 6926,
      "承诺": 6927,
      "旋转": 6928,
      "直觉": 6929,
      "着手": 6930,
      "肯尼亚": 6931,
      "转换": 6932,
      "销售": 6933,
      "飞行器": 6934,
      "eb": 6935,
      "分裂": 6936,
      "小组": 6937,
      "差别": 6938,
      "清晰": 6939,
      "片段": 6940,
      "葡萄": 6941,
      "领导者": 6942,
      "Al": 6943,
      "iP": 6944,
      "体现": 6945,
      "加拿": 6946,
      "符合": 6947,
      "赢得": 6948,
      "加拿大": 6949,
      "人心": 6950,
      "仪器": 6951,
      "律师": 6952,
      "混乱": 6953,
      "加速": 6954,
      "大卫": 6955,
      "损失": 6956,
      "犹太": 6957,
      "笔记": 6958,
      "采访": 6959,
      "阳光": 6960,
      "优势": 6961,
      "发射": 6962,
      "平面": 6963,
      "影片": 6964,
      "志愿": 6965,
      "忽略": 6966,
      "抓住": 6967,
      "白色": 6968,
      "祖先": 6969,
      "展开": 6970,
      "干细胞": 6971,
      "有力": 6972,
      "称作": 6973,
      "额外": 6974,
      "与此": 6975,
      "之内": 6976,
      "充分": 6977,
      "宣传": 6978,
      "展览": 6979,
      "布鲁": 6980,
      "来讲": 6981,
      "模仿": 6982,
      "营养": 6983,
      "可爱": 6984,
      "平方": 6985,
      "应当": 6986,
      "情形": 6987,
      "愿望": 6988,
      "打破": 6989,
      "数以": 6990,
      "结婚": 6991,
      "达尔": 6992,
      "适用": 6993,
      "道理": 6994,
      "量子": 6995,
      "金钱": 6996,
      "陷入": 6997,
      "随机": 6998,
      "难道": 6999,
      "建筑师": 7000,
      "图书馆": 7001,
      "三十": 7002,
      "椅子": 7003,
      "潜力": 7004,
      "现状": 7005,
      "老年": 7006,
      "远远": 7007,
      "企业家": 7008,
      "图案": 7009,
      "场景": 7010,
      "庞大": 7011,
      "提取": 7012,
      "摆脱": 7013,
      "无限": 7014,
      "极了": 7015,
      "研发": 7016,
      "专门": 7017,
      "争论": 7018,
      "倾听": 7019,
      "名为": 7020,
      "奇迹": 7021,
      "开展": 7022,
      "有限": 7023,
      "海豚": 7024,
      "至今": 7025,
      "蚊子": 7026,
      "高速": 7027,
      "有点像": 7028,
      "ir": 7029,
      "一千": 7030,
      "保留": 7031,
      "小型": 7032,
      "尽可能": 7033,
      "引发": 7034,
      "热爱": 7035,
      "疟疾": 7036,
      "说道": 7037,
      "这时": 7038,
      "全球化": 7039,
      "400": 7040,
      "ia": 7041,
      "修复": 7042,
      "对称": 7043,
      "患有": 7044,
      "澳大": 7045,
      "老人": 7046,
      "主义者": 7047,
      "oogle": 7048,
      "受害者": 7049,
      "An": 7050,
      "ob": 7051,
      "产业": 7052,
      "做过": 7053,
      "少数": 7054,
      "懂得": 7055,
      "扮演": 7056,
      "杀死": 7057,
      "神秘": 7058,
      "马拉": 7059,
      "ow": 7060,
      "不必": 7061,
      "企鹅": 7062,
      "促进": 7063,
      "冒险": 7064,
      "出发": 7065,
      "分离": 7066,
      "反馈": 7067,
      "天文": 7068,
      "标签": 7069,
      "短信": 7070,
      "练习": 7071,
      "联邦": 7072,
      "心脏病": 7073,
      "澳大利亚": 7074,
      "ris": 7075,
      "ul": 7076,
      "中央": 7077,
      "以外": 7078,
      "夏天": 7079,
      "密度": 7080,
      "引擎": 7081,
      "微小": 7082,
      "成分": 7083,
      "每当": 7084,
      "秒钟": 7085,
      "稍微": 7086,
      "精彩": 7087,
      "难题": 7088,
      "黑客": 7089,
      "价值观": 7090,
      "尼日利亚": 7091,
      "度过": 7092,
      "日子": 7093,
      "极大": 7094,
      "氧气": 7095,
      "点子": 7096,
      "看出": 7097,
      "突破": 7098,
      "一首": 7099,
      "不止": 7100,
      "个性": 7101,
      "头脑": 7102,
      "小心": 7103,
      "潜在": 7104,
      "激发": 7105,
      "遭受": 7106,
      "预算": 7107,
      "黄色": 7108,
      "子里": 7109,
      "带有": 7110,
      "惊奇": 7111,
      "换句话": 7112,
      "擅长": 7113,
      "活着": 7114,
      "生成": 7115,
      "由此": 7116,
      "致命": 7117,
      "靠近": 7118,
      "35": 7119,
      "Google": 7120,
      "一颗": 7121,
      "中东": 7122,
      "争议": 7123,
      "北部": 7124,
      "大利": 7125,
      "大楼": 7126,
      "意大利": 7127,
      "扩大": 7128,
      "浏览": 7129,
      "立刻": 7130,
      "符号": 7131,
      "腐败": 7132,
      "阿尔": 7133,
      "代价": 7134,
      "反映": 7135,
      "天空": 7136,
      "实施": 7137,
      "层次": 7138,
      "ik": 7139,
      "以此": 7140,
      "奴隶": 7141,
      "手臂": 7142,
      "禁止": 7143,
      "死亡率": 7144,
      "之下": 7145,
      "回报": 7146,
      "火箭": 7147,
      "穿越": 7148,
      "追踪": 7149,
      "雕塑": 7150,
      "高效": 7151,
      "不少": 7152,
      "世上": 7153,
      "几百": 7154,
      "吃惊": 7155,
      "在一起": 7156,
      "地说": 7157,
      "教室": 7158,
      "而来": 7159,
      "影响力": 7160,
      "保健": 7161,
      "信念": 7162,
      "发光": 7163,
      "好事": 7164,
      "屋顶": 7165,
      "希腊": 7166,
      "支付": 7167,
      "规律": 7168,
      "饮食": 7169,
      "与此同时": 7170,
      "75": 7171,
      "99": 7172,
      "SA": 7173,
      "亚洲": 7174,
      "商店": 7175,
      "承担": 7176,
      "携带": 7177,
      "移植": 7178,
      "纤维": 7179,
      "and": 7180,
      "换句话说": 7181,
      "形象": 7182,
      "敏感": 7183,
      "无数": 7184,
      "正好": 7185,
      "经济学家": 7186,
      "同情心": 7187,
      "ab": 7188,
      "俄罗斯": 7189,
      "南极": 7190,
      "发电": 7191,
      "四年": 7192,
      "对比": 7193,
      "昨天": 7194,
      "构建": 7195,
      "沮丧": 7196,
      "激情": 7197,
      "空中": 7198,
      "紧密": 7199,
      "表情": 7200,
      "这片": 7201,
      "书籍": 7202,
      "回收": 7203,
      "回顾": 7204,
      "国会": 7205,
      "影像": 7206,
      "显著": 7207,
      "玩笑": 7208,
      "白人": 7209,
      "着迷": 7210,
      "纪录": 7211,
      "走出": 7212,
      "三维": 7213,
      "传感": 7214,
      "哺乳": 7215,
      "生理": 7216,
      "贝尔": 7217,
      "运输": 7218,
      "重视": 7219,
      "生物学家": 7220,
      "3D": 7221,
      "Mar": 7222,
      "son": 7223,
      "不行": 7224,
      "光线": 7225,
      "免疫": 7226,
      "北极": 7227,
      "塑造": 7228,
      "娱乐": 7229,
      "忽视": 7230,
      "感情": 7231,
      "点击": 7232,
      "班牙": 7233,
      "西班牙": 7234,
      "论文": 7235,
      "跟踪": 7236,
      "十年代": 7237,
      "一层": 7238,
      "成绩": 7239,
      "推广": 7240,
      "沿着": 7241,
      "洞穴": 7242,
      "工作者": 7243,
      "运动员": 7244,
      "之处": 7245,
      "土壤": 7246,
      "接收": 7247,
      "昂贵": 7248,
      "毕竟": 7249,
      "贸易": 7250,
      "这边": 7251,
      "麦克": 7252,
      "....": 7253,
      "ie": 7254,
      "动画": 7255,
      "品牌": 7256,
      "所未": 7257,
      "构造": 7258,
      "格兰": 7259,
      "比尔": 7260,
      "气球": 7261,
      "繁殖": 7262,
      "编辑": 7263,
      "肥胖": 7264,
      "融合": 7265,
      "起源": 7266,
      "取代": 7267,
      "变暖": 7268,
      "大象": 7269,
      "评估": 7270,
      "黑洞": 7271,
      "另一方面": 7272,
      "一根": 7273,
      "中学": 7274,
      "农场": 7275,
      "在线": 7276,
      "巴基": 7277,
      "指导": 7278,
      "步骤": 7279,
      "民族": 7280,
      "脑海": 7281,
      "贷款": 7282,
      "跟着": 7283,
      "这份": 7284,
      "这有": 7285,
      "鲨鱼": 7286,
      "分配": 7287,
      "单一": 7288,
      "发达": 7289,
      "吸收": 7290,
      "基督": 7291,
      "墙上": 7292,
      "安装": 7293,
      "延伸": 7294,
      "放进": 7295,
      "景象": 7296,
      "本地": 7297,
      "民众": 7298,
      "法则": 7299,
      "注射": 7300,
      "诊所": 7301,
      "一所": 7302,
      "一组": 7303,
      "三分之一": 7304,
      "五十": 7305,
      "众多": 7306,
      "安排": 7307,
      "广场": 7308,
      "异常": 7309,
      "礼物": 7310,
      "节奏": 7311,
      "th": 7312,
      "亿人": 7313,
      "仪式": 7314,
      "去世": 7315,
      "地上": 7316,
      "差距": 7317,
      "引导": 7318,
      "愚蠢": 7319,
      "所能": 7320,
      "探讨": 7321,
      "申请": 7322,
      "种子": 7323,
      "给出": 7324,
      "药品": 7325,
      "这句": 7326,
      "马克": 7327,
      "全球性": 7328,
      "志愿者": 7329,
      "达尔文": 7330,
      "原本": 7331,
      "定位": 7332,
      "崩溃": 7333,
      "感官": 7334,
      "腺癌": 7335,
      "解放": 7336,
      "连续": 7337,
      "一个月": 7338,
      "不去": 7339,
      "偏见": 7340,
      "先进": 7341,
      "受伤": 7342,
      "坐下": 7343,
      "尔夫": 7344,
      "房屋": 7345,
      "推特": 7346,
      "欣赏": 7347,
      "石头": 7348,
      "这部": 7349,
      "魅力": 7350,
      "鱼类": 7351,
      "巴基斯坦": 7352,
      "对抗": 7353,
      "描绘": 7354,
      "查看": 7355,
      "此时": 7356,
      "特点": 7357,
      "贫民": 7358,
      "这幅": 7359,
      "单位": 7360,
      "反而": 7361,
      "只会": 7362,
      "只不过": 7363,
      "喜爱": 7364,
      "在我": 7365,
      "拿出": 7366,
      "替代": 7367,
      "爆发": 7368,
      "自主": 7369,
      "认同": 7370,
      "one": 7371,
      "传感器": 7372,
      "一周": 7373,
      "写作": 7374,
      "家长": 7375,
      "局限": 7376,
      "微笑": 7377,
      "抽象": 7378,
      "敌人": 7379,
      "游泳": 7380,
      "过滤": 7381,
      "这座": 7382,
      "这类": 7383,
      "防止": 7384,
      "青少年": 7385,
      "马斯": 7386,
      "物理学家": 7387,
      "av": 7388,
      "众人": 7389,
      "保险": 7390,
      "信心": 7391,
      "听众": 7392,
      "教会": 7393,
      "无聊": 7394,
      "温室": 7395,
      "规定": 7396,
      "资助": 7397,
      "链接": 7398,
      "镜头": 7399,
      "频率": 7400,
      "魔术": 7401,
      "150": 7402,
      "一万": 7403,
      "一间": 7404,
      "前所未": 7405,
      "尔斯": 7406,
      "得知": 7407,
      "心里": 7408,
      "探险": 7409,
      "推进": 7410,
      "清洁": 7411,
      "生素": 7412,
      "第四": 7413,
      "自从": 7414,
      "想象力": 7415,
      "ag": 7416,
      "人造": 7417,
      "外科": 7418,
      "头发": 7419,
      "定律": 7420,
      "恰恰": 7421,
      "战斗": 7422,
      "护士": 7423,
      "拉斯": 7424,
      "显微": 7425,
      "灵魂": 7426,
      "统治": 7427,
      "芯片": 7428,
      "进程": 7429,
      "骨骼": 7430,
      "一把": 7431,
      "亚马": 7432,
      "人均": 7433,
      "公路": 7434,
      "勇气": 7435,
      "哈佛": 7436,
      "哲学": 7437,
      "好好": 7438,
      "学术": 7439,
      "碰到": 7440,
      "讨厌": 7441,
      "设置": 7442,
      "那边": 7443,
      "野生": 7444,
      "顺利": 7445,
      "预期": 7446,
      "事故": 7447,
      "停下来": 7448,
      "几十年": 7449,
      "周期": 7450,
      "太棒": 7451,
      "底部": 7452,
      "引用": 7453,
      "没人": 7454,
      "辐射": 7455,
      "笔记本": 7456,
      "两倍": 7457,
      "作业": 7458,
      "公正": 7459,
      "军事": 7460,
      "前往": 7461,
      "已有": 7462,
      "承受": 7463,
      "植入": 7464,
      "治愈": 7465,
      "火车": 7466,
      "理查": 7467,
      "课堂": 7468,
      "骨头": 7469,
      "ook": 7470,
      "资本主义": 7471,
      "摄像机": 7472,
      "Jo": 7473,
      "三种": 7474,
      "协调": 7475,
      "南部": 7476,
      "厕所": 7477,
      "整合": 7478,
      "爱情": 7479,
      "黑色": 7480,
      "太棒了": 7481,
      "乔治": 7482,
      "交互": 7483,
      "交换": 7484,
      "保守": 7485,
      "分散": 7486,
      "坚信": 7487,
      "大会": 7488,
      "姐妹": 7489,
      "庆祝": 7490,
      "无关": 7491,
      "正义": 7492,
      "比起": 7493,
      "瑞典": 7494,
      "眼前": 7495,
      "确信": 7496,
      "罪犯": 7497,
      "跨越": 7498,
      "身处": 7499,
      "运转": 7500,
      "远离": 7501,
      "物理学": 7502,
      "Chris": 7503,
      "举手": 7504,
      "动态": 7505,
      "去过": 7506,
      "外交": 7507,
      "委员": 7508,
      "学者": 7509,
      "岩石": 7510,
      "想着": 7511,
      "最新": 7512,
      "有利": 7513,
      "波士": 7514,
      "满意": 7515,
      "玩家": 7516,
      "界面": 7517,
      "看不见": 7518,
      "胜利": 7519,
      "那一刻": 7520,
      "自然界": 7521,
      "不安": 7522,
      "从没": 7523,
      "加哥": 7524,
      "各自": 7525,
      "扩展": 7526,
      "指挥": 7527,
      "桌子": 7528,
      "疼痛": 7529,
      "皮层": 7530,
      "精力": 7531,
      "编程": 7532,
      "芝加哥": 7533,
      "鸟类": 7534,
      "珊瑚礁": 7535,
      "在我看来": 7536,
      "You": 7537,
      "三角": 7538,
      "体会": 7539,
      "作者": 7540,
      "命名": 7541,
      "很久": 7542,
      "旧金": 7543,
      "显得": 7544,
      "法案": 7545,
      "深处": 7546,
      "灵活": 7547,
      "繁荣": 7548,
      "脊髓": 7549,
      "蜘蛛": 7550,
      "见过": 7551,
      "波士顿": 7552,
      "旧金山": 7553,
      "ig": 7554,
      "不像": 7555,
      "不如": 7556,
      "保罗": 7557,
      "克服": 7558,
      "具备": 7559,
      "发起": 7560,
      "合物": 7561,
      "实时": 7562,
      "既然": 7563,
      "树木": 7564,
      "舒服": 7565,
      "退休": 7566,
      "第二天": 7567,
      "ap": 7568,
      "停车": 7569,
      "冰川": 7570,
      "区分": 7571,
      "单独": 7572,
      "反复": 7573,
      "史蒂": 7574,
      "命运": 7575,
      "国内": 7576,
      "好玩": 7577,
      "家族": 7578,
      "方便": 7579,
      "最为": 7580,
      "牺牲": 7581,
      "疗法": 7582,
      "粮食": 7583,
      "诗歌": 7584,
      "这块": 7585,
      "随时": 7586,
      "黄金": 7587,
      "太阳系": 7588,
      "领导人": 7589,
      "恐怖主义": 7590,
      "um": 7591,
      "人权": 7592,
      "团结": 7593,
      "多次": 7594,
      "宣布": 7595,
      "水中": 7596,
      "用到": 7597,
      "祖母": 7598,
      "那位": 7599,
      "陌生人": 7600,
      "亚马逊": 7601,
      "Br": 7602,
      "ev": 7603,
      "两次": 7604,
      "以便": 7605,
      "储存": 7606,
      "利润": 7607,
      "天气": 7608,
      "干什么": 7609,
      "戏剧": 7610,
      "捕捉": 7611,
      "栖息": 7612,
      "水下": 7613,
      "消除": 7614,
      "生涯": 7615,
      "监控": 7616,
      "航空": 7617,
      "高尔夫": 7618,
      "2010": 7619,
      "ick": 7620,
      "体制": 7621,
      "厨房": 7622,
      "向前": 7623,
      "外星": 7624,
      "多个": 7625,
      "心中": 7626,
      "而易": 7627,
      "自豪": 7628,
      "过度": 7629,
      "遥远": 7630,
      "采集": 7631,
      "重量": 7632,
      "谢谢你们": 7633,
      "显微镜": 7634,
      "上来": 7635,
      "分开": 7636,
      "到来": 7637,
      "噪音": 7638,
      "此刻": 7639,
      "此外": 7640,
      "液体": 7641,
      "焦虑": 7642,
      "转向": 7643,
      "随之": 7644,
      "餐厅": 7645,
      "饥饿": 7646,
      "建筑物": 7647,
      "op": 7648,
      "一百万": 7649,
      "一会儿": 7650,
      "下午": 7651,
      "人才": 7652,
      "发送": 7653,
      "好了": 7654,
      "小孩子": 7655,
      "干净": 7656,
      "扩张": 7657,
      "明天": 7658,
      "词汇": 7659,
      "隐私": 7660,
      "ard": 7661,
      "心理学": 7662,
      "女士们": 7663,
      "传达": 7664,
      "分辨": 7665,
      "后代": 7666,
      "多久": 7667,
      "成人": 7668,
      "掌控": 7669,
      "未知": 7670,
      "框架": 7671,
      "热带": 7672,
      "现今": 7673,
      "至关": 7674,
      "视为": 7675,
      "试试": 7676,
      "风格": 7677,
      "ube": 7678,
      "委员会": 7679,
      "DP": 7680,
      "ip": 7681,
      "下一代": 7682,
      "保障": 7683,
      "全都": 7684,
      "内在": 7685,
      "出色": 7686,
      "分类": 7687,
      "加利": 7688,
      "午餐": 7689,
      "印刷": 7690,
      "四处": 7691,
      "大多": 7692,
      "屠杀": 7693,
      "强迫": 7694,
      "我花": 7695,
      "战略": 7696,
      "新生": 7697,
      "某人": 7698,
      "海水": 7699,
      "目睹": 7700,
      "经营": 7701,
      "赚钱": 7702,
      "都是": 7703,
      "非凡": 7704,
      "页面": 7705,
      "一方面": 7706,
      "乐队": 7707,
      "事儿": 7708,
      "关闭": 7709,
      "协议": 7710,
      "海底": 7711,
      "燃烧": 7712,
      "百科": 7713,
      "算是": 7714,
      "蝙蝠": 7715,
      "部件": 7716,
      "理查德": 7717,
      "65": 7718,
      "ey": 7719,
      "伯特": 7720,
      "含义": 7721,
      "巴马": 7722,
      "当下": 7723,
      "歧视": 7724,
      "深深": 7725,
      "睡觉": 7726,
      "脑袋": 7727,
      "自杀": 7728,
      "部位": 7729,
      "钢琴": 7730,
      "ian": 7731,
      "下载": 7732,
      "促使": 7733,
      "共和": 7734,
      "回忆": 7735,
      "天堂": 7736,
      "孤独": 7737,
      "炸弹": 7738,
      "理工": 7739,
      "童年": 7740,
      "网页": 7741,
      "花粉": 7742,
      "讲话": 7743,
      "边界": 7744,
      "部队": 7745,
      "至关重要": 7746,
      "od": 7747,
      "伴随": 7748,
      "势力": 7749,
      "告知": 7750,
      "在场": 7751,
      "安静": 7752,
      "心灵": 7753,
      "悲剧": 7754,
      "掌声": 7755,
      "服用": 7756,
      "模糊": 7757,
      "法官": 7758,
      "演化": 7759,
      "证实": 7760,
      "质疑": 7761,
      "这段": 7762,
      "飞船": 7763,
      "数据库": 7764,
      "23": 7765,
      "一对": 7766,
      "一想": 7767,
      "克林": 7768,
      "全面": 7769,
      "加拉": 7770,
      "姆斯": 7771,
      "手中": 7772,
      "放入": 7773,
      "新鲜": 7774,
      "正式": 7775,
      "每周": 7776,
      "降落": 7777,
      "革新": 7778,
      "从来不": 7779,
      "劳动": 7780,
      "否则": 7781,
      "含有": 7782,
      "圣经": 7783,
      "圣诞": 7784,
      "天花": 7785,
      "威尔": 7786,
      "小时候": 7787,
      "尺寸": 7788,
      "抗议": 7789,
      "毁灭": 7790,
      "比方": 7791,
      "编码": 7792,
      "花园": 7793,
      "英文": 7794,
      "走上": 7795,
      "雨林": 7796,
      "非法": 7797,
      "经济学": 7798,
      "哺乳动物": 7799,
      "一同": 7800,
      "亚当": 7801,
      "人人": 7802,
      "亿年": 7803,
      "作物": 7804,
      "场所": 7805,
      "字典": 7806,
      "年间": 7807,
      "惩罚": 7808,
      "拉丁": 7809,
      "数码": 7810,
      "染色": 7811,
      "活力": 7812,
      "渐渐": 7813,
      "演出": 7814,
      "留在": 7815,
      "通讯": 7816,
      "顾客": 7817,
      "高级": 7818,
      "2008": 7819,
      "毫无疑问": 7820,
      "日常生活": 7821,
      "前所未有": 7822,
      "ak": 7823,
      "之上": 7824,
      "体育": 7825,
      "体重": 7826,
      "几周": 7827,
      "外部": 7828,
      "序列": 7829,
      "有益": 7830,
      "自信": 7831,
      "负担": 7832,
      "PS": 7833,
      "Sh": 7834,
      "地震": 7835,
      "广播": 7836,
      "开启": 7837,
      "最早": 7838,
      "概率": 7839,
      "沉默": 7840,
      "激素": 7841,
      "福利": 7842,
      "立即": 7843,
      "竟然": 7844,
      "街上": 7845,
      "遭遇": 7846,
      "雇佣": 7847,
      "首歌": 7848,
      "197": 7849,
      "26": 7850,
      "st": 7851,
      "出于": 7852,
      "可靠": 7853,
      "图形": 7854,
      "增强": 7855,
      "始终": 7856,
      "宝宝": 7857,
      "接到": 7858,
      "数学家": 7859,
      "无比": 7860,
      "永久": 7861,
      "看作": 7862,
      "眼镜": 7863,
      "组装": 7864,
      "缺陷": 7865,
      "膨胀": 7866,
      "莱坞": 7867,
      "融入": 7868,
      "街头": 7869,
      "观测": 7870,
      "讽刺": 7871,
      "遵循": 7872,
      "鲸鱼": 7873,
      "心理学家": 7874,
      "一支": 7875,
      "你好": 7876,
      "几分钟": 7877,
      "前提": 7878,
      "可不是": 7879,
      "学科": 7880,
      "干预": 7881,
      "形容": 7882,
      "成熟": 7883,
      "机场": 7884,
      "欺骗": 7885,
      "相连": 7886,
      "祈祷": 7887,
      "等于": 7888,
      "过于": 7889,
      "追溯": 7890,
      "鼻子": 7891,
      "音乐家": 7892,
      "恐怖分子": 7893,
      "GDP": 7894,
      "乐器": 7895,
      "会想": 7896,
      "分之": 7897,
      "反射": 7898,
      "字体": 7899,
      "完善": 7900,
      "小女孩": 7901,
      "成像": 7902,
      "打击": 7903,
      "抗生素": 7904,
      "整整": 7905,
      "时光": 7906,
      "海报": 7907,
      "统一": 7908,
      "聊天": 7909,
      "脂肪": 7910,
      "负面": 7911,
      "面部": 7912,
      "鼓舞": 7913,
      "aceb": 7914,
      "acebook": 7915,
      "一堆": 7916,
      "上千": 7917,
      "与其": 7918,
      "即兴": 7919,
      "及其": 7920,
      "双手": 7921,
      "太平": 7922,
      "年来": 7923,
      "当成": 7924,
      "感应": 7925,
      "爱好": 7926,
      "生日": 7927,
      "确认": 7928,
      "绝望": 7929,
      "美分": 7930,
      "耳朵": 7931,
      "设立": 7932,
      "货币": 7933,
      "并不知道": 7934,
      "事是": 7935,
      "其次": 7936,
      "参观": 7937,
      "句子": 7938,
      "司机": 7939,
      "就让": 7940,
      "康复": 7941,
      "想一想": 7942,
      "新型": 7943,
      "瑞士": 7944,
      "男子": 7945,
      "相应": 7946,
      "见证": 7947,
      "说出": 7948,
      "遗憾": 7949,
      "阻碍": 7950,
      "首次": 7951,
      "ell": 7952,
      "加利福": 7953,
      "27": 7954,
      "ah": 7955,
      "乐趣": 7956,
      "交给": 7957,
      "卡车": 7958,
      "困境": 7959,
      "多元": 7960,
      "大大": 7961,
      "帝国": 7962,
      "幽默": 7963,
      "得多": 7964,
      "挣扎": 7965,
      "无知": 7966,
      "时报": 7967,
      "月份": 7968,
      "权威": 7969,
      "诗人": 7970,
      "这才": 7971,
      "阶级": 7972,
      "集团": 7973,
      "目前为止": 7974,
      "大气层": 7975,
      "22": 7976,
      "很酷": 7977,
      "愉快": 7978,
      "所处": 7979,
      "手里": 7980,
      "玩意": 7981,
      "窗户": 7982,
      "绘制": 7983,
      "罗马": 7984,
      "荧光": 7985,
      "走路": 7986,
      "第一件": 7987,
      "保护区": 7988,
      "ber": 7989,
      "一类": 7990,
      "不让": 7991,
      "产物": 7992,
      "传输": 7993,
      "偶然": 7994,
      "公寓": 7995,
      "刚果": 7996,
      "变异": 7997,
      "各国": 7998,
      "家乡": 7999,
      "巴黎": 8000,
      "开来": 8001,
      "悲伤": 8002,
      "意料": 8003,
      "抱怨": 8004,
      "收获": 8005,
      "数百万": 8006,
      "河流": 8007,
      "环绕": 8008,
      "讲故事": 8009,
      "持续性": 8010,
      "一小部分": 8011,
      "伊斯兰教": 8012,
      "5000": 8013,
      "600": 8014,
      "仿佛": 8015,
      "例外": 8016,
      "农村": 8017,
      "媒介": 8018,
      "实体": 8019,
      "幻想": 8020,
      "折叠": 8021,
      "抱歉": 8022,
      "极度": 8023,
      "监视": 8024,
      "种种": 8025,
      "绝大多数": 8026,
      "航天": 8027,
      "般的": 8028,
      "荷兰": 8029,
      "遍布": 8030,
      "研究所": 8031,
      "参与者": 8032,
      "某种意义": 8033,
      "hone": 8034,
      "一员": 8035,
      "一分钟": 8036,
      "上下": 8037,
      "与众": 8038,
      "主动": 8039,
      "变为": 8040,
      "将近": 8041,
      "气味": 8042,
      "深远": 8043,
      "结尾": 8044,
      "老板": 8045,
      "舒适": 8046,
      "访问": 8047,
      "读者": 8048,
      "隔离": 8049,
      "食用": 8050,
      "摄影师": 8051,
      "与众不同": 8052,
      "ry": 8053,
      "一头": 8054,
      "乡村": 8055,
      "以往": 8056,
      "使命": 8057,
      "借助": 8058,
      "克力": 8059,
      "公布": 8060,
      "六年": 8061,
      "原型": 8062,
      "哈拉": 8063,
      "土耳": 8064,
      "尼斯": 8065,
      "平常": 8066,
      "开源": 8067,
      "按钮": 8068,
      "收益": 8069,
      "月球": 8070,
      "有过": 8071,
      "游行": 8072,
      "纪念": 8073,
      "绘画": 8074,
      "调节": 8075,
      "酒店": 8076,
      "马里": 8077,
      "土耳其": 8078,
      "3000": 8079,
      "Facebook": 8080,
      "ff": 8081,
      "一整": 8082,
      "占据": 8083,
      "天才": 8084,
      "失望": 8085,
      "开关": 8086,
      "批评": 8087,
      "捐赠": 8088,
      "排列": 8089,
      "摧毁": 8090,
      "文学": 8091,
      "机遇": 8092,
      "正面": 8093,
      "独自": 8094,
      "玉米": 8095,
      "联盟": 8096,
      "评价": 8097,
      "详细": 8098,
      "车祸": 8099,
      "迈克": 8100,
      "这台": 8101,
      "部长": 8102,
      "醒来": 8103,
      "精神病": 8104,
      "主流": 8105,
      "全身": 8106,
      "几率": 8107,
      "创伤": 8108,
      "勇敢": 8109,
      "地表": 8110,
      "外界": 8111,
      "巧克力": 8112,
      "当前": 8113,
      "怀孕": 8114,
      "杰出": 8115,
      "维度": 8116,
      "队伍": 8117,
      "陆地": 8118,
      "196": 8119,
      "2009": 8120,
      "太平洋": 8121,
      "一来": 8122,
      "何时": 8123,
      "啤酒": 8124,
      "基地": 8125,
      "抵抗": 8126,
      "有名": 8127,
      "欲望": 8128,
      "神话": 8129,
      "管道": 8130,
      "解答": 8131,
      "走过": 8132,
      "随意": 8133,
      "雄性": 8134,
      "风暴": 8135,
      "2007": 8136,
      "非洲人": 8137,
      "加利福尼亚": 8138,
      "举行": 8139,
      "争取": 8140,
      "决心": 8141,
      "囚犯": 8142,
      "困扰": 8143,
      "总会": 8144,
      "振奋": 8145,
      "法庭": 8146,
      "糖尿": 8147,
      "聚会": 8148,
      "荣幸": 8149,
      "镜子": 8150,
      "随便": 8151,
      "工作室": 8152,
      "无论如何": 8153,
      "And": 8154,
      "ud": 8155,
      "临时": 8156,
      "举办": 8157,
      "代谢": 8158,
      "众笑": 8159,
      "北美": 8160,
      "口袋": 8161,
      "在世界": 8162,
      "好比": 8163,
      "帮忙": 8164,
      "提议": 8165,
      "数目": 8166,
      "更新": 8167,
      "有幸": 8168,
      "格斯": 8169,
      "激进": 8170,
      "灯泡": 8171,
      "电路": 8172,
      "确切": 8173,
      "笑话": 8174,
      "经典": 8175,
      "缩小": 8176,
      "视力": 8177,
      "请求": 8178,
      "很多年": 8179,
      "怎么回事": 8180,
      "栖息地": 8181,
      "而易见": 8182,
      "在世界上": 8183,
      "上班": 8184,
      "亲密": 8185,
      "亲爱": 8186,
      "今晚": 8187,
      "休息": 8188,
      "创立": 8189,
      "和谐": 8190,
      "哪怕": 8191,
      "学位": 8192,
      "尽量": 8193,
      "带领": 8194,
      "感激": 8195,
      "手工": 8196,
      "折磨": 8197,
      "显而易见": 8198,
      "残疾": 8199,
      "碎片": 8200,
      "约会": 8201,
      "脑部": 8202,
      "许可": 8203,
      "跳舞": 8204,
      "轻松": 8205,
      "遇见": 8206,
      "第一步": 8207,
      "政治家": 8208,
      "贫民窟": 8209,
      "man": 8210,
      "上方": 8211,
      "两天": 8212,
      "九十": 8213,
      "凌晨": 8214,
      "分解": 8215,
      "匹配": 8216,
      "在乎": 8217,
      "夜晚": 8218,
      "存储": 8219,
      "工资": 8220,
      "底下": 8221,
      "当做": 8222,
      "拥抱": 8223,
      "有史": 8224,
      "段时间": 8225,
      "猜测": 8226,
      "短期": 8227,
      "缓慢": 8228,
      "群岛": 8229,
      "ck": 8230,
      "一看": 8231,
      "上网": 8232,
      "依旧": 8233,
      "受欢迎": 8234,
      "哲学家": 8235,
      "喜剧": 8236,
      "开玩笑": 8237,
      "微型": 8238,
      "情景": 8239,
      "我刚": 8240,
      "搭建": 8241,
      "数千": 8242,
      "特网": 8243,
      "脸上": 8244,
      "营销": 8245,
      "萨斯": 8246,
      "起到": 8247,
      "路线": 8248,
      "遭到": 8249,
      "集合": 8250,
      "验证": 8251,
      "工作人员": 8252,
      "科学研究": 8253,
      "iPhone": 8254,
      "有史以来": 8255,
      "RI": 8256,
      "不然": 8257,
      "代替": 8258,
      "公交": 8259,
      "出售": 8260,
      "分成": 8261,
      "匿名": 8262,
      "含量": 8263,
      "多人": 8264,
      "幻觉": 8265,
      "打造": 8266,
      "指标": 8267,
      "操纵": 8268,
      "放射": 8269,
      "用水": 8270,
      "着陆": 8271,
      "聆听": 8272,
      "街区": 8273,
      "认可": 8274,
      "设定": 8275,
      "运营": 8276,
      "一切都是": 8277,
      "六个月": 8278,
      "糖尿病": 8279,
      "主人": 8280,
      "优雅": 8281,
      "厉害": 8282,
      "司法": 8283,
      "对应": 8284,
      "干扰": 8285,
      "张图": 8286,
      "数百": 8287,
      "深海": 8288,
      "生气": 8289,
      "留给": 8290,
      "真理": 8291,
      "视野": 8292,
      "诚实": 8293,
      "通信": 8294,
      "韩国": 8295,
      "高科技": 8296,
      "研究生": 8297,
      "Ar": 8298,
      "举例": 8299,
      "化合物": 8300,
      "在家": 8301,
      "地带": 8302,
      "实用": 8303,
      "实质": 8304,
      "尴尬": 8305,
      "山脉": 8306,
      "微软": 8307,
      "注入": 8308,
      "消灭": 8309,
      "的是": 8310,
      "祖父": 8311,
      "精英": 8312,
      "维护": 8313,
      "讲讲": 8314,
      "财政": 8315,
      "长度": 8316,
      "顶端": 8317,
      "第二次": 8318,
      "来源于": 8319,
      "笔记本电脑": 8320,
      "染色体": 8321,
      "GPS": 8322,
      "ma": 8323,
      "一架": 8324,
      "主导": 8325,
      "交道": 8326,
      "做点": 8327,
      "准则": 8328,
      "劳动力": 8329,
      "十万": 8330,
      "可乐": 8331,
      "困惑": 8332,
      "国王": 8333,
      "宇航": 8334,
      "审视": 8335,
      "小行星": 8336,
      "已知": 8337,
      "布朗": 8338,
      "扩散": 8339,
      "抑制": 8340,
      "挖掘": 8341,
      "推出": 8342,
      "撞击": 8343,
      "无所": 8344,
      "牙齿": 8345,
      "生病": 8346,
      "监管": 8347,
      "维基": 8348,
      "脱离": 8349,
      "足以": 8350,
      "这首": 8351,
      "通用": 8352,
      "精神疾病": 8353,
      "一封": 8354,
      "万年前": 8355,
      "上述": 8356,
      "人为": 8357,
      "任意": 8358,
      "分别": 8359,
      "协作": 8360,
      "博拉": 8361,
      "周边": 8362,
      "失明": 8363,
      "实话": 8364,
      "室内": 8365,
      "底层": 8366,
      "引入": 8367,
      "录音": 8368,
      "惊叹": 8369,
      "惊喜": 8370,
      "挪威": 8371,
      "支撑": 8372,
      "最低": 8373,
      "档案": 8374,
      "清理": 8375,
      "灯光": 8376,
      "特质": 8377,
      "肢体": 8378,
      "苏联": 8379,
      "很多很多": 8380,
      "无线电": 8381,
      "X光": 8382,
      "wit": 8383,
      "人际": 8384,
      "依据": 8385,
      "全力": 8386,
      "单纯": 8387,
      "就业": 8388,
      "巨型": 8389,
      "总之": 8390,
      "意图": 8391,
      "教训": 8392,
      "斯蒂": 8393,
      "方块": 8394,
      "无处": 8395,
      "时常": 8396,
      "枪鱼": 8397,
      "标题": 8398,
      "歌曲": 8399,
      "清单": 8400,
      "激活": 8401,
      "版权": 8402,
      "缺少": 8403,
      "色彩": 8404,
      "谈判": 8405,
      "透过": 8406,
      "青春": 8407,
      "org": 8408,
      "com": 8409,
      "iv": 8410,
      "一副": 8411,
      "剧院": 8412,
      "叙利亚": 8413,
      "哥伦": 8414,
      "埃塞": 8415,
      "性质": 8416,
      "拜访": 8417,
      "捕食": 8418,
      "推测": 8419,
      "旅游": 8420,
      "有害": 8421,
      "步行": 8422,
      "比喻": 8423,
      "海地": 8424,
      "积累": 8425,
      "螺旋": 8426,
      "被迫": 8427,
      "资产": 8428,
      "金枪鱼": 8429,
      "2005": 8430,
      "复杂性": 8431,
      "ich": 8432,
      "另一边": 8433,
      "成年人": 8434,
      "不算": 8435,
      "不该": 8436,
      "不通": 8437,
      "两位": 8438,
      "两周": 8439,
      "严格": 8440,
      "主持": 8441,
      "从根本": 8442,
      "似的": 8443,
      "假装": 8444,
      "写下": 8445,
      "发行": 8446,
      "味道": 8447,
      "官员": 8448,
      "尔兰": 8449,
      "布什": 8450,
      "撒谎": 8451,
      "整理": 8452,
      "果蝇": 8453,
      "毫不": 8454,
      "永恒": 8455,
      "直升": 8456,
      "简化": 8457,
      "考试": 8458,
      "触摸": 8459,
      "詹姆斯": 8460,
      "足球": 8461,
      "迷人": 8462,
      "化学物质": 8463,
      "史蒂夫": 8464,
      "witter": 8465,
      "从根本上": 8466,
      "to": 8467,
      "乳腺癌": 8468,
      "写道": 8469,
      "协会": 8470,
      "只用": 8471,
      "可不": 8472,
      "年纪": 8473,
      "彗星": 8474,
      "抛弃": 8475,
      "拍照": 8476,
      "教徒": 8477,
      "早晨": 8478,
      "极为": 8479,
      "极限": 8480,
      "水源": 8481,
      "流程": 8482,
      "温暖": 8483,
      "源于": 8484,
      "爵士": 8485,
      "融化": 8486,
      "西洋": 8487,
      "身为": 8488,
      "青年": 8489,
      "一路": 8490,
      "不出": 8491,
      "乐意": 8492,
      "交配": 8493,
      "今日": 8494,
      "传到": 8495,
      "全是": 8496,
      "加纳": 8497,
      "十二": 8498,
      "哈顿": 8499,
      "大声": 8500,
      "大街": 8501,
      "头上": 8502,
      "小镇": 8503,
      "尾巴": 8504,
      "弄清楚": 8505,
      "德拉": 8506,
      "捕鱼": 8507,
      "早就": 8508,
      "构想": 8509,
      "棒球": 8510,
      "海滩": 8511,
      "照明": 8512,
      "男女": 8513,
      "神圣": 8514,
      "被称作": 8515,
      "运算": 8516,
      "麻省": 8517,
      "195": 8518,
      "纽约时报": 8519,
      "排放量": 8520,
      "发达国家": 8521,
      "创业": 8522,
      "受益": 8523,
      "听见": 8524,
      "咨询": 8525,
      "奥斯": 8526,
      "好多": 8527,
      "市长": 8528,
      "带上": 8529,
      "常规": 8530,
      "引力": 8531,
      "总体": 8532,
      "想过": 8533,
      "成百": 8534,
      "打交道": 8535,
      "曼哈顿": 8536,
      "根源": 8537,
      "浪漫": 8538,
      "爱尔兰": 8539,
      "用途": 8540,
      "男士": 8541,
      "英寸": 8542,
      "购物": 8543,
      "轮椅": 8544,
      "重力": 8545,
      "马丁": 8546,
      "探测器": 8547,
      "外星人": 8548,
      "CE": 8549,
      "hn": 8550,
      "伴侣": 8551,
      "制成": 8552,
      "可怜": 8553,
      "台上": 8554,
      "地铁": 8555,
      "外国": 8556,
      "富裕": 8557,
      "救援": 8558,
      "斯科": 8559,
      "更是": 8560,
      "最多": 8561,
      "村子": 8562,
      "案件": 8563,
      "独裁": 8564,
      "硬件": 8565,
      "解读": 8566,
      "超市": 8567,
      "轨迹": 8568,
      "辈子": 8569,
      "邪恶": 8570,
      "麻痹": 8571,
      "无人机": 8572,
      "不住": 8573,
      "二战": 8574,
      "共鸣": 8575,
      "取出": 8576,
      "同步": 8577,
      "奥巴马": 8578,
      "审查": 8579,
      "家具": 8580,
      "家园": 8581,
      "对付": 8582,
      "对手": 8583,
      "巴勒": 8584,
      "所见": 8585,
      "每秒": 8586,
      "法院": 8587,
      "深度": 8588,
      "激光": 8589,
      "火山": 8590,
      "理所": 8591,
      "相处": 8592,
      "简短": 8593,
      "蔬菜": 8594,
      "蚊帐": 8595,
      "表格": 8596,
      "诺贝尔": 8597,
      "顺序": 8598,
      "骄傲": 8599,
      "不可避免": 8600,
      "电子游戏": 8601,
      "打印机": 8602,
      "In": 8603,
      "一模": 8604,
      "一艘": 8605,
      "一道": 8606,
      "万个": 8607,
      "三天": 8608,
      "人有": 8609,
      "刚好": 8610,
      "力学": 8611,
      "包装": 8612,
      "可持续性": 8613,
      "国民": 8614,
      "大西洋": 8615,
      "好莱坞": 8616,
      "幸存": 8617,
      "搜寻": 8618,
      "撒哈拉": 8619,
      "最快": 8620,
      "翅膀": 8621,
      "蔓延": 8622,
      "长久": 8623,
      "餐馆": 8624,
      "这样的话": 8625,
      "依赖于": 8626,
      "高尔夫球": 8627,
      "32": 8628,
      "亲眼": 8629,
      "俄比亚": 8630,
      "入侵": 8631,
      "包围": 8632,
      "向上": 8633,
      "坏消息": 8634,
      "天生": 8635,
      "姿势": 8636,
      "对不起": 8637,
      "屋子": 8638,
      "床上": 8639,
      "拿走": 8640,
      "暗示": 8641,
      "沃尔": 8642,
      "消极": 8643,
      "激烈": 8644,
      "烹饪": 8645,
      "血压": 8646,
      "西亚": 8647,
      "诸如此": 8648,
      "超出": 8649,
      "这家": 8650,
      "那条": 8651,
      "酒吧": 8652,
      "发现自己": 8653,
      "创造性": 8654,
      "NASA": 8655,
      "埃塞俄比亚": 8656,
      "一模一样": 8657,
      "诸如此类": 8658,
      "从前": 8659,
      "伦理": 8660,
      "做个": 8661,
      "医师": 8662,
      "卢旺": 8663,
      "女孩子": 8664,
      "强奸": 8665,
      "强度": 8666,
      "当代": 8667,
      "情报": 8668,
      "所作": 8669,
      "指令": 8670,
      "收藏": 8671,
      "曲子": 8672,
      "有种": 8673,
      "武装": 8674,
      "然不同": 8675,
      "界限": 8676,
      "紧急": 8677,
      "纯粹": 8678,
      "询问": 8679,
      "解释一下": 8680,
      "斯坦福": 8681,
      "成百上千": 8682,
      "卢旺达": 8683,
      "28": 8684,
      "Tube": 8685,
      "qu": 8686,
      "上个": 8687,
      "几何": 8688,
      "前景": 8689,
      "副作用": 8690,
      "十个": 8691,
      "双方": 8692,
      "反抗": 8693,
      "发育": 8694,
      "发言": 8695,
      "官方": 8696,
      "居然": 8697,
      "开采": 8698,
      "很感兴趣": 8699,
      "意愿": 8700,
      "我家": 8701,
      "折纸": 8702,
      "排除": 8703,
      "操控": 8704,
      "教导": 8705,
      "方形": 8706,
      "最小": 8707,
      "核能": 8708,
      "派对": 8709,
      "线性": 8710,
      "耐心": 8711,
      "见面": 8712,
      "论者": 8713,
      "读书": 8714,
      "那次": 8715,
      "顶部": 8716,
      "数字化": 8717,
      "天然气": 8718,
      "犹太人": 8719,
      "95": 8720,
      "IT": 8721,
      "ri": 8722,
      "the": 8723,
      "不敢": 8724,
      "两件事": 8725,
      "中产": 8726,
      "亚历": 8727,
      "从此": 8728,
      "内战": 8729,
      "原料": 8730,
      "听过": 8731,
      "外线": 8732,
      "天赋": 8733,
      "安慰": 8734,
      "尼克": 8735,
      "录制": 8736,
      "扭曲": 8737,
      "损伤": 8738,
      "放松": 8739,
      "暂时": 8740,
      "本能": 8741,
      "棒极了": 8742,
      "添加": 8743,
      "猜想": 8744,
      "目光": 8745,
      "直线": 8746,
      "突变": 8747,
      "装备": 8748,
      "西部": 8749,
      "车辆": 8750,
      "这太": 8751,
      "这部分": 8752,
      "雌性": 8753,
      "震动": 8754,
      "震撼": 8755,
      "鼠标": 8756,
      "巴勒斯坦": 8757,
      "Twitter": 8758,
      "三倍": 8759,
      "不光": 8760,
      "为例": 8761,
      "人脑": 8762,
      "从不": 8763,
      "信用": 8764,
      "出口": 8765,
      "名声": 8766,
      "因特网": 8767,
      "土星": 8768,
      "导师": 8769,
      "恶心": 8770,
      "挑选": 8771,
      "挽救": 8772,
      "星星": 8773,
      "晶体": 8774,
      "滥用": 8775,
      "漫长": 8776,
      "牛奶": 8777,
      "狮子": 8778,
      "瘫痪": 8779,
      "看得": 8780,
      "看成": 8781,
      "等到": 8782,
      "苍蝇": 8783,
      "警告": 8784,
      "谎言": 8785,
      "过时": 8786,
      "这颗": 8787,
      "通道": 8788,
      "非政府": 8789,
      "这样一来": 8790,
      "投资者": 8791,
      "领导力": 8792,
      "相互作用": 8793,
      "医学院": 8794,
      "个性化": 8795,
      "Dav": 8796,
      "中来": 8797,
      "乌干": 8798,
      "二十年": 8799,
      "公斤": 8800,
      "初期": 8801,
      "厌恶": 8802,
      "可用": 8803,
      "奇特": 8804,
      "妹妹": 8805,
      "季节": 8806,
      "岗位": 8807,
      "市中心": 8808,
      "建成": 8809,
      "当初": 8810,
      "心态": 8811,
      "性能": 8812,
      "总有": 8813,
      "护理": 8814,
      "担忧": 8815,
      "查尔斯": 8816,
      "火虫": 8817,
      "盲人": 8818,
      "经理": 8819,
      "萤火虫": 8820,
      "词语": 8821,
      "返回": 8822,
      "里克": 8823,
      "ent": 8824,
      "电子邮件": 8825,
      "职业生涯": 8826,
      "好奇心": 8827,
      "德里克": 8828,
      "乌干达": 8829,
      "120": 8830,
      "一共": 8831,
      "不上": 8832,
      "储蓄": 8833,
      "公式": 8834,
      "共振": 8835,
      "再说": 8836,
      "半球": 8837,
      "卡尔": 8838,
      "品质": 8839,
      "四周": 8840,
      "地板": 8841,
      "大战": 8842,
      "姐姐": 8843,
      "字塔": 8844,
      "客观": 8845,
      "所用": 8846,
      "放下": 8847,
      "晚餐": 8848,
      "树林": 8849,
      "汽油": 8850,
      "漂浮": 8851,
      "短片": 8852,
      "碰撞": 8853,
      "秩序": 8854,
      "立法": 8855,
      "脑中": 8856,
      "航行": 8857,
      "衰老": 8858,
      "言论": 8859,
      "议题": 8860,
      "讲座": 8861,
      "赞助": 8862,
      "跑步": 8863,
      "金字塔": 8864,
      "银河": 8865,
      "艺术品": 8866,
      "令人兴奋": 8867,
      "麻省理工": 8868,
      "29": 8869,
      "og": 8870,
      "业务": 8871,
      "两条": 8872,
      "之地": 8873,
      "列表": 8874,
      "加贝": 8875,
      "发掘": 8876,
      "大海": 8877,
      "情境": 8878,
      "我试": 8879,
      "战士": 8880,
      "新兴": 8881,
      "无需": 8882,
      "时尚": 8883,
      "杀害": 8884,
      "谋杀": 8885,
      "逃离": 8886,
      "零件": 8887,
      "鞋子": 8888,
      "非常复杂": 8889,
      "一点儿": 8890,
      "演讲者": 8891,
      "无处不在": 8892,
      "哥伦比亚": 8893,
      "ion": 8894,
      "不及": 8895,
      "丧失": 8896,
      "之心": 8897,
      "五岁": 8898,
      "五百": 8899,
      "从小": 8900,
      "八个": 8901,
      "因子": 8902,
      "场合": 8903,
      "坏事": 8904,
      "坦白": 8905,
      "垂直": 8906,
      "声明": 8907,
      "太好了": 8908,
      "封闭": 8909,
      "尊严": 8910,
      "座椅": 8911,
      "开头": 8912,
      "必然": 8913,
      "患上": 8914,
      "手上": 8915,
      "政客": 8916,
      "格林": 8917,
      "此类": 8918,
      "电线": 8919,
      "终结": 8920,
      "要素": 8921,
      "规范": 8922,
      "议会": 8923,
      "身后": 8924,
      "轻易": 8925,
      "适当": 8926,
      "研究者": 8927,
      "神经系统": 8928,
      "ine": 8929,
      "角度看": 8930,
      "摄像头": 8931,
      "ee": 8932,
      "ut": 8933,
      "七年": 8934,
      "万物": 8935,
      "交叉": 8936,
      "产量": 8937,
      "人道": 8938,
      "众所": 8939,
      "冬天": 8940,
      "冲击": 8941,
      "几千": 8942,
      "半个": 8943,
      "即时": 8944,
      "友好": 8945,
      "呼吁": 8946,
      "处境": 8947,
      "寄生": 8948,
      "就此": 8949,
      "废弃": 8950,
      "弯曲": 8951,
      "性格": 8952,
      "恐怕": 8953,
      "恶化": 8954,
      "戈尔": 8955,
      "战场": 8956,
      "持有": 8957,
      "放置": 8958,
      "景观": 8959,
      "检验": 8960,
      "病菌": 8961,
      "监测": 8962,
      "蘑菇": 8963,
      "装饰": 8964,
      "财产": 8965,
      "阐述": 8966,
      "阶层": 8967,
      "青蛙": 8968,
      "预料": 8969,
      "1960": 8970,
      "2004": 8971,
      "人工智能": 8972,
      "一无所知": 8973,
      "脑海中": 8974,
      "野生动物": 8975,
      "33": 8976,
      "800": 8977,
      "HI": 8978,
      "七个": 8979,
      "乐部": 8980,
      "十字": 8981,
      "周知": 8982,
      "四十": 8983,
      "四种": 8984,
      "塞尔": 8985,
      "封面": 8986,
      "市民": 8987,
      "意志": 8988,
      "托马斯": 8989,
      "指示": 8990,
      "旅途": 8991,
      "无形": 8992,
      "明智": 8993,
      "欧盟": 8994,
      "水果": 8995,
      "白天": 8996,
      "肥皂": 8997,
      "虐待": 8998,
      "误解": 8999,
      "课题": 9000,
      "这时候": 9001,
      "那年": 9002,
      "阴影": 9003,
      "阴道": 9004,
      "一大堆": 9005,
      "再生能源": 9006,
      "YouTube": 9007,
      "250": 9008,
      "Dan": 9009,
      "一阵": 9010,
      "万年": 9011,
      "从头": 9012,
      "供给": 9013,
      "俱乐部": 9014,
      "光谱": 9015,
      "克拉": 9016,
      "关节": 9017,
      "医药": 9018,
      "单元": 9019,
      "卡片": 9020,
      "小男孩": 9021,
      "帕特": 9022,
      "干嘛": 9023,
      "年内": 9024,
      "把手": 9025,
      "智力": 9026,
      "替换": 9027,
      "种群": 9028,
      "股票": 9029,
      "能为": 9030,
      "2011": 9031,
      "2006": 9032,
      "吸引力": 9033,
      "二十世纪": 9034,
      "不清": 9035,
      "事务": 9036,
      "产出": 9037,
      "人来": 9038,
      "共识": 9039,
      "危害": 9040,
      "向下": 9041,
      "听听": 9042,
      "命令": 9043,
      "回头": 9044,
      "大厅": 9045,
      "大胆": 9046,
      "持久": 9047,
      "搜集": 9048,
      "效益": 9049,
      "明年": 9050,
      "水面": 9051,
      "消防": 9052,
      "滑雪": 9053,
      "玛丽": 9054,
      "看似": 9055,
      "科研": 9056,
      "竞赛": 9057,
      "竞选": 9058,
      "线索": 9059,
      "羞耻": 9060,
      "聚在一起": 9061,
      "脑子": 9062,
      "路径": 9063,
      "迁移": 9064,
      "迹象": 9065,
      "键盘": 9066,
      "飓风": 9067,
      "麻醉": 9068,
      "第一天": 9069,
      "art": 9070,
      "医疗保健": 9071,
      "普通人": 9072,
      "一代人": 9073,
      "抑郁症": 9074,
      "追溯到": 9075,
      "亚历山": 9076,
      "众所周知": 9077,
      "PA": 9078,
      "不愿": 9079,
      "不曾": 9080,
      "乳房": 9081,
      "优先": 9082,
      "出自": 9083,
      "协助": 9084,
      "参考": 9085,
      "发给": 9086,
      "叔叔": 9087,
      "善于": 9088,
      "回复": 9089,
      "大厦": 9090,
      "头部": 9091,
      "夸张": 9092,
      "密切": 9093,
      "尚未": 9094,
      "尸体": 9095,
      "带走": 9096,
      "忍受": 9097,
      "无穷": 9098,
      "有钱": 9099,
      "殖民": 9100,
      "水里": 9101,
      "牛津": 9102,
      "特兰": 9103,
      "电流": 9104,
      "痴呆": 9105,
      "登上": 9106,
      "礼拜": 9107,
      "线路": 9108,
      "肤色": 9109,
      "说起": 9110,
      "账户": 9111,
      "避孕": 9112,
      "使用者": 9113,
      "电视节目": 9114,
      "共同点": 9115,
      "百分之九十": 9116,
      "理所当然": 9117,
      "亚历山大": 9118,
      "4000": 9119,
      "三明": 9120,
      "体积": 9121,
      "八年": 9122,
      "冠军": 9123,
      "助于": 9124,
      "包容": 9125,
      "受过": 9126,
      "四岁": 9127,
      "地址": 9128,
      "大致": 9129,
      "女子": 9130,
      "家中": 9131,
      "射线": 9132,
      "小学": 9133,
      "总共": 9134,
      "战胜": 9135,
      "有毒": 9136,
      "有意识": 9137,
      "沉浸": 9138,
      "泡沫": 9139,
      "热衷": 9140,
      "瓶子": 9141,
      "真空": 9142,
      "知觉": 9143,
      "短暂": 9144,
      "自私": 9145,
      "营利": 9146,
      "起初": 9147,
      "转动": 9148,
      "追寻": 9149,
      "问道": 9150,
      "顾问": 9151,
      "预言": 9152,
      "怎样才能": 9153,
      "反应堆": 9154,
      "纽约市": 9155,
      "多样化": 9156,
      "700": 9157,
      "Rob": 9158,
      "一人": 9159,
      "一番": 9160,
      "一页": 9161,
      "为人": 9162,
      "介入": 9163,
      "仿生": 9164,
      "偶尔": 9165,
      "压缩": 9166,
      "周末": 9167,
      "回归": 9168,
      "图画": 9169,
      "尔德": 9170,
      "尼尔": 9171,
      "延长": 9172,
      "彼得": 9173,
      "思路": 9174,
      "截然不同": 9175,
      "教练": 9176,
      "无可": 9177,
      "时机": 9178,
      "更进一步": 9179,
      "架构": 9180,
      "校园": 9181,
      "桌上": 9182,
      "楼梯": 9183,
      "汉堡": 9184,
      "没关系": 9185,
      "测序": 9186,
      "灰质": 9187,
      "热量": 9188,
      "生殖": 9189,
      "磁共振": 9190,
      "立场": 9191,
      "简洁": 9192,
      "箱子": 9193,
      "而后": 9194,
      "行不通": 9195,
      "西兰": 9196,
      "议员": 9197,
      "讯息": 9198,
      "试想": 9199,
      "输出": 9200,
      "除此": 9201,
      "雨水": 9202,
      "颠覆": 9203,
      "不同于": 9204,
      "飞行员": 9205,
      "ath": 9206,
      "传染病": 9207,
      "John": 9208,
      "三明治": 9209,
      "911": 9210,
      "Pr": 9211,
      "Pet": 9212,
      "pp": 9213,
      "人力": 9214,
      "修建": 9215,
      "修改": 9216,
      "催产": 9217,
      "减轻": 9218,
      "加强": 9219,
      "加快": 9220,
      "及时": 9221,
      "号码": 9222,
      "否认": 9223,
      "圆形": 9224,
      "奶奶": 9225,
      "好几个": 9226,
      "孤儿": 9227,
      "宝贵": 9228,
      "实行": 9229,
      "布拉": 9230,
      "强制": 9231,
      "打个": 9232,
      "提问": 9233,
      "摩托": 9234,
      "暗物质": 9235,
      "最有": 9236,
      "柏林": 9237,
      "渠道": 9238,
      "熟知": 9239,
      "牧师": 9240,
      "特技": 9241,
      "生育": 9242,
      "硅谷": 9243,
      "蒙特": 9244,
      "贩卖": 9245,
      "边境": 9246,
      "错觉": 9247,
      "问问": 9248,
      "飞过": 9249,
      "高于": 9250,
      "处理器": 9251,
      "all": 9252,
      "一百年": 9253,
      "不在乎": 9254,
      "比方说": 9255,
      "玩意儿": 9256,
      "直升机": 9257,
      "47": 9258,
      "Car": 9259,
      "ug": 9260,
      "一杯": 9261,
      "不变": 9262,
      "不堪": 9263,
      "不良": 9264,
      "五分钟": 9265,
      "几次": 9266,
      "同学": 9267,
      "回想": 9268,
      "地质": 9269,
      "孟加拉": 9270,
      "尺度": 9271,
      "引领": 9272,
      "慷慨": 9273,
      "找寻": 9274,
      "授权": 9275,
      "提琴": 9276,
      "揭示": 9277,
      "来回": 9278,
      "海平面": 9279,
      "演说": 9280,
      "点儿": 9281,
      "硬币": 9282,
      "社群": 9283,
      "结局": 9284,
      "远程": 9285,
      "队员": 9286,
      "风景": 9287,
      "第一位": 9288,
      "2001": 9289,
      "ind": 9290,
      "生产力": 9291,
      "服务器": 9292,
      "交通工具": 9293,
      "催产素": 9294,
      "候选": 9295,
      "做事": 9296,
      "共有": 9297,
      "分数": 9298,
      "北京": 9299,
      "吃饭": 9300,
      "复活": 9301,
      "察觉": 9302,
      "尊敬": 9303,
      "屋子里": 9304,
      "延续": 9305,
      "总值": 9306,
      "感恩": 9307,
      "支出": 9308,
      "斯拉": 9309,
      "早已": 9310,
      "氏度": 9311,
      "水母": 9312,
      "注册": 9313,
      "消化": 9314,
      "滑板": 9315,
      "演变": 9316,
      "潜能": 9317,
      "电极": 9318,
      "盖茨": 9319,
      "眼中": 9320,
      "突出": 9321,
      "等级": 9322,
      "节约": 9323,
      "被动": 9324,
      "这使": 9325,
      "逮捕": 9326,
      "郊区": 9327,
      "长达": 9328,
      "降到": 9329,
      "大脑皮层": 9330,
      "不管怎样": 9331,
      "停车场": 9332,
      "拉丁美洲": 9333,
      "分之二": 9334,
      "青春期": 9335,
      "48": 9336,
      "85": 9337,
      "一口": 9338,
      "一棵": 9339,
      "一款": 9340,
      "不但": 9341,
      "不怎么": 9342,
      "举起": 9343,
      "书写": 9344,
      "五千": 9345,
      "亲自": 9346,
      "人能": 9347,
      "克利": 9348,
      "克莱": 9349,
      "卓越": 9350,
      "单单": 9351,
      "卡通": 9352,
      "古怪": 9353,
      "名单": 9354,
      "哥哥": 9355,
      "商人": 9356,
      "多巴": 9357,
      "失业": 9358,
      "幼儿": 9359,
      "得不到": 9360,
      "怀特": 9361,
      "慈悲": 9362,
      "投影": 9363,
      "普及": 9364,
      "涂鸦": 9365,
      "演唱": 9366,
      "灰色": 9367,
      "盈利": 9368,
      "直径": 9369,
      "罕见": 9370,
      "老实": 9371,
      "肉眼": 9372,
      "膝盖": 9373,
      "艾米": 9374,
      "节省": 9375,
      "荣誉": 9376,
      "补充": 9377,
      "论点": 9378,
      "设法": 9379,
      "访谈": 9380,
      "诉讼": 9381,
      "辅助": 9382,
      "首席": 9383,
      "生物体": 9384,
      "2003": 9385,
      "精神分裂": 9386,
      "amp": 9387,
      "流行病": 9388,
      "外科医生": 9389,
      "一体": 9390,
      "三十年": 9391,
      "乐团": 9392,
      "传送": 9393,
      "伸出": 9394,
      "低于": 9395,
      "八十": 9396,
      "印第": 9397,
      "启示": 9398,
      "在意": 9399,
      "培育": 9400,
      "大人": 9401,
      "奋斗": 9402,
      "就行": 9403,
      "属性": 9404,
      "巴尔": 9405,
      "带入": 9406,
      "帽子": 9407,
      "当年": 9408,
      "故意": 9409,
      "暴露": 9410,
      "术语": 9411,
      "核武器": 9412,
      "歌手": 9413,
      "用作": 9414,
      "甲烷": 9415,
      "监禁": 9416,
      "粪便": 9417,
      "组建": 9418,
      "终极": 9419,
      "苏格兰": 9420,
      "让人": 9421,
      "越南": 9422,
      "车里": 9423,
      "过后": 9424,
      "通往": 9425,
      "造就": 9426,
      "风能": 9427,
      "高峰": 9428,
      "美国政府": 9429,
      "食物链": 9430,
      "应用程序": 9431,
      "目的地": 9432,
      "高速公路": 9433,
      "马拉松": 9434,
      "人际关系": 9435,
      "CEO": 9436,
      "银河系": 9437,
      "印第安": 9438,
      "Ge": 9439,
      "上百万": 9440,
      "下次": 9441,
      "乘客": 9442,
      "亲身": 9443,
      "创办": 9444,
      "可惜": 9445,
      "地去": 9446,
      "坚定": 9447,
      "大幅": 9448,
      "峡谷": 9449,
      "废物": 9450,
      "开创": 9451,
      "想不到": 9452,
      "感动": 9453,
      "接种": 9454,
      "提及": 9455,
      "搞清楚": 9456,
      "文献": 9457,
      "有太多": 9458,
      "气泡": 9459,
      "海里": 9460,
      "理智": 9461,
      "画画": 9462,
      "痕迹": 9463,
      "短短": 9464,
      "磁场": 9465,
      "称呼": 9466,
      "等同": 9467,
      "粗糙": 9468,
      "绝不": 9469,
      "草原": 9470,
      "说实话": 9471,
      "过渡": 9472,
      "长远": 9473,
      "预计": 9474,
      "----": 9475,
      "经济体": 9476,
      "工程学": 9477,
      "ica": 9478,
      "维基百科": 9479,
      "三分之二": 9480,
      "两千": 9481,
      "九个": 9482,
      "佛罗": 9483,
      "几种": 9484,
      "出乎": 9485,
      "加以": 9486,
      "在内": 9487,
      "在此": 9488,
      "始于": 9489,
      "宝贝": 9490,
      "审判": 9491,
      "寒冷": 9492,
      "崛起": 9493,
      "廉价": 9494,
      "排序": 9495,
      "摩尔": 9496,
      "方程": 9497,
      "明星": 9498,
      "橄榄": 9499,
      "毫米": 9500,
      "海啸": 9501,
      "独一无": 9502,
      "约束": 9503,
      "维亚": 9504,
      "行驶": 9505,
      "语音": 9506,
      "转变成": 9507,
      "难度": 9508,
      "马达": 9509,
      "驱使": 9510,
      "有点儿": 9511,
      "刚刚开始": 9512,
      "工业革命": 9513,
      "采取行动": 9514,
      "激动人心": 9515,
      "不论是": 9516,
      "独一无二": 9517,
      "Am": 9518,
      "一月": 9519,
      "一瞬间": 9520,
      "万美金": 9521,
      "三岁": 9522,
      "业余": 9523,
      "假肢": 9524,
      "兰经": 9525,
      "养殖": 9526,
      "冰箱": 9527,
      "几百万": 9528,
      "反正": 9529,
      "可口": 9530,
      "可视": 9531,
      "后悔": 9532,
      "唱歌": 9533,
      "太大": 9534,
      "射击": 9535,
      "尔特": 9536,
      "尽力": 9537,
      "崭新": 9538,
      "恶劣": 9539,
      "损害": 9540,
      "排名": 9541,
      "教科": 9542,
      "旅馆": 9543,
      "显现": 9544,
      "更糟": 9545,
      "更长": 9546,
      "朝着": 9547,
      "树上": 9548,
      "死刑": 9549,
      "沼泽": 9550,
      "编织": 9551,
      "英格兰": 9552,
      "荒谬": 9553,
      "蛋糕": 9554,
      "觅食": 9555,
      "车子": 9556,
      "转折": 9557,
      "选项": 9558,
      "世界银行": 9559,
      "解决办法": 9560,
      "1990": 9561,
      "ers": 9562,
      "兄弟姐妹": 9563,
      "David": 9564,
      "BM": 9565,
      "aw": 9566,
      "一团": 9567,
      "一处": 9568,
      "一门": 9569,
      "上周": 9570,
      "不已": 9571,
      "两只": 9572,
      "之旅": 9573,
      "亚里": 9574,
      "偏远": 9575,
      "前列": 9576,
      "剑桥": 9577,
      "动手": 9578,
      "塔利": 9579,
      "带回": 9580,
      "干旱": 9581,
      "总和": 9582,
      "手提": 9583,
      "捕捞": 9584,
      "提示": 9585,
      "有助于": 9586,
      "来临": 9587,
      "板球": 9588,
      "洗衣": 9589,
      "渔业": 9590,
      "焦点": 9591,
      "留言": 9592,
      "空白": 9593,
      "老化": 9594,
      "耶稣": 9595,
      "脊椎": 9596,
      "要花": 9597,
      "跨国": 9598,
      "这群": 9599,
      "遥控": 9600,
      "重塑": 9601,
      "阿瑟": 9602,
      "音符": 9603,
      "生产总值": 9604,
      "现实生活": 9605,
      "而言之": 9606,
      "确定性": 9607,
      "ack": 9608,
      "墨西哥湾": 9609,
      "IM": 9610,
      "上次": 9611,
      "丛林": 9612,
      "举动": 9613,
      "亿个": 9614,
      "亿美金": 9615,
      "作曲": 9616,
      "六岁": 9617,
      "兰克": 9618,
      "分割": 9619,
      "加热": 9620,
      "叙述": 9621,
      "同伴": 9622,
      "同行": 9623,
      "因而": 9624,
      "声称": 9625,
      "对照": 9626,
      "应付": 9627,
      "微妙": 9628,
      "心情": 9629,
      "托邦": 9630,
      "抵达": 9631,
      "搞笑": 9632,
      "文本": 9633,
      "最具": 9634,
      "棉花": 9635,
      "残酷": 9636,
      "没用": 9637,
      "注定": 9638,
      "洗手": 9639,
      "癌细胞": 9640,
      "研制": 9641,
      "经费": 9642,
      "肩膀": 9643,
      "脑子里": 9644,
      "花钱": 9645,
      "解剖": 9646,
      "触及": 9647,
      "讲台": 9648,
      "诱惑": 9649,
      "跟随": 9650,
      "车库": 9651,
      "那会": 9652,
      "钥匙": 9653,
      "1500": 9654,
      "组成部分": 9655,
      "统计数据": 9656,
      "麦克风": 9657,
      "......": 9658,
      "中产阶级": 9659,
      "Sp": 9660,
      "em": 9661,
      "ov": 9662,
      "不动": 9663,
      "交响": 9664,
      "付诸": 9665,
      "优化": 9666,
      "何处": 9667,
      "倾斜": 9668,
      "光明": 9669,
      "升级": 9670,
      "右手": 9671,
      "多德": 9672,
      "头条": 9673,
      "女生": 9674,
      "妥协": 9675,
      "孩童": 9676,
      "宣称": 9677,
      "岛屿": 9678,
      "帐篷": 9679,
      "并未": 9680,
      "征服": 9681,
      "拇指": 9682,
      "案子": 9683,
      "桥梁": 9684,
      "模块": 9685,
      "泡泡": 9686,
      "用品": 9687,
      "男生": 9688,
      "画家": 9689,
      "畏惧": 9690,
      "相遇": 9691,
      "罗伯特": 9692,
      "肝脏": 9693,
      "船上": 9694,
      "蟑螂": 9695,
      "行道": 9696,
      "路易": 9697,
      "这笔": 9698,
      "逆转": 9699,
      "遗产": 9700,
      "那场": 9701,
      "那段": 9702,
      "都市": 9703,
      "首要": 9704,
      "骨架": 9705,
      "高等": 9706,
      "2012": 9707,
      "城市化": 9708,
      "ert": 9709,
      "erson": 9710,
      "宗教信仰": 9711,
      "不好意思": 9712,
      "除此之外": 9713,
      "42": 9714,
      "ran": 9715,
      "一度": 9716,
      "一股": 9717,
      "不信": 9718,
      "不时": 9719,
      "不着": 9720,
      "专辑": 9721,
      "丢失": 9722,
      "中文": 9723,
      "乌鸦": 9724,
      "人格": 9725,
      "促成": 9726,
      "停下": 9727,
      "前行": 9728,
      "后期": 9729,
      "唱片": 9730,
      "城镇": 9731,
      "大师": 9732,
      "大门": 9733,
      "太太": 9734,
      "夫妇": 9735,
      "女权": 9736,
      "容忍": 9737,
      "微博": 9738,
      "必需": 9739,
      "成效": 9740,
      "手法": 9741,
      "抉择": 9742,
      "把握": 9743,
      "指责": 9744,
      "提前": 9745,
      "教给": 9746,
      "杰克": 9747,
      "比特": 9748,
      "看做": 9749,
      "紫色": 9750,
      "线条": 9751,
      "美味": 9752,
      "聚焦": 9753,
      "认出": 9754,
      "转过": 9755,
      "这栋": 9756,
      "这比": 9757,
      "遵守": 9758,
      "长寿": 9759,
      "随处": 9760,
      "频繁": 9761,
      "骆驼": 9762,
      "合作伙伴": 9763,
      "另一半": 9764,
      "老年人": 9765,
      "BC": 9766,
      "CO": 9767,
      "上传": 9768,
      "仍旧": 9769,
      "借口": 9770,
      "卧室": 9771,
      "发作": 9772,
      "古典": 9773,
      "国防": 9774,
      "天使": 9775,
      "宏观": 9776,
      "布莱": 9777,
      "引人": 9778,
      "弟弟": 9779,
      "弹性": 9780,
      "患病": 9781,
      "愿景": 9782,
      "我读": 9783,
      "探究": 9784,
      "推荐": 9785,
      "政权": 9786,
      "救助": 9787,
      "春天": 9788,
      "浓度": 9789,
      "淡水": 9790,
      "灵长": 9791,
      "生于": 9792,
      "疫情": 9793,
      "病例": 9794,
      "累积": 9795,
      "细微": 9796,
      "诠释": 9797,
      "请举手": 9798,
      "货物": 9799,
      "走廊": 9800,
      "起点": 9801,
      "越大": 9802,
      "这能": 9803,
      "逐步": 9804,
      "铁路": 9805,
      "防御": 9806,
      "令人惊叹": 9807,
      "宇航员": 9808,
      "人道主义": 9809,
      "HIV": 9810,
      "多巴胺": 9811,
      "KB": 9812,
      "The": 9813,
      "ne": 9814,
      "一夜": 9815,
      "下方": 9816,
      "不难": 9817,
      "主观": 9818,
      "停留": 9819,
      "冰层": 9820,
      "分支": 9821,
      "切实": 9822,
      "协同": 9823,
      "卡罗": 9824,
      "厘米": 9825,
      "古代": 9826,
      "名人": 9827,
      "听觉": 9828,
      "品种": 9829,
      "善良": 9830,
      "头痛": 9831,
      "巧妙": 9832,
      "心智": 9833,
      "总部": 9834,
      "我想": 9835,
      "摇滚": 9836,
      "无疑": 9837,
      "智利": 9838,
      "智商": 9839,
      "更少": 9840,
      "木头": 9841,
      "本人": 9842,
      "杯子": 9843,
      "根除": 9844,
      "每人": 9845,
      "没能": 9846,
      "海上": 9847,
      "清醒": 9848,
      "温和": 9849,
      "玩游戏": 9850,
      "直观": 9851,
      "第五": 9852,
      "结核": 9853,
      "脸书": 9854,
      "船只": 9855,
      "话语": 9856,
      "诸如": 9857,
      "重组": 9858,
      "ang": 9859,
      "印度人": 9860,
      "当地人": 9861,
      "并不需要": 9862,
      "脊髓灰质": 9863,
      "脊髓灰质炎": 9864,
      "MIT": 9865,
      "三次": 9866,
      "东部": 9867,
      "中期": 9868,
      "享有": 9869,
      "加仑": 9870,
      "变形": 9871,
      "四分之一": 9872,
      "复兴": 9873,
      "大使": 9874,
      "安置": 9875,
      "少量": 9876,
      "岛上": 9877,
      "平静": 9878,
      "广阔": 9879,
      "开端": 9880,
      "很漂亮": 9881,
      "总量": 9882,
      "恰当": 9883,
      "无神": 9884,
      "棘手": 9885,
      "榜样": 9886,
      "泄漏": 9887,
      "注视": 9888,
      "牛顿": 9889,
      "特权": 9890,
      "特里": 9891,
      "犯人": 9892,
      "球员": 9893,
      "财务": 9894,
      "赛车": 9895,
      "起诉": 9896,
      "足迹": 9897,
      "送给": 9898,
      "马路": 9899,
      "鸿沟": 9900,
      "有效率": 9901,
      "ley": 9902,
      "想想看": 9903,
      "对称性": 9904,
      "幸存者": 9905,
      "为人知": 9906,
      "37": 9907,
      "DH": 9908,
      "上海": 9909,
      "不利": 9910,
      "两点": 9911,
      "主张": 9912,
      "充斥": 9913,
      "充电": 9914,
      "克萨斯": 9915,
      "关乎": 9916,
      "制品": 9917,
      "加密": 9918,
      "加斯": 9919,
      "卡路": 9920,
      "响应": 9921,
      "大于": 9922,
      "大城市": 9923,
      "头顶": 9924,
      "姑娘": 9925,
      "对立": 9926,
      "弹奏": 9927,
      "强有力": 9928,
      "批准": 9929,
      "旗帜": 9930,
      "杀手": 9931,
      "束缚": 9932,
      "棕色": 9933,
      "水泥": 9934,
      "爷爷": 9935,
      "特人": 9936,
      "琼斯": 9937,
      "看一看": 9938,
      "瞄准": 9939,
      "级别": 9940,
      "终点": 9941,
      "置于": 9942,
      "美的": 9943,
      "职责": 9944,
      "肖像": 9945,
      "谨慎": 9946,
      "里达": 9947,
      "锻炼": 9948,
      "限于": 9949,
      "雕像": 9950,
      "频道": 9951,
      "首都": 9952,
      "神经科学": 9953,
      "人性化": 9954,
      "毕业生": 9955,
      "纪录片": 9956,
      "共和党": 9957,
      "佛罗里达": 9958,
      "塔利班": 9959,
      "卡路里": 9960,
      "36": 9961,
      "BG": 9962,
      "DA": 9963,
      "Mc": 9964,
      "Sc": 9965,
      "yn": 9966,
      "一会": 9967,
      "上课": 9968,
      "主宰": 9969,
      "以南": 9970,
      "低成本": 9971,
      "冷却": 9972,
      "切割": 9973,
      "制药": 9974,
      "华尔": 9975,
      "反过来": 9976,
      "同等": 9977,
      "圈子": 9978,
      "地狱": 9979,
      "多于": 9980,
      "威廉": 9981,
      "导演": 9982,
      "底特": 9983,
      "性感": 9984,
      "恰好": 9985,
      "推断": 9986,
      "数十亿": 9987,
      "斯顿": 9988,
      "新西兰": 9989,
      "曼德拉": 9990,
      "最棒": 9991,
      "次数": 9992,
      "洛克": 9993,
      "犯错": 9994,
      "百年": 9995,
      "监督": 9996,
      "福特": 9997,
      "科幻": 9998,
      "管子": 9999,
      "而出": 10000,
      "胳膊": 10001,
      "脑细胞": 10002,
      "苦难": 10003,
      "踏上": 10004,
      "顶尖": 10005,
      "黑帮": 10006,
      "创造者": 10007,
      "2050": 10008,
      "第一批": 10009,
      "不仅如此": 10010,
      "连接起来": 10011,
      "银行家": 10012,
      "虚拟现实": 10013,
      "难民营": 10014,
      "临床试验": 10015,
      "转化成": 10016,
      "天文学家": 10017,
      "免疫系统": 10018,
      "很久以前": 10019,
      "痴呆症": 10020,
      "等同于": 10021,
      "底特律": 10022,
      "Ab": 10023,
      "Be": 10024,
      "CD": 10025,
      "SP": 10026,
      "ta": 10027,
      "一倍": 10028,
      "主管": 10029,
      "主角": 10030,
      "乌托邦": 10031,
      "买卖": 10032,
      "些时候": 10033,
      "人行道": 10034,
      "位数": 10035,
      "低估": 10036,
      "住房": 10037,
      "体型": 10038,
      "作弊": 10039,
      "侵蚀": 10040,
      "党派": 10041,
      "分为": 10042,
      "前后": 10043,
      "剥夺": 10044,
      "北方": 10045,
      "卖淫": 10046,
      "占领": 10047,
      "去掉": 10048,
      "受损": 10049,
      "叫声": 10050,
      "合同": 10051,
      "喜悦": 10052,
      "国界": 10053,
      "填充": 10054,
      "复合": 10055,
      "外表": 10056,
      "多岁": 10057,
      "天线": 10058,
      "头骨": 10059,
      "宠物": 10060,
      "小提琴": 10061,
      "平凡": 10062,
      "应有": 10063,
      "总的": 10064,
      "悬崖": 10065,
      "愉悦": 10066,
      "所学": 10067,
      "报导": 10068,
      "拿来": 10069,
      "指向": 10070,
      "数年": 10071,
      "日益": 10072,
      "最先": 10073,
      "朝鲜": 10074,
      "根廷": 10075,
      "残忍": 10076,
      "每月": 10077,
      "海豹": 10078,
      "照相机": 10079,
      "狂热": 10080,
      "珍贵": 10081,
      "用处": 10082,
      "直播": 10083,
      "砍伐": 10084,
      "立体": 10085,
      "篇文章": 10086,
      "紧紧": 10087,
      "编写": 10088,
      "缺失": 10089,
      "而上": 10090,
      "职位": 10091,
      "胞胎": 10092,
      "脉冲": 10093,
      "脚趾": 10094,
      "说唱": 10095,
      "连结": 10096,
      "阿根廷": 10097,
      "饼干": 10098,
      "鲁士": 10099,
      "ore": 10100,
      "扫描仪": 10101,
      "量子力学": 10102,
      "南极洲": 10103,
      "基督教": 10104,
      "ce": 10105,
      "de": 10106,
      "if": 10107,
      "一方": 10108,
      "一行": 10109,
      "上角": 10110,
      "不远": 10111,
      "伯格": 10112,
      "关爱": 10113,
      "削减": 10114,
      "动脉": 10115,
      "圣战": 10116,
      "大片": 10117,
      "天主": 10118,
      "孙子": 10119,
      "实习": 10120,
      "富人": 10121,
      "尽快": 10122,
      "影子": 10123,
      "性爱": 10124,
      "悲惨": 10125,
      "手表": 10126,
      "林肯": 10127,
      "横跨": 10128,
      "沙特": 10129,
      "波斯": 10130,
      "漏洞": 10131,
      "濒临": 10132,
      "煤炭": 10133,
      "照射": 10134,
      "甘地": 10135,
      "电梯": 10136,
      "画出": 10137,
      "眼光": 10138,
      "知名": 10139,
      "碰巧": 10140,
      "签署": 10141,
      "紫外线": 10142,
      "绳子": 10143,
      "维尔": 10144,
      "罢了": 10145,
      "肚子": 10146,
      "菲利": 10147,
      "说谎": 10148,
      "越过": 10149,
      "轮子": 10150,
      "辅导": 10151,
      "迫使": 10152,
      "追随": 10153,
      "问过": 10154,
      "静止": 10155,
      "非暴力": 10156,
      "意识形态": 10157,
      "1950": 10158,
      "1980": 10159,
      "制造商": 10160,
      "电视台": 10161,
      "电视机": 10162,
      "并非如此": 10163,
      "综合征": 10164,
      "三角形": 10165,
      "爱好者": 10166,
      "教科书": 10167,
      "灵长类": 10168,
      "46": 10169,
      "PM": 10170,
      "sh": 10171,
      "一圈": 10172,
      "主体": 10173,
      "付钱": 10174,
      "克兰": 10175,
      "六十": 10176,
      "分泌": 10177,
      "加工": 10178,
      "变量": 10179,
      "吃掉": 10180,
      "吸烟": 10181,
      "哭泣": 10182,
      "坦桑": 10183,
      "复苏": 10184,
      "夏威": 10185,
      "大麻": 10186,
      "大学生": 10187,
      "好人": 10188,
      "孤立": 10189,
      "密集": 10190,
      "巴嫩": 10191,
      "引进": 10192,
      "强壮": 10193,
      "暂停": 10194,
      "歌颂": 10195,
      "水资源": 10196,
      "泄露": 10197,
      "海藻": 10198,
      "环节": 10199,
      "理发": 10200,
      "瑞克": 10201,
      "用以": 10202,
      "电动": 10203,
      "白宫": 10204,
      "窗口": 10205,
      "纳州": 10206,
      "考察": 10207,
      "胰岛": 10208,
      "自发": 10209,
      "评级": 10210,
      "诸多": 10211,
      "辨别": 10212,
      "这套": 10213,
      "进制": 10214,
      "问到": 10215,
      "隔绝": 10216,
      "饥荒": 10217,
      "香蕉": 10218,
      "高潮": 10219,
      "高达": 10220,
      "黎巴嫩": 10221,
      "事实证明": 10222,
      "2002": 10223,
      "尽管如此": 10224,
      "ord": 10225,
      "恐怖袭击": 10226,
      "阿拉伯语": 10227,
      "翻译成": 10228,
      "葡萄牙": 10229,
      "布鲁诺": 10230,
      "斯蒂芬": 10231,
      "捕食者": 10232,
      "幼儿园": 10233,
      "夏威夷": 10234,
      "Ed": 10235,
      "ky": 10236,
      "of": 10237,
      "一眼": 10238,
      "不大": 10239,
      "义务": 10240,
      "今后": 10241,
      "优点": 10242,
      "伤心": 10243,
      "克隆": 10244,
      "划分": 10245,
      "加油": 10246,
      "动词": 10247,
      "南方": 10248,
      "原油": 10249,
      "古巴": 10250,
      "另一只": 10251,
      "可归": 10252,
      "名词": 10253,
      "奶酪": 10254,
      "实力": 10255,
      "家可归": 10256,
      "容器": 10257,
      "局面": 10258,
      "干燥": 10259,
      "性欲": 10260,
      "抗体": 10261,
      "捕获": 10262,
      "收缩": 10263,
      "施加": 10264,
      "无力": 10265,
      "更具": 10266,
      "注重": 10267,
      "看清": 10268,
      "立方": 10269,
      "群众": 10270,
      "节点": 10271,
      "花朵": 10272,
      "英镑": 10273,
      "西斯": 10274,
      "言语": 10275,
      "譬如": 10276,
      "诸位": 10277,
      "跳伞": 10278,
      "进而": 10279,
      "适宜": 10280,
      "选出": 10281,
      "研究员": 10282,
      "一下子": 10283,
      "进化论": 10284,
      "幸福感": 10285,
      "Ste": 10286,
      "有机体": 10287,
      "转换成": 10288,
      "主持人": 10289,
      "总的来说": 10290,
      "ID": 10291,
      "Le": 10292,
      "ph": 10293,
      "一笔": 10294,
      "上瘾": 10295,
      "乐高": 10296,
      "传授": 10297,
      "侵入": 10298,
      "侵犯": 10299,
      "充足": 10300,
      "冥想": 10301,
      "冲动": 10302,
      "冲浪": 10303,
      "包裹": 10304,
      "千计": 10305,
      "升高": 10306,
      "历程": 10307,
      "原谅": 10308,
      "厨师": 10309,
      "可笑": 10310,
      "嘲笑": 10311,
      "土著": 10312,
      "在外": 10313,
      "坐标": 10314,
      "天体": 10315,
      "子女": 10316,
      "子弹": 10317,
      "宪法": 10318,
      "山顶": 10319,
      "开支": 10320,
      "弗兰克": 10321,
      "当天": 10322,
      "抗争": 10323,
      "推移": 10324,
      "揭露": 10325,
      "无助": 10326,
      "无家可归": 10327,
      "更高": 10328,
      "正当": 10329,
      "测验": 10330,
      "浮现": 10331,
      "灌输": 10332,
      "爱人": 10333,
      "电磁": 10334,
      "病情": 10335,
      "盲目": 10336,
      "禁忌": 10337,
      "立学校": 10338,
      "精子": 10339,
      "繁衍": 10340,
      "绝大部分": 10341,
      "考验": 10342,
      "蒸汽": 10343,
      "许许多": 10344,
      "起飞": 10345,
      "违反": 10346,
      "违法": 10347,
      "音频": 10348,
      "题目": 10349,
      "魔力": 10350,
      "鳄鱼": 10351,
      "麦当": 10352,
      "如果说": 10353,
      "不同寻常": 10354,
      "神经细胞": 10355,
      "英国人": 10356,
      "商业模式": 10357,
      "艾滋病毒": 10358,
      "智能手机": 10359,
      "数以千计": 10360,
      "迈克尔": 10361,
      "举例来说": 10362,
      "诺贝尔奖": 10363,
      "坦桑尼亚": 10364,
      "胰岛素": 10365,
      "许许多多": 10366,
      "RNA": 10367,
      "SE": 10368,
      "一日": 10369,
      "一英里": 10370,
      "三件": 10371,
      "中风": 10372,
      "乘坐": 10373,
      "事会": 10374,
      "二维": 10375,
      "亚特兰": 10376,
      "伤口": 10377,
      "修理": 10378,
      "入口": 10379,
      "八岁": 10380,
      "关掉": 10381,
      "养活": 10382,
      "分化": 10383,
      "分歧": 10384,
      "双胞胎": 10385,
      "发动": 10386,
      "口号": 10387,
      "叶子": 10388,
      "墙壁": 10389,
      "天性": 10390,
      "失调": 10391,
      "孟买": 10392,
      "将军": 10393,
      "巴拉": 10394,
      "得起": 10395,
      "打败": 10396,
      "提交": 10397,
      "撰写": 10398,
      "支架": 10399,
      "无意": 10400,
      "服装": 10401,
      "枪支": 10402,
      "校长": 10403,
      "歌剧": 10404,
      "歌唱": 10405,
      "比利": 10406,
      "海军": 10407,
      "海湾": 10408,
      "海盗": 10409,
      "电台": 10410,
      "画作": 10411,
      "真菌": 10412,
      "第一种": 10413,
      "胡子": 10414,
      "芬奇": 10415,
      "落后": 10416,
      "装满": 10417,
      "认定": 10418,
      "资讯": 10419,
      "身高": 10420,
      "近期": 10421,
      "还给": 10422,
      "退出": 10423,
      "门口": 10424,
      "第二种": 10425,
      "另一端": 10426,
      "肥胖症": 10427,
      "热带雨林": 10428,
      "55": 10429,
      "Lin": 10430,
      "MA": 10431,
      "七十": 10432,
      "不定": 10433,
      "不相同": 10434,
      "不确定性": 10435,
      "两张": 10436,
      "人种": 10437,
      "介意": 10438,
      "储备": 10439,
      "其余": 10440,
      "前沿": 10441,
      "叫作": 10442,
      "名言": 10443,
      "塔斯": 10444,
      "多余": 10445,
      "好看": 10446,
      "如下": 10447,
      "定制": 10448,
      "屁股": 10449,
      "工艺": 10450,
      "巧合": 10451,
      "年级": 10452,
      "年长": 10453,
      "度假": 10454,
      "抚养": 10455,
      "担任": 10456,
      "接纳": 10457,
      "收音": 10458,
      "新加": 10459,
      "概括": 10460,
      "模样": 10461,
      "没人会": 10462,
      "特斯拉": 10463,
      "猜猜": 10464,
      "现金": 10465,
      "疑惑": 10466,
      "病房": 10467,
      "眼神": 10468,
      "离婚": 10469,
      "穿梭": 10470,
      "置身": 10471,
      "自愿": 10472,
      "色情": 10473,
      "蛛丝": 10474,
      "西雅": 10475,
      "触动": 10476,
      "论坛": 10477,
      "说真的": 10478,
      "走来": 10479,
      "路程": 10480,
      "车上": 10481,
      "追逐": 10482,
      "退化": 10483,
      "配合": 10484,
      "野外": 10485,
      "雇员": 10486,
      "高血压": 10487,
      "ana": 10488,
      "令人吃惊": 10489,
      "海洋生物": 10490,
      "管理局": 10491,
      "ess": 10492,
      "1998": 10493,
      "ose": 10494,
      "综合症": 10495,
      "此时此刻": 10496,
      "公交车": 10497,
      "华尔街": 10498,
      "西雅图": 10499,
      "72": 10500,
      "Ale": 10501,
      "Ver": 10502,
      "Wh": 10503,
      "ct": 10504,
      "la": 10505,
      "三点": 10506,
      "下个": 10507,
      "不满": 10508,
      "价钱": 10509,
      "伯拉": 10510,
      "倡导": 10511,
      "全书": 10512,
      "八字": 10513,
      "写出": 10514,
      "分校": 10515,
      "创始": 10516,
      "删除": 10517,
      "半小时": 10518,
      "原先": 10519,
      "坟墓": 10520,
      "壮大": 10521,
      "多大": 10522,
      "容量": 10523,
      "导航": 10524,
      "巴布": 10525,
      "开普": 10526,
      "心想": 10527,
      "性行为": 10528,
      "怪异": 10529,
      "息息": 10530,
      "才华": 10531,
      "摄入": 10532,
      "放慢": 10533,
      "散步": 10534,
      "新奇": 10535,
      "旁白": 10536,
      "期刊": 10537,
      "木星": 10538,
      "木材": 10539,
      "杀人": 10540,
      "极好": 10541,
      "比率": 10542,
      "沙子": 10543,
      "法规": 10544,
      "海拔": 10545,
      "清除": 10546,
      "真主": 10547,
      "索马里": 10548,
      "红杉": 10549,
      "继承": 10550,
      "英亩": 10551,
      "表述": 10552,
      "路德": 10553,
      "边上": 10554,
      "运送": 10555,
      "闪光": 10556,
      "隐形": 10557,
      "雇主": 10558,
      "雕刻": 10559,
      "飞天": 10560,
      "高质量": 10561,
      "魔法": 10562,
      "黏液": 10563,
      "设计者": 10564,
      "第一条": 10565,
      "第二点": 10566,
      "不用说": 10567,
      "ast": 10568,
      "iPod": 10569,
      "热衷于": 10570,
      "候选人": 10571,
      "路易斯": 10572,
      "收音机": 10573,
      "新加坡": 10574,
      "31": 10575,
      "BF": 10576,
      "LED": 10577,
      "Ne": 10578,
      "Pa": 10579,
      "Rich": 10580,
      "一辈子": 10581,
      "七岁": 10582,
      "上演": 10583,
      "下雨": 10584,
      "两件": 10585,
      "也门": 10586,
      "亨利": 10587,
      "亲近": 10588,
      "仓库": 10589,
      "信赖": 10590,
      "债务": 10591,
      "做爱": 10592,
      "停滞": 10593,
      "冷冻": 10594,
      "出租": 10595,
      "前例": 10596,
      "占有": 10597,
      "叙事": 10598,
      "口哨": 10599,
      "图上": 10600,
      "士多德": 10601,
      "夫人": 10602,
      "尖叫": 10603,
      "尼安德": 10604,
      "平民": 10605,
      "总理": 10606,
      "手势": 10607,
      "敞开": 10608,
      "旁观": 10609,
      "无视": 10610,
      "早餐": 10611,
      "暴风": 10612,
      "月亮": 10613,
      "条约": 10614,
      "树枝": 10615,
      "核磁共振": 10616,
      "橡皮": 10617,
      "欺诈": 10618,
      "水分": 10619,
      "源自": 10620,
      "生机": 10621,
      "画像": 10622,
      "皮质": 10623,
      "直至": 10624,
      "破碎": 10625,
      "祖父母": 10626,
      "积分": 10627,
      "等式": 10628,
      "筹集": 10629,
      "群落": 10630,
      "而成": 10631,
      "肯尼": 10632,
      "苏丹": 10633,
      "著作": 10634,
      "行政": 10635,
      "议程": 10636,
      "质数": 10637,
      "贯穿": 10638,
      "起床": 10639,
      "迁徙": 10640,
      "这门": 10641,
      "逃避": 10642,
      "错过": 10643,
      "阿姆": 10644,
      "非营利": 10645,
      "面孔": 10646,
      "领悟": 10647,
      "世界大战": 10648,
      "百分比": 10649,
      "百分之一": 10650,
      "ach": 10651,
      "火星车": 10652,
      "一辆车": 10653,
      "虚拟世界": 10654,
      "分辨率": 10655,
      "降落伞": 10656,
      "Anderson": 10657,
      "寄生虫": 10658,
      "亚里士多德": 10659,
      "洗衣机": 10660,
      "息息相关": 10661,
      "BA": 10662,
      "da": 10663,
      "oy": 10664,
      "ux": 10665,
      "一栋": 10666,
      "中是": 10667,
      "中部": 10668,
      "义肢": 10669,
      "九岁": 10670,
      "二进制": 10671,
      "亚伯拉": 10672,
      "何种": 10673,
      "修正": 10674,
      "先前": 10675,
      "写信": 10676,
      "出错": 10677,
      "切断": 10678,
      "刑事": 10679,
      "剧场": 10680,
      "化疗": 10681,
      "千米": 10682,
      "南亚": 10683,
      "卡拉": 10684,
      "发声": 10685,
      "发觉": 10686,
      "取消": 10687,
      "史无": 10688,
      "名称": 10689,
      "喂养": 10690,
      "坏人": 10691,
      "大洋": 10692,
      "学业": 10693,
      "常识": 10694,
      "形势": 10695,
      "微观": 10696,
      "急剧": 10697,
      "我敢": 10698,
      "手册": 10699,
      "指望": 10700,
      "探寻": 10701,
      "提炼": 10702,
      "支配": 10703,
      "故障": 10704,
      "村里": 10705,
      "标本": 10706,
      "汤姆": 10707,
      "沙发": 10708,
      "洪水": 10709,
      "浮游": 10710,
      "消亡": 10711,
      "涵盖": 10712,
      "淹没": 10713,
      "滚动": 10714,
      "熟练": 10715,
      "病症": 10716,
      "矿物": 10717,
      "科医生": 10718,
      "签名": 10719,
      "管用": 10720,
      "箭头": 10721,
      "经前": 10722,
      "而然": 10723,
      "联想": 10724,
      "节能": 10725,
      "范畴": 10726,
      "蒸发": 10727,
      "虚构": 10728,
      "证书": 10729,
      "迄今": 10730,
      "避开": 10731,
      "避难": 10732,
      "量化": 10733,
      "针头": 10734,
      "间接": 10735,
      "降雨": 10736,
      "难过": 10737,
      "预见": 10738,
      "鲍勃": 10739,
      "自然选择": 10740,
      "程序员": 10741,
      "无人驾驶": 10742,
      "布鲁克林": 10743,
      "天花板": 10744,
      "一整天": 10745,
      "可口可乐": 10746,
      "八字胡": 10747,
      "亚伯拉罕": 10748,
      "史无前例": 10749,
      "Bar": 10750,
      "Jim": 10751,
      "ld": 10752,
      "一声": 10753,
      "丹麦": 10754,
      "乳腺": 10755,
      "估算": 10756,
      "便利": 10757,
      "列举": 10758,
      "前额": 10759,
      "化学家": 10760,
      "去除": 10761,
      "反思": 10762,
      "受体": 10763,
      "吉他": 10764,
      "回路": 10765,
      "国外": 10766,
      "地平": 10767,
      "地形": 10768,
      "大屠杀": 10769,
      "学金": 10770,
      "实实在": 10771,
      "宣言": 10772,
      "小伙": 10773,
      "布斯": 10774,
      "平行": 10775,
      "废墟": 10776,
      "忠诚": 10777,
      "想出": 10778,
      "意想不到": 10779,
      "我称": 10780,
      "户外": 10781,
      "提起": 10782,
      "新陈": 10783,
      "时空": 10784,
      "明亮": 10785,
      "更快": 10786,
      "有意": 10787,
      "有权": 10788,
      "有生": 10789,
      "桌面": 10790,
      "水域": 10791,
      "涌现": 10792,
      "现存": 10793,
      "生生": 10794,
      "电缆": 10795,
      "画廊": 10796,
      "登陆": 10797,
      "看电视": 10798,
      "破解": 10799,
      "祖国": 10800,
      "细小": 10801,
      "羞辱": 10802,
      "脚步": 10803,
      "药性": 10804,
      "萧条": 10805,
      "薪水": 10806,
      "蜣螂": 10807,
      "见解": 10808,
      "资格": 10809,
      "走动": 10810,
      "路口": 10811,
      "迎接": 10812,
      "道歉": 10813,
      "金森": 10814,
      "锁定": 10815,
      "长得": 10816,
      "霍华": 10817,
      "领先": 10818,
      "高层": 10819,
      "190": 10820,
      "是否是": 10821,
      "挑战性": 10822,
      "支持者": 10823,
      "考虑一下": 10824,
      "enn": 10825,
      "老年痴呆症": 10826,
      "基督徒": 10827,
      "哈佛大学": 10828,
      "菲利普": 10829,
      "实实在在": 10830,
      "新陈代谢": 10831,
      "Bill": 10832,
      "Mic": 10833,
      "ram": 10834,
      "一提": 10835,
      "一是": 10836,
      "一滴": 10837,
      "不禁": 10838,
      "与否": 10839,
      "世代": 10840,
      "两岁": 10841,
      "买下": 10842,
      "人中": 10843,
      "人去": 10844,
      "住宅": 10845,
      "信件": 10846,
      "养育": 10847,
      "冰岛": 10848,
      "友善": 10849,
      "双腿": 10850,
      "召集": 10851,
      "后者": 10852,
      "哈根": 10853,
      "在生活": 10854,
      "地毯": 10855,
      "场地": 10856,
      "奖学金": 10857,
      "奥林": 10858,
      "容纳": 10859,
      "尽全力": 10860,
      "山羊": 10861,
      "左手": 10862,
      "庇护": 10863,
      "开着": 10864,
      "弗里": 10865,
      "彩色": 10866,
      "往下": 10867,
      "微不足": 10868,
      "德克萨斯": 10869,
      "忽然": 10870,
      "手腕": 10871,
      "扔掉": 10872,
      "批判": 10873,
      "承载": 10874,
      "抽烟": 10875,
      "招募": 10876,
      "捐助": 10877,
      "授予": 10878,
      "摄氏度": 10879,
      "摆在": 10880,
      "摩擦": 10881,
      "时会": 10882,
      "星际": 10883,
      "是非": 10884,
      "暴乱": 10885,
      "未曾": 10886,
      "本杰": 10887,
      "本科": 10888,
      "样品": 10889,
      "沙丘": 10890,
      "没想到": 10891,
      "波动": 10892,
      "泰国": 10893,
      "流入": 10894,
      "流浪": 10895,
      "液态": 10896,
      "献给": 10897,
      "球鞋": 10898,
      "电击": 10899,
      "真心": 10900,
      "社团": 10901,
      "章节": 10902,
      "篮球": 10903,
      "粉丝": 10904,
      "精准": 10905,
      "纸片": 10906,
      "绑架": 10907,
      "罪行": 10908,
      "艰苦": 10909,
      "要点": 10910,
      "诺曼": 10911,
      "赞美": 10912,
      "运气": 10913,
      "这本": 10914,
      "选票": 10915,
      "那片": 10916,
      "里程": 10917,
      "钢铁": 10918,
      "阴茎": 10919,
      "阿波": 10920,
      "马尔": 10921,
      "发生变化": 10922,
      "2020": 10923,
      "自然而然": 10924,
      "民主党": 10925,
      "百分之十": 10926,
      "调查局": 10927,
      "负责人": 10928,
      "Stev": 10929,
      "当今世界": 10930,
      "联邦调查局": 10931,
      "恰恰相反": 10932,
      "摩托车": 10933,
      "精神分裂症": 10934,
      "麦当劳": 10935,
      "亚特兰大": 10936,
      "奥林匹": 10937,
      "微不足道": 10938,
      "38": 10939,
      "Em": 10940,
      "He": 10941,
      "Ph": 10942,
      "per": 10943,
      "ric": 10944,
      "一谈": 10945,
      "下角": 10946,
      "严峻": 10947,
      "主权": 10948,
      "书中": 10949,
      "二者": 10950,
      "人家": 10951,
      "传承": 10952,
      "侵略": 10953,
      "做饭": 10954,
      "偷偷": 10955,
      "光学": 10956,
      "公元": 10957,
      "关怀": 10958,
      "冰山": 10959,
      "几秒钟": 10960,
      "压迫": 10961,
      "吉尔": 10962,
      "商场": 10963,
      "回过": 10964,
      "固有": 10965,
      "坚强": 10966,
      "声波": 10967,
      "奢侈": 10968,
      "婚礼": 10969,
      "巴士": 10970,
      "布尔": 10971,
      "座位": 10972,
      "往前": 10973,
      "或少": 10974,
      "所为": 10975,
      "找个": 10976,
      "振动": 10977,
      "族群": 10978,
      "普林": 10979,
      "有创造力": 10980,
      "杀虫": 10981,
      "标识": 10982,
      "核弹": 10983,
      "橡胶": 10984,
      "毒素": 10985,
      "没事": 10986,
      "流量": 10987,
      "游客": 10988,
      "爬行": 10989,
      "电网": 10990,
      "病患": 10991,
      "私营": 10992,
      "类比": 10993,
      "绝妙": 10994,
      "罗德": 10995,
      "耐克": 10996,
      "耗费": 10997,
      "自问": 10998,
      "获益": 10999,
      "蜡烛": 11000,
      "衰退": 11001,
      "裤子": 11002,
      "视线": 11003,
      "谷物": 11004,
      "费曼": 11005,
      "转型": 11006,
      "过多": 11007,
      "遗忘": 11008,
      "重重": 11009,
      "隐喻": 11010,
      "隧道": 11011,
      "风力": 11012,
      "鸽子": 11013,
      "科学界": 11014,
      "生命体": 11015,
      "艺术作品": 11016,
      "第一年": 11017,
      "第二件": 11018,
      "音乐会": 11019,
      "安全局": 11020,
      "ins": 11021,
      "真是太": 11022,
      "现代化": 11023,
      "1999": 11024,
      "浏览器": 11025,
      "西班牙语": 11026,
      "魔术师": 11027,
      "随之而来": 11028,
      "百科全书": 11029,
      "克林顿": 11030,
      "晶体管": 11031,
      "无神论者": 11032,
      "霍华德": 11033,
      "在生活中": 11034,
      "本杰明": 11035,
      "Han": 11036,
      "cy": 11037,
      "iz": 11038,
      "ton": 11039,
      "一顿": 11040,
      "中等": 11041,
      "丽莎": 11042,
      "事先": 11043,
      "交往": 11044,
      "亲戚": 11045,
      "从那": 11046,
      "元件": 11047,
      "兔子": 11048,
      "全美": 11049,
      "兴起": 11050,
      "切尔": 11051,
      "双眼": 11052,
      "只好": 11053,
      "否定": 11054,
      "哥本": 11055,
      "国旗": 11056,
      "图标": 11057,
      "塔尔": 11058,
      "士比亚": 11059,
      "多或少": 11060,
      "大笑": 11061,
      "太小": 11062,
      "奇异": 11063,
      "安娜": 11064,
      "小儿": 11065,
      "平时": 11066,
      "思索": 11067,
      "想得到": 11068,
      "或多或少": 11069,
      "无尽": 11070,
      "无辜": 11071,
      "星盘": 11072,
      "板块": 11073,
      "柔软": 11074,
      "标注": 11075,
      "检察": 11076,
      "每隔": 11077,
      "民间": 11078,
      "泥土": 11079,
      "渗透": 11080,
      "游击": 11081,
      "潮流": 11082,
      "激起": 11083,
      "火灾": 11084,
      "点燃": 11085,
      "爱滋": 11086,
      "王子": 11087,
      "盘子": 11088,
      "直立": 11089,
      "相结合": 11090,
      "秘诀": 11091,
      "笼子": 11092,
      "管制": 11093,
      "类别": 11094,
      "肾脏": 11095,
      "艾瑞克": 11096,
      "莎士比亚": 11097,
      "莱斯特": 11098,
      "葬礼": 11099,
      "蕴含": 11100,
      "行人": 11101,
      "解开": 11102,
      "读过": 11103,
      "起步": 11104,
      "越是": 11105,
      "这要": 11106,
      "远处": 11107,
      "逃脱": 11108,
      "透露": 11109,
      "造型": 11110,
      "风筝": 11111,
      "饮料": 11112,
      "饮用水": 11113,
      "鸡蛋": 11114,
      "非常高兴": 11115,
      "2030": 11116,
      "1970": 11117,
      "令人震惊": 11118,
      "合作者": 11119,
      "ash": 11120,
      "edia": 11121,
      "遗传学": 11122,
      "圣诞节": 11123,
      "哥本哈根": 11124,
      "96": 11125,
      "Har": 11126,
      "IBM": 11127,
      "Tom": 11128,
      "pe": 11129,
      "三位": 11130,
      "两样": 11131,
      "两分钟": 11132,
      "中世纪": 11133,
      "之年": 11134,
      "产权": 11135,
      "会计": 11136,
      "伦斯": 11137,
      "住民": 11138,
      "作战": 11139,
      "便会": 11140,
      "偏离": 11141,
      "减速": 11142,
      "几千年": 11143,
      "卡因": 11144,
      "原体": 11145,
      "原创": 11146,
      "发音": 11147,
      "咱们": 11148,
      "嘴里": 11149,
      "四点": 11150,
      "圆柱": 11151,
      "堆积": 11152,
      "壮观": 11153,
      "处方": 11154,
      "外出": 11155,
      "大事": 11156,
      "大洲": 11157,
      "大选": 11158,
      "大都": 11159,
      "天上": 11160,
      "子孙": 11161,
      "客人": 11162,
      "小东西": 11163,
      "尼古": 11164,
      "展望": 11165,
      "山上": 11166,
      "常用": 11167,
      "开会": 11168,
      "开拓": 11169,
      "归功": 11170,
      "性工作者": 11171,
      "我以": 11172,
      "打赌": 11173,
      "拥挤": 11174,
      "排队": 11175,
      "旋律": 11176,
      "日期": 11177,
      "梅隆": 11178,
      "歇尔": 11179,
      "毁掉": 11180,
      "毒性": 11181,
      "民权": 11182,
      "法语": 11183,
      "活在": 11184,
      "深层": 11185,
      "爱上": 11186,
      "牛仔": 11187,
      "物件": 11188,
      "特有": 11189,
      "王国": 11190,
      "瓦特": 11191,
      "生来": 11192,
      "百个": 11193,
      "真诚": 11194,
      "着眼": 11195,
      "稍后": 11196,
      "空调": 11197,
      "策划": 11198,
      "纸张": 11199,
      "组件": 11200,
      "罪恶": 11201,
      "羽毛": 11202,
      "老虎": 11203,
      "胚胎": 11204,
      "草地": 11205,
      "藻类": 11206,
      "语法": 11207,
      "调研": 11208,
      "贝拉": 11209,
      "费城": 11210,
      "赛鲁士": 11211,
      "走到": 11212,
      "输送": 11213,
      "还好": 11214,
      "闭上": 11215,
      "降临": 11216,
      "零售": 11217,
      "霉菌": 11218,
      "非同": 11219,
      "面团": 11220,
      "一个个": 11221,
      "世界观": 11222,
      "非常容易": 11223,
      "通过观察": 11224,
      "2015": 11225,
      "动物园": 11226,
      "安全套": 11227,
      "增长率": 11228,
      "真实世界": 11229,
      "发明家": 11230,
      "另一面": 11231,
      "平均值": 11232,
      "工业化": 11233,
      "操作系统": 11234,
      "统计学": 11235,
      "osh": 11236,
      "不太好": 11237,
[...]
